{
  "version": "1.0",
  "truncation": null,
  "padding": null,
  "added_tokens": [
    {
      "id": 0,
      "content": "<pad>",
      "single_word": false,
      "lstrip": false,
      "rstrip": false,
      "normalized": false,
      "special": true
    },
    {
      "id": 1,
      "content": "<s>",
      "single_word": false,
      "lstrip": false,
      "rstrip": false,
      "normalized": false,
      "special": true
    },
    {
      "id": 2,
      "content": "</s>",
      "single_word": false,
      "lstrip": false,
      "rstrip": false,
      "normalized": false,
      "special": true
    },
    {
      "id": 3,
      "content": "<unk>",
      "single_word": false,
      "lstrip": false,
      "rstrip": false,
      "normalized": false,
      "special": true
    },
    {
      "id": 4,
      "content": "<mask>",
      "single_word": false,
      "lstrip": false,
      "rstrip": false,
      "normalized": false,
      "special": true
    }
  ],
  "normalizer": {
    "type": "Sequence",
    "normalizers": [
      {
        "type": "Lowercase"
      }
    ]
  },
  "pre_tokenizer": {
    "type": "ByteLevel",
    "add_prefix_space": true,
    "trim_offsets": true,
    "use_regex": true
  },
  "post_processor": null,
  "decoder": {
    "type": "ByteLevel",
    "add_prefix_space": true,
    "trim_offsets": true,
    "use_regex": true
  },
  "model": {
    "type": "BPE",
    "dropout": null,
    "unk_token": null,
    "continuing_subword_prefix": null,
    "end_of_word_suffix": null,
    "fuse_unk": false,
    "byte_fallback": false,
    "ignore_merges": false,
    "vocab": {
      "<pad>": 0,
      "<s>": 1,
      "</s>": 2,
      "<unk>": 3,
      "<mask>": 4,
      "!": 5,
      "\"": 6,
      "#": 7,
      "$": 8,
      "%": 9,
      "&": 10,
      "'": 11,
      "(": 12,
      ")": 13,
      "*": 14,
      "+": 15,
      ",": 16,
      "-": 17,
      ".": 18,
      "/": 19,
      "0": 20,
      "1": 21,
      "2": 22,
      "3": 23,
      "4": 24,
      "5": 25,
      "6": 26,
      "7": 27,
      "8": 28,
      "9": 29,
      ":": 30,
      ";": 31,
      "<": 32,
      "=": 33,
      ">": 34,
      "?": 35,
      "@": 36,
      "A": 37,
      "B": 38,
      "C": 39,
      "D": 40,
      "E": 41,
      "F": 42,
      "G": 43,
      "H": 44,
      "I": 45,
      "J": 46,
      "K": 47,
      "L": 48,
      "M": 49,
      "N": 50,
      "O": 51,
      "P": 52,
      "Q": 53,
      "R": 54,
      "S": 55,
      "T": 56,
      "U": 57,
      "V": 58,
      "W": 59,
      "X": 60,
      "Y": 61,
      "Z": 62,
      "[": 63,
      "\\": 64,
      "]": 65,
      "^": 66,
      "_": 67,
      "`": 68,
      "a": 69,
      "b": 70,
      "c": 71,
      "d": 72,
      "e": 73,
      "f": 74,
      "g": 75,
      "h": 76,
      "i": 77,
      "j": 78,
      "k": 79,
      "l": 80,
      "m": 81,
      "n": 82,
      "o": 83,
      "p": 84,
      "q": 85,
      "r": 86,
      "s": 87,
      "t": 88,
      "u": 89,
      "v": 90,
      "w": 91,
      "x": 92,
      "y": 93,
      "z": 94,
      "{": 95,
      "|": 96,
      "}": 97,
      "~": 98,
      "¡": 99,
      "¢": 100,
      "£": 101,
      "¤": 102,
      "¥": 103,
      "¦": 104,
      "§": 105,
      "¨": 106,
      "©": 107,
      "ª": 108,
      "«": 109,
      "¬": 110,
      "®": 111,
      "¯": 112,
      "°": 113,
      "±": 114,
      "²": 115,
      "³": 116,
      "´": 117,
      "µ": 118,
      "¶": 119,
      "·": 120,
      "¸": 121,
      "¹": 122,
      "º": 123,
      "»": 124,
      "¼": 125,
      "½": 126,
      "¾": 127,
      "¿": 128,
      "À": 129,
      "Á": 130,
      "Â": 131,
      "Ã": 132,
      "Ä": 133,
      "Å": 134,
      "Æ": 135,
      "Ç": 136,
      "È": 137,
      "É": 138,
      "Ê": 139,
      "Ë": 140,
      "Ì": 141,
      "Í": 142,
      "Î": 143,
      "Ï": 144,
      "Ð": 145,
      "Ñ": 146,
      "Ò": 147,
      "Ó": 148,
      "Ô": 149,
      "Õ": 150,
      "Ö": 151,
      "×": 152,
      "Ø": 153,
      "Ù": 154,
      "Ú": 155,
      "Û": 156,
      "Ü": 157,
      "Ý": 158,
      "Þ": 159,
      "ß": 160,
      "à": 161,
      "á": 162,
      "â": 163,
      "ã": 164,
      "ä": 165,
      "å": 166,
      "æ": 167,
      "ç": 168,
      "è": 169,
      "é": 170,
      "ê": 171,
      "ë": 172,
      "ì": 173,
      "í": 174,
      "î": 175,
      "ï": 176,
      "ð": 177,
      "ñ": 178,
      "ò": 179,
      "ó": 180,
      "ô": 181,
      "õ": 182,
      "ö": 183,
      "÷": 184,
      "ø": 185,
      "ù": 186,
      "ú": 187,
      "û": 188,
      "ü": 189,
      "ý": 190,
      "þ": 191,
      "ÿ": 192,
      "Ā": 193,
      "ā": 194,
      "Ă": 195,
      "ă": 196,
      "Ą": 197,
      "ą": 198,
      "Ć": 199,
      "ć": 200,
      "Ĉ": 201,
      "ĉ": 202,
      "Ċ": 203,
      "ċ": 204,
      "Č": 205,
      "č": 206,
      "Ď": 207,
      "ď": 208,
      "Đ": 209,
      "đ": 210,
      "Ē": 211,
      "ē": 212,
      "Ĕ": 213,
      "ĕ": 214,
      "Ė": 215,
      "ė": 216,
      "Ę": 217,
      "ę": 218,
      "Ě": 219,
      "ě": 220,
      "Ĝ": 221,
      "ĝ": 222,
      "Ğ": 223,
      "ğ": 224,
      "Ġ": 225,
      "ġ": 226,
      "Ģ": 227,
      "ģ": 228,
      "Ĥ": 229,
      "ĥ": 230,
      "Ħ": 231,
      "ħ": 232,
      "Ĩ": 233,
      "ĩ": 234,
      "Ī": 235,
      "ī": 236,
      "Ĭ": 237,
      "ĭ": 238,
      "Į": 239,
      "į": 240,
      "İ": 241,
      "ı": 242,
      "Ĳ": 243,
      "ĳ": 244,
      "Ĵ": 245,
      "ĵ": 246,
      "Ķ": 247,
      "ķ": 248,
      "ĸ": 249,
      "Ĺ": 250,
      "ĺ": 251,
      "Ļ": 252,
      "ļ": 253,
      "Ľ": 254,
      "ľ": 255,
      "Ŀ": 256,
      "ŀ": 257,
      "Ł": 258,
      "ł": 259,
      "Ń": 260,
      "Ġt": 261,
      "Ġa": 262,
      "he": 263,
      "in": 264,
      "Ġs": 265,
      "Ġw": 266,
      "Ġm": 267,
      "re": 268,
      "Ġo": 269,
      "ha": 270,
      "ou": 271,
      "Ġb": 272,
      "Ġi": 273,
      "er": 274,
      "Ġthe": 275,
      "nd": 276,
      "Ġc": 277,
      "Ġto": 278,
      "on": 279,
      "Ġf": 280,
      "Ġhe": 281,
      "ing": 282,
      "en": 283,
      "ed": 284,
      "Ġand": 285,
      "Ġn": 286,
      "Ġha": 287,
      "Ġof": 288,
      "Ġd": 289,
      "Ġbe": 290,
      "ll": 291,
      "is": 292,
      "it": 293,
      "Ġp": 294,
      "Ġe": 295,
      "le": 296,
      "as": 297,
      "Ġh": 298,
      "or": 299,
      "Ġin": 300,
      "Ġno": 301,
      "an": 302,
      "ĠĊ": 303,
      "es": 304,
      "ar": 305,
      "at": 306,
      "om": 307,
      "Ġy": 308,
      "Ġher": 309,
      "ver": 310,
      "ld": 311,
      "Ġit": 312,
      "Ġyou": 313,
      "Ġg": 314,
      "Ġl": 315,
      "Ġnot": 316,
      "ve": 317,
      "Ġshe": 318,
      "Ġwas": 319,
      "hat": 320,
      "gh": 321,
      "ly": 322,
      "st": 323,
      "Ġth": 324,
      "ut": 325,
      "ch": 326,
      "se": 327,
      "Ġ\"": 328,
      "ould": 329,
      "ion": 330,
      "ce": 331,
      "Ġre": 332,
      "ri": 333,
      "Ġmr": 334,
      "ent": 335,
      "ay": 336,
      "Ġthat": 337,
      "Ġas": 338,
      "ght": 339,
      "ow": 340,
      "Ġfor": 341,
      "very": 342,
      "Ġhad": 343,
      "et": 344,
      "ith": 345,
      "Ġon": 346,
      "im": 347,
      "Ġsu": 348,
      "Ġan": 349,
      "id": 350,
      "Ġwith": 351,
      "Ġwe": 352,
      "ir": 353,
      "ct": 354,
      "Ġbut": 355,
      "Ġso": 356,
      "her": 357,
      "Ġu": 358,
      "Ġat": 359,
      "Ġhave": 360,
      "Ġis": 361,
      "od": 362,
      "al": 363,
      "Ġwh": 364,
      "Ġk": 365,
      "Ġvery": 366,
      "ma": 367,
      "ill": 368,
      "Ġhis": 369,
      ".\"": 370,
      "Ġmu": 371,
      "ur": 372,
      "ad": 373,
      "ight": 374,
      "Ġall": 375,
      "Ġkn": 376,
      "ro": 377,
      "pe": 378,
      "Ġme": 379,
      "'s": 380,
      "ter": 381,
      "Ġde": 382,
      "Ġhim": 383,
      "qu": 384,
      "Ġem": 385,
      "Ġse": 386,
      "Ġcon": 387,
      "ton": 388,
      "Ġdo": 389,
      "Ġmo": 390,
      "Ġemma": 391,
      "Ġcom": 392,
      "Ġcould": 393,
      "ble": 394,
      "Ġsa": 395,
      "Ġwould": 396,
      "ain": 397,
      "Ġj": 398,
      "Ġmy": 399,
      "Ġne": 400,
      "Ġhar": 401,
      "Ġfr": 402,
      "ood": 403,
      "lf": 404,
      "Ġbeen": 405,
      "pp": 406,
      "ation": 407,
      "Ġst": 408,
      "ak": 409,
      "Ġmis": 410,
      "ess": 411,
      "Ġex": 412,
      "Ġmrs": 413,
      "Ġwhi": 414,
      "all": 415,
      "ra": 416,
      "Ġany": 417,
      "ther": 418,
      "ic": 419,
      "ul": 420,
      "ss": 421,
      "fe": 422,
      "Ġfe": 423,
      "Ġle": 424,
      "ge": 425,
      "Ġlo": 426,
      "self": 427,
      "han": 428,
      "Ġmiss": 429,
      "Ġwere": 430,
      "me": 431,
      "Ġwill": 432,
      "ant": 433,
      "red": 434,
      "Ġthere": 435,
      "art": 436,
      "Ġam": 437,
      "Ġby": 438,
      "Ġfa": 439,
      "Ġmust": 440,
      "ome": 441,
      "ort": 442,
      "Ġwhich": 443,
      "Ġfrom": 444,
      "Ġwhe": 445,
      "Ġper": 446,
      "Ġal": 447,
      "Ġsh": 448,
      "Ġthey": 449,
      "Ġor": 450,
      "Ġwhat": 451,
      "our": 452,
      "riet": 453,
      "li": 454,
      "out": 455,
      "Ġman": 456,
      "Ġli": 457,
      "Ġqu": 458,
      "ard": 459,
      "Ġthis": 460,
      "de": 461,
      "Ġharriet": 462,
      "ink": 463,
      "Ġsee": 464,
      "Ġel": 465,
      "ure": 466,
      "itt": 467,
      "Ġsaid": 468,
      "ok": 469,
      "Ġmuch": 470,
      "Ġsuch": 471,
      "Ġknow": 472,
      "able": 473,
      "Ġthem": 474,
      "Ġhow": 475,
      "Ġmore": 476,
      "Ġthou": 477,
      "Ġthan": 478,
      "ind": 479,
      "Ġthink": 480,
      "Ġthing": 481,
      "Ġif": 482,
      "ate": 483,
      "Ġare": 484,
      "Ġwes": 485,
      "Ġone": 486,
      "Ġv": 487,
      "Ġweston": 488,
      "ry": 489,
      "te": 490,
      "Ġdis": 491,
      "reat": 492,
      "Ġch": 493,
      "Ġevery": 494,
      ",\"": 495,
      "Ġag": 496,
      "mp": 497,
      "Ġpre": 498,
      "ot": 499,
      "Ġen": 500,
      "ite": 501,
      "hing": 502,
      "ouse": 503,
      "Ġcan": 504,
      "Ġwho": 505,
      "Ġyour": 506,
      "ong": 507,
      "ment": 508,
      "Ġun": 509,
      "Ġelton": 510,
      "Ġab": 511,
      "ley": 512,
      "Ġaf": 513,
      "ather": 514,
      "Ġpro": 515,
      "ightley": 516,
      "Ġsay": 517,
      "ance": 518,
      "Ġknightley": 519,
      "Ġca": 520,
      "Ġpo": 521,
      "way": 522,
      "Ġwhen": 523,
      "ell": 524,
      "ore": 525,
      "Ġshould": 526,
      "ven": 527,
      "ive": 528,
      "and": 529,
      "Ġgood": 530,
      "wn": 531,
      "Ġlitt": 532,
      "ved": 533,
      "Ġr": 534,
      "Ġlittle": 535,
      "Ġbeing": 536,
      "el": 537,
      "il": 538,
      "ally": 539,
      "ous": 540,
      "alk": 541,
      "Ġnever": 542,
      "ke": 543,
      "Ġwell": 544,
      "Ġdid": 545,
      "if": 546,
      "Ġup": 547,
      "Ġac": 548,
      "ity": 549,
      "Ġpart": 550,
      "end": 551,
      "Ġco": 552,
      "Ġonly": 553,
      "est": 554,
      "Ġgreat": 555,
      "us": 556,
      "Ġfri": 557,
      "Ġcomp": 558,
      "Ġmight": 559,
      "med": 560,
      "tter": 561,
      "Ġwood": 562,
      "ane": 563,
      "Ġwoodh": 564,
      "fore": 565,
      "leas": 566,
      "Ġwoodhouse": 567,
      "Ġwor": 568,
      "Ġtim": 569,
      "Ġown": 570,
      "fa": 571,
      "ving": 572,
      "Ġtheir": 573,
      "one": 574,
      "un": 575,
      "Ġnow": 576,
      "Ġfriend": 577,
      "ake": 578,
      "nder": 579,
      "Ġother": 580,
      "Ġlook": 581,
      "ast": 582,
      "Ġsha": 583,
      "ie": 584,
      "Ġsp": 585,
      "Ġad": 586,
      "Ġsome": 587,
      "Ġjane": 588,
      "Ġpleas": 589,
      "ect": 590,
      "Ġju": 591,
      "Ġob": 592,
      "Ġfair": 593,
      "ac": 594,
      "ody": 595,
      "Ġhapp": 596,
      "ru": 597,
      "Ġherself": 598,
      "Ġquite": 599,
      "Ġtime": 600,
      "Ġthought": 601,
      "Ġgo": 602,
      "ence": 603,
      "ness": 604,
      "ert": 605,
      "Ġfeel": 606,
      "Ġagain": 607,
      "os": 608,
      "age": 609,
      "ol": 610,
      "Ġint": 611,
      "Ġus": 612,
      "ose": 613,
      "ade": 614,
      "Ġpl": 615,
      "pect": 616,
      "Ġtoo": 617,
      "Ġbefore": 618,
      "ren": 619,
      "ree": 620,
      "Ġnothing": 621,
      "Ġres": 622,
      "Ġhas": 623,
      "Ġmost": 624,
      "Ġlike": 625,
      "urch": 626,
      "ab": 627,
      "Ġchurch": 628,
      "Ġabout": 629,
      "Ġho": 630,
      "fax": 631,
      "Ġfairfax": 632,
      "fect": 633,
      "ways": 634,
      "?\"": 635,
      "Ġchurchill": 636,
      "Ġwis": 637,
      "Ġsoon": 638,
      "igh": 639,
      "ough": 640,
      "Ġalways": 641,
      "ful": 642,
      "Ġeven": 643,
      "Ġdear": 644,
      "pt": 645,
      "ank": 646,
      "per": 647,
      "Ġcons": 648,
      "ious": 649,
      "ple": 650,
      "hed": 651,
      "Ġcha": 652,
      "Ġmay": 653,
      "Ġout": 654,
      "Ġinde": 655,
      "Ġlong": 656,
      "ire": 657,
      "ice": 658,
      "Ġspe": 659,
      "Ġfir": 660,
      "th": 661,
      "Ġshall": 662,
      "urn": 663,
      "ng": 664,
      "Ġwithout": 665,
      "Ġtw": 666,
      "ound": 667,
      "Ġatt": 668,
      "Ġsm": 669,
      "Ġday": 670,
      "Ġfirst": 671,
      "ies": 672,
      "Ġwant": 673,
      "ged": 674,
      "Ġfather": 675,
      "Ġafter": 676,
      "Ġsure": 677,
      "ine": 678,
      "Ġfrank": 679,
      "oh": 680,
      "au": 681,
      "ner": 682,
      "are": 683,
      "Ġmade": 684,
      "Ġunder": 685,
      "Ġjust": 686,
      "ject": 687,
      "ady": 688,
      "Ġyoung": 689,
      "ible": 690,
      "ten": 691,
      "anc": 692,
      "ions": 693,
      "ever": 694,
      "Ġtalk": 695,
      "Ġbody": 696,
      "um": 697,
      "Ġmar": 698,
      "Ġever": 699,
      "Ġindeed": 700,
      "ward": 701,
      "ress": 702,
      "Ġimp": 703,
      "ield": 704,
      "ass": 705,
      "Ġri": 706,
      "Ġbat": 707,
      "Ġtwo": 708,
      "Ġover": 709,
      "ily": 710,
      "fort": 711,
      "ings": 712,
      "Ġbeg": 713,
      "Ġthough": 714,
      "Ġap": 715,
      "not": 716,
      "Ġbetter": 717,
      "com": 718,
      "field": 719,
      "ond": 720,
      "we": 721,
      "Ġway": 722,
      "Ġsupp": 723,
      "lie": 724,
      "oun": 725,
      "ried": 726,
      "row": 727,
      "cl": 728,
      "Ġpr": 729,
      "Ġcome": 730,
      "iness": 731,
      "Ġhigh": 732,
      "ertain": 733,
      "Ġrep": 734,
      "ise": 735,
      "ning": 736,
      "Ġro": 737,
      "Ġthen": 738,
      "ty": 739,
      "Ġinto": 740,
      "Ġop": 741,
      "Ġdel": 742,
      "icul": 743,
      "!\"": 744,
      "ted": 745,
      "tfield": 746,
      "Ġhartfield": 747,
      "Ġpres": 748,
      "ck": 749,
      "Ġgive": 750,
      "Ġar": 751,
      "Ġwalk": 752,
      "ach": 753,
      "Ġhere": 754,
      "Ġbelie": 755,
      "Ġsub": 756,
      "Ġpers": 757,
      "Ġoff": 758,
      "Ġreally": 759,
      "Ġbates": 760,
      "Ġmake": 761,
      "omet": 762,
      "Ġwom": 763,
      "Ġinte": 764,
      "Ġspeak": 765,
      "Ġsomet": 766,
      "Ġgi": 767,
      "Ġletter": 768,
      "ig": 769,
      "ied": 770,
      "Ġass": 771,
      "oub": 772,
      "Ġhaving": 773,
      "Ġmean": 774,
      "Ġhimself": 775,
      "Ġappe": 776,
      "get": 777,
      "Ġsat": 778,
      "Ġdif": 779,
      "Ġupon": 780,
      "Ġword": 781,
      "Ġhope": 782,
      "Ġkind": 783,
      "Ġrather": 784,
      "mo": 785,
      "Ġent": 786,
      "Ġdone": 787,
      "Ġapp": 788,
      "Ġbr": 789,
      "Ġcannot": 790,
      "Ġseemed": 791,
      "Ġaway": 792,
      "Ġmom": 793,
      "feren": 794,
      "Ġmany": 795,
      "Ġmoment": 796,
      "ci": 797,
      "ĠĠ": 798,
      "Ġra": 799,
      "Ġpass": 800,
      "ull": 801,
      "ined": 802,
      "Ġhear": 803,
      "Ġwish": 804,
      "oy": 805,
      "ves": 806,
      "Ġdes": 807,
      "Ġhome": 808,
      "ury": 809,
      "pl": 810,
      "ps": 811,
      "Ġpe": 812,
      "Ġret": 813,
      "Ġmind": 814,
      "Ġfar": 815,
      "Ġwhile": 816,
      "Ġconsid": 817,
      "Ġwoman": 818,
      "ag": 819,
      "Ġcertain": 820,
      "Ġcont": 821,
      "Ġvis": 822,
      "ber": 823,
      "led": 824,
      "Ġhand": 825,
      "Ġdoub": 826,
      "Ġlove": 827,
      "Ġhowever": 828,
      "cc": 829,
      "itu": 830,
      "Ġlast": 831,
      "Ġdoes": 832,
      "Ġenough": 833,
      "Ġset": 834,
      "ary": 835,
      "Ġmanner": 836,
      "ace": 837,
      "Ġposs": 838,
      "Ġvisit": 839,
      "bury": 840,
      "ix": 841,
      "ction": 842,
      "Ġfel": 843,
      "Ġpleasure": 844,
      "Ġhappy": 845,
      "Ġunderst": 846,
      "Ġhighbury": 847,
      "ught": 848,
      "well": 849,
      "Ġmor": 850,
      "ared": 851,
      "Ġind": 852,
      "ated": 853,
      "Ġits": 854,
      "Ġgr": 855,
      "Ġcomfort": 856,
      "Ġdist": 857,
      "int": 858,
      "Ġpoor": 859,
      "Ġbl": 860,
      "Ġheard": 861,
      "Ġcame": 862,
      "Ġgoing": 863,
      "oll": 864,
      "yes": 865,
      "Ġhalf": 866,
      "arly": 867,
      "ention": 868,
      "ctly": 869,
      "Ġour": 870,
      "Ġeng": 871,
      "Ġobli": 872,
      "Ġpresent": 873,
      "ave": 874,
      "Ġtake": 875,
      "ither": 876,
      "Ġacqu": 877,
      "Ġdoubt": 878,
      "am": 879,
      "ild": 880,
      "Ġte": 881,
      "Ġide": 882,
      "Ġext": 883,
      "Ġstill": 884,
      "ately": 885,
      "other": 886,
      "Ġcar": 887,
      "ars": 888,
      "Ġreg": 889,
      "Ġsen": 890,
      "Ġsort": 891,
      "Ġwr": 892,
      "Ġconsider": 893,
      "Ġfelt": 894,
      "use": 895,
      "you": 896,
      "Ġsc": 897,
      "cept": 898,
      "Ġanother": 899,
      "ced": 900,
      "fer": 901,
      "Ġtell": 902,
      "Ġmat": 903,
      "les": 904,
      "Ġperfect": 905,
      "Ġsomething": 906,
      "Ġmorning": 907,
      "Ġ`": 908,
      "Ġcall": 909,
      "Ġnat": 910,
      "Ġfew": 911,
      "wards": 912,
      "Ġsubject": 913,
      "Ġreturn": 914,
      "ist": 915,
      "Ġyet": 916,
      "Ġocc": 917,
      "Ġsaw": 918,
      "Ġfriends": 919,
      "ne": 920,
      "Ġ(": 921,
      "osed": 922,
      "be": 923,
      "Ġtr": 924,
      "Ġcl": 925,
      "Ġend": 926,
      "Ġhouse": 927,
      "Ġgen": 928,
      "ations": 929,
      "most": 930,
      "Ġser": 931,
      "rest": 932,
      "riage": 933,
      "ount": 934,
      "gether": 935,
      "Ġhour": 936,
      "ably": 937,
      "ep": 938,
      "its": 939,
      "Ġsur": 940,
      "Ġsame": 941,
      "Ġmyself": 942,
      "ack": 943,
      "Ġfeelings": 944,
      "Ġdelight": 945,
      "Ġbelieve": 946,
      "arm": 947,
      "Ġgl": 948,
      "ide": 949,
      "Ġallow": 950,
      "Ġright": 951,
      "Ġunderstand": 952,
      "Ġtill": 953,
      "Ġchild": 954,
      "Ġparticul": 955,
      "Ġchar": 956,
      "Ġsatis": 957,
      "Ġidea": 958,
      "ame": 959,
      "ret": 960,
      "haps": 961,
      "Ġima": 962,
      "Ġchan": 963,
      "own": 964,
      "Ġacc": 965,
      "Ġgener": 966,
      "Ġmart": 967,
      "Ġdeal": 968,
      "oth": 969,
      "Ġroom": 970,
      "Ġimag": 971,
      "Ġmartin": 972,
      "ser": 973,
      "Ġtru": 974,
      "Ġevening": 975,
      "Ġev": 976,
      "Ġconf": 977,
      "alls": 978,
      "Ġacquain": 979,
      "ior": 980,
      "ople": 981,
      "Ġfound": 982,
      "Ġoften": 983,
      "Ġpa": 984,
      "Ġrec": 985,
      "Ġfort": 986,
      "Ġfam": 987,
      "Ġparty": 988,
      "Ġought": 989,
      "Ġgent": 990,
      "Ġask": 991,
      "Ġans": 992,
      "Ġsec": 993,
      "Ġspir": 994,
      "Ġinterest": 995,
      "Ġpeople": 996,
      "Ġcertainly": 997,
      "but": 998,
      "Ġold": 999,
      "Ġfind": 1000,
      "Ġinst": 1001,
      "lied": 1002,
      "Ġrand": 1003,
      "Ġtak": 1004,
      "Ġthose": 1005,
      "Ġlet": 1006,
      "Ġwhere": 1007,
      "less": 1008,
      "Ġexpect": 1009,
      "Ġperhaps": 1010,
      "Ġlooked": 1011,
      "Ġadm": 1012,
      "Ġadv": 1013,
      "ince": 1014,
      "Ġim": 1015,
      "Ġill": 1016,
      "irc": 1017,
      "Ġstr": 1018,
      "Ġplace": 1019,
      "Ġsmith": 1020,
      "ohn": 1021,
      "Ġmarry": 1022,
      "Ġrandalls": 1023,
      "body": 1024,
      "cess": 1025,
      "ew": 1026,
      "Ġbest": 1027,
      "ase": 1028,
      "ety": 1029,
      "Ġhard": 1030,
      "ick": 1031,
      "Ġaffect": 1032,
      "Ġadd": 1033,
      "ason": 1034,
      "Ġyes": 1035,
      "Ġknew": 1036,
      "Ġcoming": 1037,
      "Ġalmost": 1038,
      "Ġturn": 1039,
      "Ġbec": 1040,
      "Ġye": 1041,
      "Ġget": 1042,
      "Ġjohn": 1043,
      "Ġperson": 1044,
      "mon": 1045,
      "Ġcirc": 1046,
      "Ġref": 1047,
      "ft": 1048,
      "the": 1049,
      "ual": 1050,
      "Ġboth": 1051,
      "ish": 1052,
      "Ġleast": 1053,
      "medi": 1054,
      "day": 1055,
      "Ġbet": 1056,
      "Ġinv": 1057,
      "Ġsus": 1058,
      "Ġworld": 1059,
      "Ġpossible": 1060,
      "Ġimmedi": 1061,
      "Ġequ": 1062,
      "cei": 1063,
      "Ġonce": 1064,
      "Ġdifferen": 1065,
      "ue": 1066,
      "oura": 1067,
      "ord": 1068,
      "ang": 1069,
      "Ġperry": 1070,
      "Ġelse": 1071,
      "Ġgentle": 1072,
      "Ġbro": 1073,
      "Ġcried": 1074,
      "Ġtogether": 1075,
      "Ġexp": 1076,
      "Ġsuppose": 1077,
      "Ġopen": 1078,
      "pri": 1079,
      "Ġgone": 1080,
      "Ġrest": 1081,
      "Ġlife": 1082,
      "Ġobser": 1083,
      "Ġresol": 1084,
      "Ġrespect": 1085,
      "Ġopin": 1086,
      "ired": 1087,
      "Ġoh": 1088,
      "Ġcour": 1089,
      "Ġdown": 1090,
      "Ġinc": 1091,
      "Ġread": 1092,
      "Ġless": 1093,
      "Ġreplied": 1094,
      "no": 1095,
      "reme": 1096,
      "Ġtold": 1097,
      "Ġdire": 1098,
      "Ġinf": 1099,
      "Ġgra": 1100,
      "Ġmeet": 1101,
      "Ġpret": 1102,
      "Ġcamp": 1103,
      "bell": 1104,
      "vi": 1105,
      "pend": 1106,
      "Ġshort": 1107,
      "Ġagree": 1108,
      "Ġjud": 1109,
      "Ġgiven": 1110,
      "Ġextreme": 1111,
      "Ġfamily": 1112,
      "Ġcampbell": 1113,
      "ting": 1114,
      "Ġsince": 1115,
      "Ġheart": 1116,
      "Ġdra": 1117,
      "Ġlady": 1118,
      "ower": 1119,
      "Ġwhole": 1120,
      "Ġcompl": 1121,
      "Ġhappiness": 1122,
      "Ġwanted": 1123,
      "aught": 1124,
      "Ġobliged": 1125,
      "Ġwi": 1126,
      "Ġwo": 1127,
      "Ġbus": 1128,
      "ition": 1129,
      "Ġput": 1130,
      "Ġdisp": 1131,
      "Ġbegin": 1132,
      "Ġappear": 1133,
      "wer": 1134,
      "Ġmin": 1135,
      "iment": 1136,
      "Ġmother": 1137,
      "Ġseem": 1138,
      "Ġcompan": 1139,
      "ween": 1140,
      "Ġwarm": 1141,
      "Ġsuper": 1142,
      "Ġseen": 1143,
      "Ġnew": 1144,
      "ract": 1145,
      "Ġcare": 1146,
      "Ġside": 1147,
      "Ġche": 1148,
      "Ġsuf": 1149,
      "Ġke": 1150,
      "unt": 1151,
      "Ġspok": 1152,
      "Ġhop": 1153,
      "ully": 1154,
      "Ġanswer": 1155,
      "Ġwonder": 1156,
      "dd": 1157,
      "ging": 1158,
      "vour": 1159,
      "Ġable": 1160,
      "Ġsor": 1161,
      "Ġsitu": 1162,
      "Ġback": 1163,
      "Ġwhom": 1164,
      "Ġprom": 1165,
      "Ġcontin": 1166,
      "Ġsurpri": 1167,
      "Ġhardly": 1168,
      "Ġbetween": 1169,
      "Ġopinion": 1170,
      "Ġsurpriz": 1171,
      "ered": 1172,
      "Ġact": 1173,
      "Ġmak": 1174,
      "Ġfoll": 1175,
      "Ġnobody": 1176,
      "Ġgu": 1177,
      "Ġthree": 1178,
      "Ġabs": 1179,
      "Ġfortun": 1180,
      "Ġimmediately": 1181,
      "Ġdet": 1182,
      "Ġdaught": 1183,
      "ited": 1184,
      "ute": 1185,
      "ceed": 1186,
      "ella": 1187,
      "abella": 1188,
      "Ġcarriage": 1189,
      "Ġsuperior": 1190,
      "Ġdaughter": 1191,
      "now": 1192,
      "Ġatte": 1193,
      "Ġisabella": 1194,
      "Ġleft": 1195,
      "Ġcold": 1196,
      "Ġobject": 1197,
      "Ġwife": 1198,
      "iv": 1199,
      "mber": 1200,
      "Ġgod": 1201,
      "Ġreason": 1202,
      "Ġhands": 1203,
      "ought": 1204,
      "Ġtowards": 1205,
      "mall": 1206,
      "Ġdec": 1207,
      "raid": 1208,
      "Ġtalked": 1209,
      "Ġperfectly": 1210,
      "Ġnatur": 1211,
      "Ġcircum": 1212,
      "Ġpretty": 1213,
      "Ġextremely": 1214,
      "rough": 1215,
      "Ġsir": 1216,
      "Ġsmall": 1217,
      "Ġfanc": 1218,
      "Ġdon": 1219,
      "Ġthrough": 1220,
      "Ġreme": 1221,
      "Ġready": 1222,
      "Ġafraid": 1223,
      "Ġprop": 1224,
      "ause": 1225,
      "Ġpersu": 1226,
      "Ġaccount": 1227,
      "Ġgeneral": 1228,
      "Ġcircumst": 1229,
      "aim": 1230,
      "ile": 1231,
      "mer": 1232,
      "xt": 1233,
      "Ġdin": 1234,
      "Ġeither": 1235,
      "Ġexa": 1236,
      "Ġwhether": 1237,
      "ility": 1238,
      "Ġbegan": 1239,
      "Ġappro": 1240,
      "Ġspirits": 1241,
      "Ġstrong": 1242,
      "Ġgentlem": 1243,
      "Ġsituation": 1244,
      "aut": 1245,
      "tance": 1246,
      "Ġcle": 1247,
      "sel": 1248,
      "ided": 1249,
      "Ġdeg": 1250,
      "Ġnext": 1251,
      "mpt": 1252,
      "Ġpoint": 1253,
      "Ġcomple": 1254,
      "ances": 1255,
      "Ġsatisf": 1256,
      "Ġacquaintance": 1257,
      "ceived": 1258,
      "cious": 1259,
      "oice": 1260,
      "ually": 1261,
      "Ġbo": 1262,
      "Ġnor": 1263,
      "Ġuse": 1264,
      "odu": 1265,
      "Ġtherefore": 1266,
      "Ġthings": 1267,
      "Ġchange": 1268,
      "Ġtrue": 1269,
      "Ġequal": 1270,
      "ured": 1271,
      "Ġbad": 1272,
      "ern": 1273,
      "Ġthese": 1274,
      "Ġfl": 1275,
      "Ġpower": 1276,
      "irl": 1277,
      "Ġcole": 1278,
      "Ġcourse": 1279,
      "Ġsorry": 1280,
      "my": 1281,
      "to": 1282,
      "Ġdare": 1283,
      "vers": 1284,
      "Ġstay": 1285,
      "Ġthinking": 1286,
      "Ġothers": 1287,
      "Ġdiff": 1288,
      "Ġchildren": 1289,
      "Ġaffection": 1290,
      "Ġbrother": 1291,
      "dard": 1292,
      "Ġsent": 1293,
      "res": 1294,
      "Ġdre": 1295,
      "Ġgirl": 1296,
      "Ġexc": 1297,
      "Ġlooking": 1298,
      "Ġlonger": 1299,
      "Ġattention": 1300,
      "Ġassure": 1301,
      "Ġgoddard": 1302,
      "ek": 1303,
      "ip": 1304,
      "up": 1305,
      "ust": 1306,
      "hes": 1307,
      "Ġma": 1308,
      "Ġbeaut": 1309,
      "ory": 1310,
      "ult": 1311,
      "orth": 1312,
      "Ġquest": 1313,
      "Ġknown": 1314,
      "Ġfeeling": 1315,
      "rown": 1316,
      "Ġtaken": 1317,
      "ient": 1318,
      "pter": 1319,
      "Ġaunt": 1320,
      "Ġsl": 1321,
      "erm": 1322,
      "Ġlar": 1323,
      "Ġshew": 1324,
      "Ġsto": 1325,
      "Ġstate": 1326,
      "Ġchapter": 1327,
      "ign": 1328,
      "Ġsense": 1329,
      "Ġyears": 1330,
      "Ġfollow": 1331,
      "selves": 1332,
      "ib": 1333,
      "ued": 1334,
      "ened": 1335,
      "Ġname": 1336,
      "ister": 1337,
      "Ġanx": 1338,
      "Ġdoor": 1339,
      "Ġleave": 1340,
      "mend": 1341,
      "Ġthank": 1342,
      "Ġyourself": 1343,
      "Ġprob": 1344,
      "itude": 1345,
      "Ġsens": 1346,
      "Ġdegree": 1347,
      "Ġair": 1348,
      "Ġbear": 1349,
      "ution": 1350,
      "Ġenc": 1351,
      "Ġattach": 1352,
      "Ġpassed": 1353,
      "Ġsett": 1354,
      "Ġimagine": 1355,
      "Ġexactly": 1356,
      "ming": 1357,
      "yond": 1358,
      "Ġbeyond": 1359,
      "itation": 1360,
      "Ġpri": 1361,
      "Ġinter": 1362,
      "Ġgave": 1363,
      "Ġsoci": 1364,
      "Ġamong": 1365,
      "Ġpleasant": 1366,
      "Ġbrought": 1367,
      "Ġglad": 1368,
      "Ġbusiness": 1369,
      "Ġdifficul": 1370,
      "eness": 1371,
      "Ġele": 1372,
      "Ġhon": 1373,
      "Ġhor": 1374,
      "utes": 1375,
      "rove": 1376,
      "Ġdisc": 1377,
      "iled": 1378,
      "Ġtalking": 1379,
      "Ġmanners": 1380,
      "Ġgrat": 1381,
      "Ġdifferent": 1382,
      "Ġexpress": 1383,
      "Ġdraw": 1384,
      "Ġminutes": 1385,
      "fully": 1386,
      "lor": 1387,
      "oin": 1388,
      "Ġsil": 1389,
      "Ġcreat": 1390,
      "alth": 1391,
      "Ġnecess": 1392,
      "Ġdisa": 1393,
      "Ġprev": 1394,
      "Ġproper": 1395,
      "Ġwalked": 1396,
      "Ġregard": 1397,
      "Ġbecause": 1398,
      "Ġcheer": 1399,
      "Ġnatural": 1400,
      "that": 1401,
      "ud": 1402,
      "Ġwa": 1403,
      "Ġes": 1404,
      "Ġeyes": 1405,
      "asion": 1406,
      "Ġhur": 1407,
      "ating": 1408,
      "Ġweek": 1409,
      "Ġdepend": 1410,
      "Ġconc": 1411,
      "Ġneed": 1412,
      "Ġmist": 1413,
      "Ġexcept": 1414,
      "Ġfavour": 1415,
      "Ġseeing": 1416,
      "Ġsaying": 1417,
      "Ġusual": 1418,
      "Ġdirectly": 1419,
      "Ġcompliment": 1420,
      "Ġmaking": 1421,
      "Ġfancy": 1422,
      "Ġdinner": 1423,
      "Ġsatisfied": 1424,
      "aged": 1425,
      "ination": 1426,
      "Ġmention": 1427,
      "Ġfull": 1428,
      "Ġpi": 1429,
      "Ġpur": 1430,
      "Ġpain": 1431,
      "uth": 1432,
      "Ġlik": 1433,
      "itting": 1434,
      "ached": 1435,
      "Ġused": 1436,
      "Ġdays": 1437,
      "Ġagreeable": 1438,
      "oss": 1439,
      "pic": 1440,
      "Ġtay": 1441,
      "Ġaw": 1442,
      "Ġworth": 1443,
      "Ġopp": 1444,
      "Ġdix": 1445,
      "iss": 1446,
      "Ġconv": 1447,
      "Ġune": 1448,
      "Ġplay": 1449,
      "Ġappeared": 1450,
      "Ġwords": 1451,
      "Ġbring": 1452,
      "Ġtemp": 1453,
      "Ġserious": 1454,
      "Ġremember": 1455,
      "Ġattachment": 1456,
      "Ġtaylor": 1457,
      "Ġdixon": 1458,
      "bert": 1459,
      "ial": 1460,
      "Ġson": 1461,
      "ished": 1462,
      "iting": 1463,
      "Ġpar": 1464,
      "iew": 1465,
      "Ġwished": 1466,
      "Ġmeans": 1467,
      "ĠĠĠĠ": 1468,
      "Ġengage": 1469,
      "anger": 1470,
      "Ġdonwell": 1471,
      "Ġsociety": 1472,
      "Ġdisapp": 1473,
      "lic": 1474,
      "of": 1475,
      "pa": 1476,
      "so": 1477,
      "ye": 1478,
      "Ġtook": 1479,
      "Ġfond": 1480,
      "ised": 1481,
      "Ġeas": 1482,
      "Ġeach": 1483,
      "Ġhum": 1484,
      "Ġlau": 1485,
      "Ġrecom": 1486,
      "Ġconvers": 1487,
      "Ġstand": 1488,
      "Ġvoice": 1489,
      "Ġcol": 1490,
      "Ġpleased": 1491,
      "Ġentire": 1492,
      "Ġrecommend": 1493,
      "joy": 1494,
      "ins": 1495,
      "Ġwent": 1496,
      "Ġmon": 1497,
      "rehe": 1498,
      "ready": 1499,
      "Ġhel": 1500,
      "Ġhead": 1501,
      "isten": 1502,
      "Ġreal": 1503,
      "Ġnear": 1504,
      "Ġquick": 1505,
      "Ġview": 1506,
      "Ġenjoy": 1507,
      "Ġagainst": 1508,
      "Ġlikely": 1509,
      "Ġcharact": 1510,
      "Ġmarried": 1511,
      "Ġbelieved": 1512,
      "Ġgiving": 1513,
      "Ġdeterm": 1514,
      "Ġcomplete": 1515,
      "Ġcharacter": 1516,
      ".'": 1517,
      "par": 1518,
      "Ġtry": 1519,
      "Ġsister": 1520,
      "ndon": 1521,
      "nded": 1522,
      "ens": 1523,
      "Ġdanc": 1524,
      "Ġlad": 1525,
      "Ġwhy": 1526,
      "Ġmus": 1527,
      "Ġmere": 1528,
      "Ġlondon": 1529,
      "Ġalready": 1530,
      "Ġwalking": 1531,
      "Ġserv": 1532,
      "Ġparticularly": 1533,
      "Ġeleg": 1534,
      "Ġcreature": 1535,
      "Ġladies": 1536,
      "ling": 1537,
      "Ġhus": 1538,
      "Ġdoing": 1539,
      "Ġcond": 1540,
      "used": 1541,
      "Ġsmile": 1542,
      "Ġimposs": 1543,
      "Ġfarther": 1544,
      "Ġcalled": 1545,
      "Ġkeep": 1546,
      "Ġquestion": 1547,
      "Ġhelp": 1548,
      "cri": 1549,
      "Ġswe": 1550,
      "Ġmet": 1551,
      "Ġnight": 1552,
      "Ġpat": 1553,
      "Ġla": 1554,
      "Ġlisten": 1555,
      "ently": 1556,
      "Ġmeant": 1557,
      "Ġdecl": 1558,
      "Ġcomm": 1559,
      "gement": 1560,
      "Ġquar": 1561,
      "Ġspeaking": 1562,
      "Ġdeser": 1563,
      "Ġevil": 1564,
      "Ġhoped": 1565,
      "Ġmonth": 1566,
      "_,": 1567,
      "ces": 1568,
      "iet": 1569,
      "mr": 1570,
      "su": 1571,
      "Ġtri": 1572,
      "Ġfine": 1573,
      "Ġconce": 1574,
      "Ġsho": 1575,
      "acy": 1576,
      "Ġattent": 1577,
      "Ġmatter": 1578,
      "Ġparticular": 1579,
      "Ġspoke": 1580,
      "Ġencoura": 1581,
      "Ġconcern": 1582,
      "Ġconversation": 1583,
      "wh": 1584,
      "nding": 1585,
      "ons": 1586,
      "Ġdanger": 1587,
      "Ġbeha": 1588,
      "Ġear": 1589,
      "Ġearly": 1590,
      "imes": 1591,
      "Ġexpl": 1592,
      "Ġunc": 1593,
      "Ġround": 1594,
      "Ġafterwards": 1595,
      "Ġarri": 1596,
      "Ġtruth": 1597,
      "Ġdelightful": 1598,
      "Ġhandsome": 1599,
      "Ġgentleman": 1600,
      "Ġengagement": 1601,
      "ah": 1602,
      "bour": 1603,
      "ead": 1604,
      "here": 1605,
      "Ġfive": 1606,
      "Ġbel": 1607,
      "Ġpay": 1608,
      "Ġeag": 1609,
      "Ġincl": 1610,
      "cell": 1611,
      "Ġrema": 1612,
      "Ġweather": 1613,
      "room": 1614,
      "Ġcommon": 1615,
      "Ġsafe": 1616,
      "Ġexcell": 1617,
      "Ġthemselves": 1618,
      "iling": 1619,
      "Ġplan": 1620,
      "Ġkindness": 1621,
      "ledge": 1622,
      "ollect": 1623,
      "Ġoccasion": 1624,
      "Ġallowed": 1625,
      "Ġexpected": 1626,
      "Ġadvant": 1627,
      "Ġsuspect": 1628,
      "Ġbeginning": 1629,
      "Ġdecided": 1630,
      "Ġconvin": 1631,
      "Ġmusic": 1632,
      "Ġimpossible": 1633,
      "Ġeager": 1634,
      "band": 1635,
      "fic": 1636,
      "ience": 1637,
      "will": 1638,
      "Ġsit": 1639,
      "Ġsitting": 1640,
      "Ġwat": 1641,
      "onel": 1642,
      "ities": 1643,
      "Ġrequ": 1644,
      "Ġneigh": 1645,
      "itted": 1646,
      "Ġens": 1647,
      "Ġthoughts": 1648,
      "olute": 1649,
      "Ġsometimes": 1650,
      "Ġletters": 1651,
      "Ġreturned": 1652,
      "Ġrecollect": 1653,
      "Ġmeeting": 1654,
      "Ġfortune": 1655,
      "Ġsettled": 1656,
      "Ġentirely": 1657,
      "Ġneighbour": 1658,
      "for": 1659,
      "iable": 1660,
      "uri": 1661,
      "Ġfo": 1662,
      "Ġhealth": 1663,
      "Ġpra": 1664,
      "Ġinqu": 1665,
      "sequ": 1666,
      "Ġforward": 1667,
      "ained": 1668,
      "Ġneither": 1669,
      "Ġwhose": 1670,
      "ified": 1671,
      "Ġaccept": 1672,
      "usion": 1673,
      "ference": 1674,
      "Ġwrong": 1675,
      "Ġasked": 1676,
      "Ġcontinued": 1677,
      "Ġpersuad": 1678,
      "Ġhusband": 1679,
      "know": 1680,
      "lu": 1681,
      "land": 1682,
      "ense": 1683,
      "Ġef": 1684,
      "aste": 1685,
      "like": 1686,
      "Ġacknow": 1687,
      "iece": 1688,
      "Ġengaged": 1689,
      "Ġregret": 1690,
      "Ġnature": 1691,
      "Ġclaim": 1692,
      "Ġsatisfa": 1693,
      "Ġadded": 1694,
      "Ġsuspic": 1695,
      "Ġsurprize": 1696,
      "Ġguess": 1697,
      "Ġdread": 1698,
      "Ġanxious": 1699,
      "Ġcolonel": 1700,
      "Ġconvinced": 1701,
      "ched": 1702,
      "gment": 1703,
      "ler": 1704,
      "what": 1705,
      "Ġsim": 1706,
      "Ġgot": 1707,
      "Ġreceived": 1708,
      "Ġforg": 1709,
      "Ġforget": 1710,
      "Ġquiet": 1711,
      "ively": 1712,
      "Ġaccom": 1713,
      "combe": 1714,
      "Ġnews": 1715,
      "Ġsuffer": 1716,
      "Ġabsolute": 1717,
      "Ġprobably": 1718,
      "Ġnecessary": 1719,
      "Ġtemper": 1720,
      "Ġdetermined": 1721,
      "Ġenscombe": 1722,
      "how": 1723,
      "ran": 1724,
      "Ġtaste": 1725,
      "Ġball": 1726,
      "enty": 1727,
      "uring": 1728,
      "Ġamiable": 1729,
      "Ġlive": 1730,
      "Ġplease": 1731,
      "Ġintim": 1732,
      "Ġmarriage": 1733,
      "Ġsupposed": 1734,
      "Ġintell": 1735,
      "Ġcharming": 1736,
      "Ġsecond": 1737,
      "Ġlarge": 1738,
      "Ġcheerful": 1739,
      "Ġsweet": 1740,
      ",'": 1741,
      "come": 1742,
      "she": 1743,
      "Ġten": 1744,
      "Ġwind": 1745,
      "Ġcoun": 1746,
      "Ġciv": 1747,
      "Ġeye": 1748,
      "Ġins": 1749,
      "iful": 1750,
      "osition": 1751,
      "Ġcomfortable": 1752,
      "Ġobliging": 1753,
      "Ġincre": 1754,
      "Ġcompany": 1755,
      "Ġcircumstance": 1756,
      "Ġslight": 1757,
      "Ġexcellent": 1758,
      "hip": 1759,
      "mor": 1760,
      "uct": 1761,
      "Ġ.": 1762,
      "Ġmer": 1763,
      "oud": 1764,
      "Ġbre": 1765,
      "Ġcase": 1766,
      "ark": 1767,
      "ross": 1768,
      "Ġconsequ": 1769,
      "Ġplain": 1770,
      "Ġconscious": 1771,
      "Ġwanting": 1772,
      "ressed": 1773,
      "Ġarran": 1774,
      "Ġoccur": 1775,
      "Ġacquainted": 1776,
      "Ġpapa": 1777,
      "Ġgrand": 1778,
      "Ġhurry": 1779,
      "Ġdancing": 1780,
      "cul": 1781,
      "iles": 1782,
      "kins": 1783,
      "mb": 1784,
      "rodu": 1785,
      "sit": 1786,
      "xion": 1787,
      "inary": 1788,
      "ouble": 1789,
      "Ġfin": 1790,
      "ingly": 1791,
      "Ġrem": 1792,
      "Ġwithin": 1793,
      "Ġself": 1794,
      "Ġconst": 1795,
      "Ġface": 1796,
      "Ġfault": 1797,
      "outh": 1798,
      "Ġago": 1799,
      "osity": 1800,
      "Ġintrodu": 1801,
      "Ġimport": 1802,
      "Ġassist": 1803,
      "Ġmeaning": 1804,
      "Ġhearing": 1805,
      "Ġblus": 1806,
      "Ġmatch": 1807,
      "Ġsurprized": 1808,
      "Ġabsolutely": 1809,
      ",)": 1810,
      "em": 1811,
      "oint": 1812,
      "Ġmen": 1813,
      "Ġbri": 1814,
      "Ġce": 1815,
      "Ġcuri": 1816,
      "Ġhen": 1817,
      "orough": 1818,
      "Ġgrove": 1819,
      "Ġlu": 1820,
      "Ġthorough": 1821,
      "terday": 1822,
      "Ġexcl": 1823,
      "Ġabbe": 1824,
      "Ġpros": 1825,
      "Ġproceed": 1826,
      "Ġsays": 1827,
      "Ġsmiling": 1828,
      "Ġoffer": 1829,
      "Ġpossib": 1830,
      "Ġsche": 1831,
      "Ġinteresting": 1832,
      "Ġadmir": 1833,
      "Ġyesterday": 1834,
      "Ġresolution": 1835,
      "Ġcircumstances": 1836,
      "Ġmaple": 1837,
      "Ġlaugh": 1838,
      "Ġpraise": 1839,
      "Ġpersuaded": 1840,
      "Ġabbey": 1841,
      "val": 1842,
      "ze": 1843,
      "Ġsy": 1844,
      "Ġsing": 1845,
      "Ġmod": 1846,
      "Ġmad": 1847,
      "Ġodd": 1848,
      "Ġfix": 1849,
      "Ġest": 1850,
      "Ġconne": 1851,
      "antly": 1852,
      "Ġknows": 1853,
      "Ġdisag": 1854,
      "Ġgreater": 1855,
      "Ġwork": 1856,
      "unic": 1857,
      "Ġplac": 1858,
      "Ġprodu": 1859,
      "Ġrobert": 1860,
      "ages": 1861,
      "Ġindif": 1862,
      "Ġdelighted": 1863,
      "Ġrefle": 1864,
      "Ġdifference": 1865,
      "Ġappearance": 1866,
      "Ġspoken": 1867,
      "Ġdifficulty": 1868,
      "Ġdrawing": 1869,
      "Ġcommunic": 1870,
      "Ġmonths": 1871,
      "Ġdisagree": 1872,
      "_.": 1873,
      "bation": 1874,
      "cy": 1875,
      "ove": 1876,
      "ror": 1877,
      "ub": 1878,
      "Ġtend": 1879,
      "Ġsad": 1880,
      "Ġbless": 1881,
      "Ġir": 1882,
      "Ġgrow": 1883,
      "Ġrel": 1884,
      "Ġsum": 1885,
      "Ġempl": 1886,
      "aint": 1887,
      "Ġstru": 1888,
      "Ġval": 1889,
      "Ġgreatest": 1890,
      "Ġworse": 1891,
      "Ġtimes": 1892,
      "Ġlooks": 1893,
      "Ġrich": 1894,
      "Ġdelic": 1895,
      "Ġturned": 1896,
      "there": 1897,
      "Ġcompanion": 1898,
      "dden": 1899,
      "Ġbeauty": 1900,
      "Ġfollowed": 1901,
      "Ġgratitude": 1902,
      "Ġmerely": 1903,
      "Ġattentions": 1904,
      "Ġintellig": 1905,
      "morrow": 1906,
      "Ġemploy": 1907,
      "gg": 1908,
      "iety": 1909,
      "und": 1910,
      "where": 1911,
      "Ġ_": 1912,
      "Ġx": 1913,
      "Ġsight": 1914,
      "reed": 1915,
      "hamed": 1916,
      "Ġtoler": 1917,
      "Ġfour": 1918,
      "Ġfore": 1919,
      "Ġnone": 1920,
      "Ġhab": 1921,
      "ston": 1922,
      "Ġform": 1923,
      "Ġsty": 1924,
      "Ġalone": 1925,
      "Ġtea": 1926,
      "Ġextra": 1927,
      "Ġoccup": 1928,
      "Ġunderstanding": 1929,
      "Ġevent": 1930,
      "Ġinstru": 1931,
      "Ġresolved": 1932,
      "Ġjudgment": 1933,
      "Ġactually": 1934,
      "Ġclever": 1935,
      "Ġhonour": 1936,
      "Ġprevent": 1937,
      "Ġeasy": 1938,
      "Ġconduct": 1939,
      "Ġadvantage": 1940,
      "Ġsatisfaction": 1941,
      "Ġbreak": 1942,
      "Ġcuriosity": 1943,
      "gr": 1944,
      "ili": 1945,
      "miss": 1946,
      "vo": 1947,
      "Ġmort": 1948,
      "Ġcount": 1949,
      "eng": 1950,
      "ork": 1951,
      "Ġinfer": 1952,
      "Ġlate": 1953,
      "Ġnotice": 1954,
      "Ġashamed": 1955,
      "Ġsudden": 1956,
      "Ġang": 1957,
      "Ġmiser": 1958,
      "ular": 1959,
      "Ġloved": 1960,
      "ures": 1961,
      "Ġhappened": 1962,
      "Ġground": 1963,
      "Ġdistin": 1964,
      "Ġdistress": 1965,
      "Ġtrouble": 1966,
      "Ġspirit": 1967,
      "Ġinstead": 1968,
      "Ġyear": 1969,
      "Ġinflu": 1970,
      "Ġfortunate": 1971,
      "Ġexcuse": 1972,
      "Ġpurp": 1973,
      "Ġearn": 1974,
      "Ġbelong": 1975,
      "Ġeffect": 1976,
      "Ġstyle": 1977,
      "Ġinstrument": 1978,
      "cise": 1979,
      "ses": 1980,
      "Ġtried": 1981,
      "inci": 1982,
      "Ġboy": 1983,
      "Ġcrown": 1984,
      "Ġfall": 1985,
      "itable": 1986,
      "Ġpity": 1987,
      "Ġhint": 1988,
      "orm": 1989,
      "ath": 1990,
      "cho": 1991,
      "Ġremo": 1992,
      "ries": 1993,
      "mand": 1994,
      "peci": 1995,
      "Ġdeep": 1996,
      "Ġsend": 1997,
      "Ġjoy": 1998,
      "Ġknowing": 1999,
      "Ġknowledge": 2000,
      "Ġvain": 2001,
      "Ġaff": 2002,
      "Ġproof": 2003,
      "Ġwhenever": 2004,
      "Ġprinci": 2005,
      "Ġdelay": 2006,
      "Ġblind": 2007,
      "Ġfriendship": 2008,
      "Ġtran": 2009,
      "Ġtaking": 2010,
      "Ġmarrying": 2011,
      "ourable": 2012,
      "Ġjudge": 2013,
      "Ġcampbells": 2014,
      "Ġattempt": 2015,
      "Ġmentioned": 2016,
      "Ġaware": 2017,
      "Ġcompletely": 2018,
      "Ġconceal": 2019,
      "ficient": 2020,
      "Ġconsequence": 2021,
      "ii": 2022,
      "over": 2023,
      "under": 2024,
      "Ġsigh": 2025,
      "Ġmine": 2026,
      "Ġcor": 2027,
      "Ġden": 2028,
      "Ġdut": 2029,
      "Ġled": 2030,
      "Ġrepe": 2031,
      "idence": 2032,
      "Ġund": 2033,
      "Ġdeare": 2034,
      "Ġsake": 2035,
      "Ġjoin": 2036,
      "Ġste": 2037,
      "aken": 2038,
      "allant": 2039,
      "Ġalarm": 2040,
      "Ġlived": 2041,
      "Ġunp": 2042,
      "Ġprof": 2043,
      "Ġcoll": 2044,
      "rupt": 2045,
      "Ġattached": 2046,
      "Ġindul": 2047,
      "Ġdistance": 2048,
      "Ġscru": 2049,
      "Ġhours": 2050,
      "Ġconfess": 2051,
      "Ġsecret": 2052,
      "ordinary": 2053,
      "Ġobserv": 2054,
      "viour": 2055,
      "Ġsensible": 2056,
      "Ġsilent": 2057,
      "Ġesc": 2058,
      "Ġdisappoint": 2059,
      "Ġenjoyment": 2060,
      "Ġbehaviour": 2061,
      "Ġextraordinary": 2062,
      "Ġpurpose": 2063,
      "pecially": 2064,
      "night": 2065,
      "ray": 2066,
      "wise": 2067,
      "ying": 2068,
      "Ġtable": 2069,
      "Ġcou": 2070,
      "Ġtone": 2071,
      "edu": 2072,
      "Ġbeh": 2073,
      "ising": 2074,
      "Ġpen": 2075,
      "ash": 2076,
      "Ġgallant": 2077,
      "Ġwel": 2078,
      "Ġcomes": 2079,
      "Ġloss": 2080,
      "Ġamuse": 2081,
      "Ġfact": 2082,
      "Ġalso": 2083,
      "itten": 2084,
      "Ġchuse": 2085,
      "Ġrun": 2086,
      "Ġcomprehe": 2087,
      "Ġspite": 2088,
      "ected": 2089,
      "Ġjustice": 2090,
      "Ġhighly": 2091,
      "Ġpresu": 2092,
      "Ġentered": 2093,
      "Ġindu": 2094,
      "ames": 2095,
      "Ġwrite": 2096,
      "Ġconsideration": 2097,
      "Ġscar": 2098,
      "Ġgenerally": 2099,
      "Ġdisposition": 2100,
      "Ġseems": 2101,
      "Ġdifficult": 2102,
      "Ġpict": 2103,
      "Ġservice": 2104,
      "Ġelegant": 2105,
      "Ġadmiration": 2106,
      "Ġstruck": 2107,
      "Ġcountry": 2108,
      "Ġinfluence": 2109,
      "ding": 2110,
      "hood": 2111,
      "og": 2112,
      "oor": 2113,
      "Ġer": 2114,
      "Ġsix": 2115,
      "Ġmid": 2116,
      "happ": 2117,
      "Ġtown": 2118,
      "Ġdue": 2119,
      "ased": 2120,
      "Ġnote": 2121,
      "pped": 2122,
      "arted": 2123,
      "Ġalto": 2124,
      "Ġprov": 2125,
      "osing": 2126,
      "ires": 2127,
      "Ġspee": 2128,
      "this": 2129,
      "wered": 2130,
      "Ġdesir": 2131,
      "Ġdescri": 2132,
      "Ġunderstood": 2133,
      "Ġwritten": 2134,
      "Ġende": 2135,
      "Ġbecame": 2136,
      "Ġobserve": 2137,
      "Ġgentlemen": 2138,
      "Ġbox": 2139,
      "resh": 2140,
      "Ġbeautiful": 2141,
      "Ġhorses": 2142,
      "Ġespecially": 2143,
      "Ġfavourite": 2144,
      "Ġlikeness": 2145,
      "Ġstanding": 2146,
      "Ġtrying": 2147,
      "Ġquarter": 2148,
      "Ġacknowled": 2149,
      "Ġluck": 2150,
      "Ġscheme": 2151,
      "Ġsummer": 2152,
      "Ġinferior": 2153,
      "Ġearnest": 2154,
      "Ġesca": 2155,
      "Ġcouple": 2156,
      "Ġscarce": 2157,
      "Ġaltogether": 2158,
      "iam": 2159,
      "ofort": 2160,
      "Ġtre": 2161,
      "Ġage": 2162,
      "Ġavo": 2163,
      "Ġsnow": 2164,
      "Ġwret": 2165,
      "Ġbor": 2166,
      "Ġcal": 2167,
      "Ġdri": 2168,
      "Ġhill": 2169,
      "anofort": 2170,
      "atter": 2171,
      "ident": 2172,
      "Ġconcl": 2173,
      "Ġmot": 2174,
      "Ġlead": 2175,
      "Ġwilliam": 2176,
      "Ġthinks": 2177,
      "Ġvar": 2178,
      "Ġvent": 2179,
      "Ġeltons": 2180,
      "Ġcaught": 2181,
      "Ġrain": 2182,
      "ific": 2183,
      "Ġpleasing": 2184,
      "rent": 2185,
      "Ġcontr": 2186,
      "Ġpresently": 2187,
      "Ġtelling": 2188,
      "Ġanswered": 2189,
      "Ġobserved": 2190,
      "Ġinform": 2191,
      "Ġkept": 2192,
      "Ġpromise": 2193,
      "Ġuseful": 2194,
      "Ġwait": 2195,
      "Ġmistaken": 2196,
      "Ġpianofort": 2197,
      "Ġuncle": 2198,
      "Ġclaims": 2199,
      "Ġforgot": 2200,
      "Ġcivil": 2201,
      "Ġblush": 2202,
      "Ġhenry": 2203,
      "Ġexclaim": 2204,
      "Ġpicture": 2205,
      "Ġendea": 2206,
      "Ġpianoforte": 2207,
      "cceed": 2208,
      "ring": 2209,
      "sand": 2210,
      "tic": 2211,
      "Ġut": 2212,
      "Ġedu": 2213,
      "Ġtou": 2214,
      "ines": 2215,
      "Ġwed": 2216,
      "oured": 2217,
      "ers": 2218,
      "Ġcut": 2219,
      "Ġcred": 2220,
      "ene": 2221,
      "Ġniece": 2222,
      "Ġdance": 2223,
      "Ġpast": 2224,
      "Ġhig": 2225,
      "atch": 2226,
      "Ġgri": 2227,
      "Ġlately": 2228,
      "vere": 2229,
      "ceive": 2230,
      "Ġsuck": 2231,
      "Ġsucceed": 2232,
      "Ġsolic": 2233,
      "Ġsepar": 2234,
      "Ġmove": 2235,
      "icity": 2236,
      "fered": 2237,
      "Ġfell": 2238,
      "Ġlost": 2239,
      "ortun": 2240,
      "Ġthousand": 2241,
      "Ġvic": 2242,
      "Ġunre": 2243,
      "Ġunhapp": 2244,
      "Ġru": 2245,
      "Ġration": 2246,
      "Ġparties": 2247,
      "Ġspent": 2248,
      "Ġreser": 2249,
      "abl": 2250,
      "Ġbath": 2251,
      "Ġentreat": 2252,
      "Ġcharade": 2253,
      "Ġaddress": 2254,
      "Ġinvitation": 2255,
      "angu": 2256,
      "Ġhopes": 2257,
      "Ġapprobation": 2258,
      "ointed": 2259,
      "Ġweeks": 2260,
      "Ġopportun": 2261,
      "Ġuneas": 2262,
      "Ġdeserve": 2263,
      "Ġencouragement": 2264,
      "Ġinclination": 2265,
      "Ġintimacy": 2266,
      "Ġwindow": 2267,
      "Ġconsciousness": 2268,
      "Ġremark": 2269,
      "Ġprospect": 2270,
      "Ġdisagreeable": 2271,
      "Ġtender": 2272,
      "Ġduty": 2273,
      "Ġrepeated": 2274,
      "Ġscruple": 2275,
      "Ġbehind": 2276,
      "Ġscarcely": 2277,
      "Ġinformation": 2278,
      "Ġeduc": 2279,
      "Ġgrie": 2280,
      "bed": 2281,
      "king": 2282,
      "ns": 2283,
      "phe": 2284,
      "rance": 2285,
      "Ġaston": 2286,
      "Ġwit": 2287,
      "Ġdest": 2288,
      "Ġease": 2289,
      "atul": 2290,
      "ative": 2291,
      "Ġhers": 2292,
      "Ġgard": 2293,
      "Ġlow": 2294,
      "Ġcongr": 2295,
      "Ġjo": 2296,
      "Ġneg": 2297,
      "Ġexert": 2298,
      "Ġfear": 2299,
      "ateful": 2300,
      "Ġagreed": 2301,
      "Ġprefer": 2302,
      "Ġotherwise": 2303,
      "Ġhold": 2304,
      "Ġwishes": 2305,
      "Ġindepend": 2306,
      "fortun": 2307,
      "Ġrepro": 2308,
      "Ġpecul": 2309,
      "Ġclose": 2310,
      "Ġchance": 2311,
      "Ġimagined": 2312,
      "Ġtrust": 2313,
      "Ġfortnight": 2314,
      "ishment": 2315,
      "Ġrespectable": 2316,
      "Ġdirect": 2317,
      "Ġdisposed": 2318,
      "Ġsufficient": 2319,
      "Ġreasonable": 2320,
      "Ġsmallest": 2321,
      "Ġpriv": 2322,
      "Ġsilence": 2323,
      "Ġdisappointed": 2324,
      "Ġservant": 2325,
      "Ġquarre": 2326,
      "Ġshock": 2327,
      "onsense": 2328,
      "Ġsuspicion": 2329,
      "Ġsimple": 2330,
      "Ġfixed": 2331,
      "Ġconnexion": 2332,
      "Ġdearest": 2333,
      "Ġdisappointment": 2334,
      "Ġvicar": 2335,
      "Ġcongratul": 2336,
      "Ġpeculi": 2337,
      "'t": 2338,
      "cing": 2339,
      "ches": 2340,
      "fice": 2341,
      "gust": 2342,
      "ier": 2343,
      "iod": 2344,
      "wkins": 2345,
      "ym": 2346,
      "Ġtired": 2347,
      "Ġwro": 2348,
      "har": 2349,
      "ering": 2350,
      "Ġcross": 2351,
      "Ġcatch": 2352,
      "Ġner": 2353,
      "Ġnum": 2354,
      "Ġhawkins": 2355,
      "Ġinj": 2356,
      "anity": 2357,
      "vel": 2358,
      "Ġthrown": 2359,
      "Ġformer": 2360,
      "ides": 2361,
      "Ġconvi": 2362,
      "Ġjames": 2363,
      "Ġnephe": 2364,
      "Ġlose": 2365,
      "Ġperiod": 2366,
      "Ġord": 2367,
      "Ġwhatever": 2368,
      "Ġprep": 2369,
      "Ġpress": 2370,
      "Ġprepar": 2371,
      "uses": 2372,
      "Ġworst": 2373,
      "Ġhappily": 2374,
      "rud": 2375,
      "tenance": 2376,
      "Ġpray": 2377,
      "Ġroad": 2378,
      "Ġwomen": 2379,
      "Ġentertain": 2380,
      "Ġapprehe": 2381,
      "Ġpassing": 2382,
      "Ġconsidered": 2383,
      "ccess": 2384,
      "Ġconsidering": 2385,
      "Ġcalling": 2386,
      "Ġpaid": 2387,
      "Ġturning": 2388,
      "Ġbusy": 2389,
      "Ġmakes": 2390,
      "Ġattend": 2391,
      "Ġsentiment": 2392,
      "Ġanxiety": 2393,
      "Ġsafely": 2394,
      "Ġimportant": 2395,
      "Ġthoroughly": 2396,
      "Ġsingle": 2397,
      "Ġangry": 2398,
      "Ġspeech": 2399,
      "Ġwretched": 2400,
      "Ġforgotten": 2401,
      "Ġcredit": 2402,
      "Ġunhappy": 2403,
      "Ġrational": 2404,
      "Ġwrote": 2405,
      "Ġnephew": 2406,
      ";\"": 2407,
      "do": 2408,
      "kward": 2409,
      "ock": 2410,
      "tw": 2411,
      "inite": 2412,
      "Ġmix": 2413,
      "reet": 2414,
      "Ġtot": 2415,
      "Ġfre": 2416,
      "Ġhesit": 2417,
      "ency": 2418,
      "Ġda": 2419,
      "Ġeat": 2420,
      "aster": 2421,
      "arily": 2422,
      "Ġlight": 2423,
      "Ġlines": 2424,
      "Ġann": 2425,
      "alent": 2426,
      "Ġsevere": 2427,
      "Ġcommand": 2428,
      "Ġstri": 2429,
      "Ġstren": 2430,
      "Ġexer": 2431,
      "Ġamused": 2432,
      "Ġliving": 2433,
      "tered": 2434,
      "Ġcox": 2435,
      "Ġcompass": 2436,
      "Ġfriendly": 2437,
      "Ġconsent": 2438,
      "Ġspend": 2439,
      "Ġcontri": 2440,
      "Ġregular": 2441,
      "Ġcharge": 2442,
      "Ġequally": 2443,
      "Ġclear": 2444,
      "Ġpride": 2445,
      "Ġawkward": 2446,
      "Ġworthy": 2447,
      "ĠĠĠĠĠĠĠĠ": 2448,
      "Ġarrived": 2449,
      "Ġwatch": 2450,
      "Ġdreadful": 2451,
      "Ġarrangement": 2452,
      "Ġoccurred": 2453,
      "Ġreflection": 2454,
      "Ġprofess": 2455,
      "Ġdesirable": 2456,
      "Ġavoid": 2457,
      "Ġendeavour": 2458,
      "Ġopportunity": 2459,
      "Ġcompassion": 2460,
      "hum": 2461,
      "poor": 2462,
      "sh": 2463,
      "sides": 2464,
      "tory": 2465,
      "Ġtalent": 2466,
      "inter": 2467,
      "Ġmiles": 2468,
      "Ġfast": 2469,
      "Ġfresh": 2470,
      "Ġduring": 2471,
      "Ġbecom": 2472,
      "Ġbesides": 2473,
      "Ġine": 2474,
      "vey": 2475,
      "Ġrelie": 2476,
      "Ġrecei": 2477,
      "right": 2478,
      "Ġweym": 2479,
      "Ġhistory": 2480,
      "Ġexcess": 2481,
      "Ġexceed": 2482,
      "Ġfav": 2483,
      "Ġdislike": 2484,
      "Ġcoles": 2485,
      "Ġfright": 2486,
      "Ġcompar": 2487,
      "olog": 2488,
      "Ġwishing": 2489,
      "Ġsmiled": 2490,
      "Ġimpat": 2491,
      "Ġimprove": 2492,
      "Ġarm": 2493,
      "Ġgives": 2494,
      "ferent": 2495,
      "Ġourselves": 2496,
      "Ġcarry": 2497,
      "Ġconsiderable": 2498,
      "ception": 2499,
      "Ġconfidence": 2500,
      "Ġfinding": 2501,
      "mony": 2502,
      "Ġcircle": 2503,
      "Ġcourt": 2504,
      "Ġincon": 2505,
      "Ġinfinite": 2506,
      "Ġwarmly": 2507,
      "Ġpromised": 2508,
      "Ġshewed": 2509,
      "Ġstopped": 2510,
      "Ġviews": 2511,
      "Ġexplan": 2512,
      "Ġremain": 2513,
      "Ġremained": 2514,
      "Ġfoot": 2515,
      "Ġcountenance": 2516,
      "Ġpossibly": 2517,
      "Ġgrowing": 2518,
      "Ġafford": 2519,
      "Ġdifficulties": 2520,
      "Ġwedding": 2521,
      "Ġjoined": 2522,
      "Ġvicarage": 2523,
      "Ġstreng": 2524,
      "Ġexercise": 2525,
      "Ġweymouth": 2526,
      "dle": 2527,
      "dge": 2528,
      "ghed": 2529,
      "ned": 2530,
      "vous": 2531,
      "zed": 2532,
      "Ġtra": 2533,
      "Ġsk": 2534,
      "Ġsound": 2535,
      "Ġsick": 2536,
      "Ġbene": 2537,
      "Ġfut": 2538,
      "Ġfire": 2539,
      "Ġfully": 2540,
      "Ġhea": 2541,
      "Ġnice": 2542,
      "Ġnonsense": 2543,
      "ision": 2544,
      "ishing": 2545,
      "Ġhund": 2546,
      "ange": 2547,
      "Ġline": 2548,
      "Ġreached": 2549,
      "Ġford": 2550,
      "Ġsun": 2551,
      "Ġdep": 2552,
      "Ġconn": 2553,
      "Ġconvey": 2554,
      "Ġharm": 2555,
      "Ġsta": 2556,
      "Ġanywhere": 2557,
      "oking": 2558,
      "Ġagitation": 2559,
      "Ġproved": 2560,
      "Ġcause": 2561,
      "venience": 2562,
      "Ġshare": 2563,
      "Ġsomebody": 2564,
      "Ġhappen": 2565,
      "ability": 2566,
      "Ġimpro": 2567,
      "Ġapolog": 2568,
      "Ġways": 2569,
      "Ġreply": 2570,
      "tedly": 2571,
      "Ġintended": 2572,
      "Ġassured": 2573,
      "Ġideas": 2574,
      "Ġmater": 2575,
      "Ġpaper": 2576,
      "Ġadmired": 2577,
      "Ġgetting": 2578,
      "Ġrefuse": 2579,
      "Ġopened": 2580,
      "Ġminute": 2581,
      "Ġdream": 2582,
      "Ġwaiting": 2583,
      "Ġmistake": 2584,
      "Ġcompliments": 2585,
      "Ġliked": 2586,
      "Ġunex": 2587,
      "Ġseriously": 2588,
      "Ġlaughed": 2589,
      "Ġelegance": 2590,
      "Ġlistened": 2591,
      "Ġneighbours": 2592,
      "Ġfool": 2593,
      "Ġinquir": 2594,
      "Ġaccompl": 2595,
      "Ġsuffering": 2596,
      "Ġindifferent": 2597,
      "overed": 2598,
      "Ġdelicacy": 2599,
      "Ġoccupied": 2600,
      "Ġundoub": 2601,
      "Ġwelcome": 2602,
      "Ġamusement": 2603,
      "Ġeducation": 2604,
      "Ġnumber": 2605,
      "Ġconviction": 2606,
      "twenty": 2607,
      "Ġfrequ": 2608,
      "Ġannoun": 2609,
      "Ġfuture": 2610,
      "Ġhundred": 2611,
      "aw": 2612,
      "lo": 2613,
      "man": 2614,
      "nor": 2615,
      "ues": 2616,
      "ump": 2617,
      "vy": 2618,
      "Ġve": 2619,
      "Ġtreat": 2620,
      "hest": 2621,
      "Ġsink": 2622,
      "Ġbed": 2623,
      "Ġcure": 2624,
      "ont": 2625,
      "Ġna": 2626,
      "Ġhair": 2627,
      "Ġdr": 2628,
      "Ġdine": 2629,
      "ison": 2630,
      "itated": 2631,
      "Ġitself": 2632,
      "Ġsuccess": 2633,
      "Ġking": 2634,
      "Ġmeas": 2635,
      "Ġstood": 2636,
      "Ġperfor": 2637,
      "ourse": 2638,
      "Ġvanity": 2639,
      "Ġchos": 2640,
      "Ġcaution": 2641,
      "fair": 2642,
      "Ġshame": 2643,
      "ief": 2644,
      "Ġresent": 2645,
      "Ġchurchills": 2646,
      "Ġsmiles": 2647,
      "arer": 2648,
      "Ġapples": 2649,
      "Ġgrateful": 2650,
      "Ġreturning": 2651,
      "ney": 2652,
      "Ġrooms": 2653,
      "Ġconfusion": 2654,
      "Ġfamili": 2655,
      "Ġinterested": 2656,
      "Ġaddition": 2657,
      "Ġinvited": 2658,
      "Ġopening": 2659,
      "Ġreading": 2660,
      "Ġdrawn": 2661,
      "Ġabsence": 2662,
      "Ġobjection": 2663,
      "Ġbook": 2664,
      "Ġstop": 2665,
      "Ġgratified": 2666,
      "uded": 2667,
      "Ġhumour": 2668,
      "Ġdeclare": 2669,
      "Ġtrif": 2670,
      "Ġconcerned": 2671,
      "Ġneighbourhood": 2672,
      "Ġassistance": 2673,
      "Ġlaughing": 2674,
      "Ġplaced": 2675,
      "Ġvalue": 2676,
      "Ġtolerably": 2677,
      "Ġprincip": 2678,
      "Ġtrans": 2679,
      "Ġcomprehend": 2680,
      "Ġescape": 2681,
      "Ġtouch": 2682,
      "Ġorder": 2683,
      "Ġprepared": 2684,
      "Ġtotally": 2685,
      "Ġchosen": 2686,
      "af": 2687,
      "arent": 2688,
      "eper": 2689,
      "ize": 2690,
      "lit": 2691,
      "lour": 2692,
      "mod": 2693,
      "nat": 2694,
      "than": 2695,
      "with": 2696,
      "Ġama": 2697,
      "inde": 2698,
      "Ġsign": 2699,
      "Ġmut": 2700,
      "Ġmess": 2701,
      "Ġmaster": 2702,
      "read": 2703,
      "reland": 2704,
      "Ġbur": 2705,
      "Ġireland": 2706,
      "Ġcard": 2707,
      "Ġhast": 2708,
      "Ġdiv": 2709,
      "Ġpu": 2710,
      "Ġpract": 2711,
      "Ġpub": 2712,
      "Ġeld": 2713,
      "Ġeli": 2714,
      "oring": 2715,
      "ates": 2716,
      "ldom": 2717,
      "Ġgre": 2718,
      "ridge": 2719,
      "Ġsuit": 2720,
      "Ġsugg": 2721,
      "Ġanim": 2722,
      "idently": 2723,
      "Ġsoft": 2724,
      "Ġur": 2725,
      "mama": 2726,
      "illy": 2727,
      "Ġdev": 2728,
      "Ġsea": 2729,
      "Ġseldom": 2730,
      "Ġsaf": 2731,
      "Ġnearly": 2732,
      "Ġstory": 2733,
      "Ġfears": 2734,
      "ardon": 2735,
      "ments": 2736,
      "Ġprot": 2737,
      "Ġpost": 2738,
      "Ġposit": 2739,
      "Ġcool": 2740,
      "Ġspring": 2741,
      "Ġtwenty": 2742,
      "Ġart": 2743,
      "Ġapparent": 2744,
      "Ġpassage": 2745,
      "Ġvisits": 2746,
      "Ġvisitor": 2747,
      "Ġblunder": 2748,
      "Ġwriting": 2749,
      "Ġinstantly": 2750,
      "Ġexpectation": 2751,
      "Ġadmire": 2752,
      "Ġadvice": 2753,
      "Ġstrange": 2754,
      "Ġinvite": 2755,
      "Ġimmediate": 2756,
      "Ġdispleas": 2757,
      "Ġnaturally": 2758,
      "Ġproposed": 2759,
      "Ġpersuade": 2760,
      "Ġapproach": 2761,
      "Ġflatter": 2762,
      "Ġpowers": 2763,
      "Ġstaying": 2764,
      "upon": 2765,
      "Ġfollowing": 2766,
      "ibility": 2767,
      "Ġinterrupt": 2768,
      "Ġhorse": 2769,
      "Ġeasily": 2770,
      "who": 2771,
      "Ġsuspected": 2772,
      "Ġmusical": 2773,
      "Ġrequired": 2774,
      "Ġacknowledge": 2775,
      "Ġmerit": 2776,
      "emma": 2777,
      "Ġbride": 2778,
      "Ġproduced": 2779,
      "Ġindifference": 2780,
      "Ġhabit": 2781,
      "chool": 2782,
      "Ġcollect": 2783,
      "Ġcalm": 2784,
      "Ġutmost": 2785,
      "Ġsuckling": 2786,
      "Ġservants": 2787,
      "Ġreceiving": 2788,
      "Ġfavourable": 2789,
      "Ġinfinitely": 2790,
      "Ġexplanation": 2791,
      "Ġundoubtedly": 2792,
      "thank": 2793,
      "Ġburst": 2794,
      "Ġpublic": 2795,
      "Ġsuggest": 2796,
      "fast": 2797,
      "gnor": 2798,
      "iest": 2799,
      "mas": 2800,
      "mond": 2801,
      "rist": 2802,
      "some": 2803,
      "hearted": 2804,
      "Ġschool": 2805,
      "Ġwinter": 2806,
      "Ġignor": 2807,
      "ery": 2808,
      "Ġfit": 2809,
      "Ġfig": 2810,
      "ingu": 2811,
      "Ġnash": 2812,
      "isure": 2813,
      "isite": 2814,
      "ites": 2815,
      "Ġpiece": 2816,
      "Ġeight": 2817,
      "lect": 2818,
      "Ġhot": 2819,
      "arr": 2820,
      "Ġyouth": 2821,
      "Ġlangu": 2822,
      "roat": 2823,
      "pered": 2824,
      "Ġmel": 2825,
      "Ġsel": 2826,
      "Ġseat": 2827,
      "Ġsacri": 2828,
      "Ġstra": 2829,
      "Ġfeat": 2830,
      "Ġleisure": 2831,
      "Ġwilling": 2832,
      "Ġliber": 2833,
      "dered": 2834,
      "tend": 2835,
      "teen": 2836,
      "Ġdiseng": 2837,
      "Ġunfortun": 2838,
      "Ġcap": 2839,
      "Ġparting": 2840,
      "using": 2841,
      "leasant": 2842,
      "ruel": 2843,
      "osal": 2844,
      "Ġaround": 2845,
      "Ġassur": 2846,
      "Ġappears": 2847,
      "Ġindign": 2848,
      "Ġtempt": 2849,
      "Ġendure": 2850,
      "Ġparticulars": 2851,
      "Ġimagination": 2852,
      "Ġmartins": 2853,
      "Ġevidently": 2854,
      "Ġrecon": 2855,
      "Ġexpecting": 2856,
      "Ġadmitted": 2857,
      "they": 2858,
      "Ġbetray": 2859,
      "Ġbroad": 2860,
      "Ġgrave": 2861,
      "Ġwonderful": 2862,
      "Ġabsent": 2863,
      "Ġproposal": 2864,
      "Ġdining": 2865,
      "Ġgirls": 2866,
      "Ġlarkins": 2867,
      "Ġsensations": 2868,
      "Ġinterc": 2869,
      "Ġfancying": 2870,
      "Ġparlour": 2871,
      "mrs": 2872,
      "Ġarrival": 2873,
      "Ġdecidedly": 2874,
      "Ġsuspicions": 2875,
      "Ġgrandmama": 2876,
      "Ġproceeded": 2877,
      "Ġpossibility": 2878,
      "Ġmoder": 2879,
      "Ġmadam": 2880,
      "Ġestabl": 2881,
      "Ġrichmond": 2882,
      "Ġintelligence": 2883,
      "Ġmisery": 2884,
      "Ġboys": 2885,
      "Ġunpleasant": 2886,
      "Ġobservation": 2887,
      "Ġsolicitude": 2888,
      "Ġunreason": 2889,
      "Ġgarden": 2890,
      "Ġquarrel": 2891,
      "Ġnervous": 2892,
      "Ġstrength": 2893,
      "Ġvex": 2894,
      "indeed": 2895,
      ".,": 2896,
      "back": 2897,
      "che": 2898,
      "gra": 2899,
      "jud": 2900,
      "ken": 2901,
      "law": 2902,
      "pan": 2903,
      "pid": 2904,
      "ining": 2905,
      "Ġsqu": 2906,
      "Ġsize": 2907,
      "Ġsilly": 2908,
      "have": 2909,
      "Ġbas": 2910,
      "Ġbar": 2911,
      "Ġbir": 2912,
      "Ġbra": 2913,
      "Ġcr": 2914,
      "Ġfet": 2915,
      "isk": 2916,
      "Ġph": 2917,
      "Ġpork": 2918,
      "ancho": 2919,
      "arance": 2920,
      "arity": 2921,
      "Ġlay": 2922,
      "Ġloud": 2923,
      "Ġthus": 2924,
      "Ġrej": 2925,
      "rig": 2926,
      "riages": 2927,
      "aye": 2928,
      "Ġformed": 2929,
      "ality": 2930,
      "Ġwhis": 2931,
      "Ġemb": 2932,
      "Ġseated": 2933,
      "aining": 2934,
      "Ġjour": 2935,
      "Ġfeared": 2936,
      "ources": 2937,
      "riety": 2938,
      "dear": 2939,
      "Ġvol": 2940,
      "Ġdisgust": 2941,
      "Ġchrist": 2942,
      "Ġpreference": 2943,
      "oted": 2944,
      "Ġuns": 2945,
      "Ġabove": 2946,
      "Ġcand": 2947,
      "Ġrate": 2948,
      "ouses": 2949,
      "Ġpartner": 2950,
      "Ġspare": 2951,
      "Ġintent": 2952,
      "Ġsooner": 2953,
      "Ġconsol": 2954,
      "Ġsmo": 2955,
      "Ġbegun": 2956,
      "Ġsupply": 2957,
      "Ġreport": 2958,
      "Ġmoments": 2959,
      "Ġrapid": 2960,
      "Ġdesired": 2961,
      "Ġpeace": 2962,
      "Ġindis": 2963,
      "Ġgrad": 2964,
      "Ġdistur": 2965,
      "Ġhouseke": 2966,
      "Ġtruly": 2967,
      "Ġrecovered": 2968,
      "Ġillness": 2969,
      "Ġbecome": 2970,
      "Ġgrace": 2971,
      "Ġsincere": 2972,
      "Ġwarmth": 2973,
      "Ġsuffered": 2974,
      "Ġfolly": 2975,
      "Ġcomplexion": 2976,
      "Ġquestions": 2977,
      "Ġslow": 2978,
      "Ġdoors": 2979,
      "Ġprobability": 2980,
      "Ġsettle": 2981,
      "Ġmistress": 2982,
      "Ġexcepting": 2983,
      "Ġsisters": 2984,
      "Ġpatty": 2985,
      "Ġdeserved": 2986,
      "Ġadvantages": 2987,
      "Ġlively": 2988,
      "Ġincrease": 2989,
      "Ġincreased": 2990,
      "Ġarranged": 2991,
      "Ġfinished": 2992,
      "Ġimportance": 2993,
      "Ġreflect": 2994,
      "Ġblessing": 2995,
      "Ġintelligible": 2996,
      "Ġhabits": 2997,
      "Ġbreakfast": 2998,
      "Ġmortific": 2999,
      "Ġgallantry": 3000,
      "Ġinduce": 3001,
      "Ġinduced": 3002,
      "Ġerror": 3003,
      "Ġacknowledged": 3004,
      "Ġearnestly": 3005,
      "Ġdrive": 3006,
      "Ġventure": 3007,
      "Ġexclaimed": 3008,
      "Ġseparate": 3009,
      "nsion": 3010,
      "Ġneglect": 3011,
      "Ġprivate": 3012,
      "Ġbecoming": 3013,
      "Ġexcessively": 3014,
      "Ġfrightened": 3015,
      "Ġimpatient": 3016,
      "Ġmaterial": 3017,
      "Ġinquiry": 3018,
      "Ġprotest": 3019,
      "Ġmelancho": 3020,
      "Ġintercourse": 3021,
      "Ġsquare": 3022,
      "Ġjourney": 3023,
      "Ġmelancholy": 3024,
      "ap": 3025,
      "ges": 3026,
      "gress": 3027,
      "ially": 3028,
      "kn": 3029,
      "mitted": 3030,
      "op": 3031,
      "sw": 3032,
      "Ġtall": 3033,
      "Ġterm": 3034,
      "Ġsle": 3035,
      "Ġmed": 3036,
      "Ġmile": 3037,
      "Ġow": 3038,
      "Ġorig": 3039,
      "Ġbit": 3040,
      "Ġcord": 3041,
      "Ġfat": 3042,
      "ences": 3043,
      "lly": 3044,
      "llable": 3045,
      "isted": 3046,
      "Ġpause": 3047,
      "Ġhither": 3048,
      "Ġlat": 3049,
      "Ġlane": 3050,
      "Ġthroat": 3051,
      "cel": 3052,
      "Ġreach": 3053,
      "Ġforced": 3054,
      "Ġantic": 3055,
      "Ġweak": 3056,
      "irty": 3057,
      "Ġsof": 3058,
      "Ġdeath": 3059,
      "Ġstep": 3060,
      "Ġstead": 3061,
      "Ġlea": 3062,
      "anted": 3063,
      "ortion": 3064,
      "Ġwholly": 3065,
      "Ġunw": 3066,
      "Ġunne": 3067,
      "Ġunwill": 3068,
      "Ġaffair": 3069,
      "Ġprove": 3070,
      "Ġcared": 3071,
      "venient": 3072,
      "ify": 3073,
      "ifying": 3074,
      "Ġcompared": 3075,
      "unsw": 3076,
      "osure": 3077,
      "iously": 3078,
      "Ġchair": 3079,
      "Ġwants": 3080,
      "Ġrid": 3081,
      "Ġsupper": 3082,
      "Ġkindly": 3083,
      "Ġbrunsw": 3084,
      "Ġraise": 3085,
      "plicity": 3086,
      "Ġlovely": 3087,
      "Ġpossess": 3088,
      "Ġcomfortably": 3089,
      "Ġdistingu": 3090,
      "Ġcarriages": 3091,
      "Ġtells": 3092,
      "Ġperfection": 3093,
      "Ġsubjects": 3094,
      "Ġclosed": 3095,
      "Ġglance": 3096,
      "Ġaccord": 3097,
      "Ġconfined": 3098,
      "Ġsecured": 3099,
      "Ġadvise": 3100,
      "Ġaffections": 3101,
      "Ġpersons": 3102,
      "Ġinvol": 3103,
      "Ġjudged": 3104,
      "Ġcomplaint": 3105,
      "Ġcompanions": 3106,
      "Ġcheck": 3107,
      "Ġprompt": 3108,
      "Ġcontinue": 3109,
      "Ġpersuasion": 3110,
      "mption": 3111,
      "Ġpoints": 3112,
      "Ġmaid": 3113,
      "Ġthanks": 3114,
      "Ġdifferently": 3115,
      "Ġpreva": 3116,
      "Ġdependence": 3117,
      "Ġbringing": 3118,
      "Ġparcel": 3119,
      "Ġhuman": 3120,
      "Ġhumble": 3121,
      "Ġkeeping": 3122,
      "Ġpatience": 3123,
      "Ġlaid": 3124,
      "Ġexploring": 3125,
      "Ġpaying": 3126,
      "Ġeagerly": 3127,
      "Ġfaults": 3128,
      "Ġcere": 3129,
      "Ġplaces": 3130,
      "Ġirr": 3131,
      "Ġforese": 3132,
      "Ġmiserable": 3133,
      "Ġprinciple": 3134,
      "Ġtranqu": 3135,
      "Ġconcealment": 3136,
      "Ġsteady": 3137,
      "Ġpresume": 3138,
      "Ġborne": 3139,
      "Ġhighest": 3140,
      "Ġsucceeded": 3141,
      "Ġreserve": 3142,
      "Ġuneasy": 3143,
      "Ġremarkably": 3144,
      "Ġindependence": 3145,
      "Ġreproach": 3146,
      "Ġpeculiarly": 3147,
      "Ġexceedingly": 3148,
      "Ġcomparison": 3149,
      "Ġconnected": 3150,
      "Ġfoolish": 3151,
      "Ġaccomplished": 3152,
      "Ġperform": 3153,
      "Ġfamilies": 3154,
      "Ġmessage": 3155,
      "Ġdisengaged": 3156,
      "Ġhousekeeper": 3157,
      "Ġmortification": 3158,
      "Ġorigin": 3159,
      "Ġanticip": 3160,
      "Ġunnecess": 3161,
      "Ġunwilling": 3162,
      "Ġbrunswick": 3163,
      "bly": 3164,
      "certain": 3165,
      "ex": 3166,
      "een": 3167,
      "ger": 3168,
      "gent": 3169,
      "gence": 3170,
      "ian": 3171,
      "ives": 3172,
      "iries": 3173,
      "liness": 3174,
      "mory": 3175,
      "mpered": 3176,
      "oc": 3177,
      "part": 3178,
      "pond": 3179,
      "uable": 3180,
      "wber": 3181,
      "xions": 3182,
      "your": 3183,
      "Ġing": 3184,
      "Ġter": 3185,
      "Ġah": 3186,
      "hen": 3187,
      "ina": 3188,
      "Ġwing": 3189,
      "Ġmone": 3190,
      "Ġbak": 3191,
      "Ġbust": 3192,
      "ndered": 3193,
      "Ġchat": 3194,
      "Ġcrow": 3195,
      "edly": 3196,
      "Ġhaz": 3197,
      "Ġdared": 3198,
      "ises": 3199,
      "Ġpit": 3200,
      "Ġpardon": 3201,
      "asing": 3202,
      "omest": 3203,
      "Ġga": 3204,
      "Ġshewn": 3205,
      "Ġthrow": 3206,
      "semb": 3207,
      "Ġ\"_": 3208,
      "Ġreceive": 3209,
      "Ġforming": 3210,
      "Ġsole": 3211,
      "Ġmemory": 3212,
      "tern": 3213,
      "Ġdeceived": 3214,
      "iced": 3215,
      "ices": 3216,
      "ulg": 3217,
      "Ġfail": 3218,
      "Ġperceived": 3219,
      "Ġshru": 3220,
      "Ġordered": 3221,
      "Ġlibert": 3222,
      "Ġqual": 3223,
      "Ġvulg": 3224,
      "Ġchief": 3225,
      "Ġagitated": 3226,
      "Ġpretend": 3227,
      "Ġunless": 3228,
      "Ġunited": 3229,
      "Ġproc": 3230,
      "Ġpolit": 3231,
      "Ġrank": 3232,
      "elve": 3233,
      "Ġparted": 3234,
      "acles": 3235,
      "Ġhappier": 3236,
      "Ġgover": 3237,
      "Ġfeels": 3238,
      "rence": 3239,
      "Ġresources": 3240,
      "Ġtwelve": 3241,
      "Ġmark": 3242,
      "Ġbegged": 3243,
      "Ġproud": 3244,
      "Ġpreser": 3245,
      "Ġpassion": 3246,
      "Ġcertainty": 3247,
      "Ġfelicity": 3248,
      "Ġdistant": 3249,
      "Ġblame": 3250,
      "Ġengland": 3251,
      "Ġmatri": 3252,
      "lesome": 3253,
      "Ġcharm": 3254,
      "Ġconfir": 3255,
      "Ġasking": 3256,
      "Ġadmit": 3257,
      "Ġrefused": 3258,
      "Ġrestr": 3259,
      "Ġresolve": 3260,
      "Ġincome": 3261,
      "Ġputting": 3262,
      "Ġseeming": 3263,
      "Ġsorrow": 3264,
      "Ġsuperiority": 3265,
      "Ġrememb": 3266,
      "Ġsatisfy": 3267,
      "Ġhonourable": 3268,
      "Ġhorror": 3269,
      "Ġexpressed": 3270,
      "Ġnecessity": 3271,
      "Ġproperly": 3272,
      "Ġpains": 3273,
      "Ġunequ": 3274,
      "Ġplaying": 3275,
      "Ġtempted": 3276,
      ".'\"": 3277,
      "Ġlaw": 3278,
      "Ġlament": 3279,
      "Ġevils": 3280,
      "Ġattentive": 3281,
      "Ġmatters": 3282,
      "why": 3283,
      "Ġeagerness": 3284,
      "Ġinquiries": 3285,
      "Ġaccepted": 3286,
      "Ġsimplicity": 3287,
      "Ġaccommod": 3288,
      "Ġaccompan": 3289,
      "Ġintimate": 3290,
      "Ġcivility": 3291,
      "Ġsyllable": 3292,
      "Ġconnexions": 3293,
      "Ġproduce": 3294,
      "Ġdelicate": 3295,
      "Ġemployment": 3296,
      "ength": 3297,
      "Ġgrounds": 3298,
      "Ġdistinct": 3299,
      "Ġdistinction": 3300,
      "Ġremoved": 3301,
      "Ġdeeply": 3302,
      "Ġcollected": 3303,
      "Ġmiddle": 3304,
      "Ġlucky": 3305,
      "Ġhigher": 3306,
      "Ġfellow": 3307,
      "Ġrule": 3308,
      "Ġuneasiness": 3309,
      "Ġscruples": 3310,
      "Ġpreferred": 3311,
      "Ġdaily": 3312,
      "Ġimprovement": 3313,
      "Ġinconvenience": 3314,
      "Ġsunk": 3315,
      "Ġconveyed": 3316,
      "looking": 3317,
      "umph": 3318,
      "Ġnamed": 3319,
      "Ġprincipal": 3320,
      "Ġgrew": 3321,
      "Ġsafety": 3322,
      "Ġpositively": 3323,
      "Ġinterrupted": 3324,
      "Ġfigure": 3325,
      "Ġselina": 3326,
      "Ġsacrifice": 3327,
      "Ġstrawber": 3328,
      "Ġliberal": 3329,
      "Ġunreasonable": 3330,
      "Ġchristmas": 3331,
      "Ġconsolation": 3332,
      "Ġsmooth": 3333,
      "Ġindisp": 3334,
      "Ġgradually": 3335,
      "Ġleaving": 3336,
      "Ġwingfield": 3337,
      "Ġmoney": 3338,
      "Ġbustle": 3339,
      "Ġcrowd": 3340,
      "!'": 3341,
      "aister": 3342,
      "cha": 3343,
      "fit": 3344,
      "gu": 3345,
      "ict": 3346,
      "iance": 3347,
      "ized": 3348,
      "jane": 3349,
      "just": 3350,
      "lt": 3351,
      "lish": 3352,
      "oom": 3353,
      "overy": 3354,
      "oved": 3355,
      "sed": 3356,
      "sitation": 3357,
      "uing": 3358,
      "uss": 3359,
      "umed": 3360,
      "when": 3361,
      "Ġtires": 3362,
      "Ġau": 3363,
      "Ġauth": 3364,
      "Ġsour": 3365,
      "Ġspect": 3366,
      "Ġsouth": 3367,
      "Ġmaint": 3368,
      "Ġost": 3369,
      "Ġbu": 3370,
      "Ġcot": 3371,
      "Ġtong": 3372,
      "Ġheld": 3373,
      "Ġhesitation": 3374,
      "Ġoffe": 3375,
      "Ġdress": 3376,
      "Ġdull": 3377,
      "Ġdark": 3378,
      "lling": 3379,
      "iter": 3380,
      "itations": 3381,
      "Ġpun": 3382,
      "asions": 3383,
      "Ġgruel": 3384,
      "owed": 3385,
      "Ġforty": 3386,
      "imp": 3387,
      "irs": 3388,
      "road": 3389,
      "Ġdef": 3390,
      "quisite": 3391,
      "Ġsever": 3392,
      "Ġconte": 3393,
      "Ġmoving": 3394,
      "Ġje": 3395,
      "Ġnearer": 3396,
      "Ġstir": 3397,
      "Ġstreet": 3398,
      "aking": 3399,
      "Ġexist": 3400,
      "Ġexquisite": 3401,
      "ulting": 3402,
      "Ġfema": 3403,
      "Ġlear": 3404,
      "Ġloves": 3405,
      "Ġbye": 3406,
      "Ġfailed": 3407,
      "Ġperple": 3408,
      "Ġshut": 3409,
      "Ġquitted": 3410,
      "oke": 3411,
      "tempered": 3412,
      "Ġchose": 3413,
      "Ġchoice": 3414,
      "Ġprecise": 3415,
      "Ġuncom": 3416,
      "Ġunlike": 3417,
      "Ġabrupt": 3418,
      "Ġprogress": 3419,
      "Ġran": 3420,
      "ilities": 3421,
      "ously": 3422,
      "Ġpartial": 3423,
      "une": 3424,
      "Ġshake": 3425,
      "Ġfairly": 3426,
      "olent": 3427,
      "Ġresumed": 3428,
      "Ġwise": 3429,
      "Ġspeed": 3430,
      "Ġattack": 3431,
      "ression": 3432,
      "Ġovercome": 3433,
      "Ġspeaks": 3434,
      "mother": 3435,
      "play": 3436,
      "plaister": 3437,
      "Ġdoubted": 3438,
      "Ġsetting": 3439,
      "Ġpleasures": 3440,
      "Ġdoubtful": 3441,
      "Ġtears": 3442,
      "Ġwrites": 3443,
      "new": 3444,
      "Ġsurry": 3445,
      "Ġrecover": 3446,
      "Ġsecure": 3447,
      "Ġinstant": 3448,
      "Ġinstance": 3449,
      "lessness": 3450,
      "Ġturns": 3451,
      "Ġopinions": 3452,
      "Ġincons": 3453,
      "Ġgracious": 3454,
      "Ġpretence": 3455,
      "Ġcontinual": 3456,
      "Ġguest": 3457,
      "Ġattended": 3458,
      "Ġsmallridge": 3459,
      "Ġfancied": 3460,
      "Ġaffectionate": 3461,
      "resent": 3462,
      "Ġshewing": 3463,
      "Ġstopt": 3464,
      "Ġhonest": 3465,
      "Ġdiscover": 3466,
      "Ġexpression": 3467,
      "Ġprevious": 3468,
      "uding": 3469,
      "Ġhurt": 3470,
      "Ġconvince": 3471,
      "Ġparish": 3472,
      "Ġrecommended": 3473,
      "Ġquickness": 3474,
      "such": 3475,
      "Ġencouraging": 3476,
      "Ġconcerns": 3477,
      "Ġbehaved": 3478,
      "Ġearli": 3479,
      "Ġengagements": 3480,
      "Ġbeloved": 3481,
      "Ġplans": 3482,
      "Ġinquire": 3483,
      "Ġsatisfact": 3484,
      "Ġquietly": 3485,
      "Ġincreasing": 3486,
      "Ġgrandmother": 3487,
      "Ġhurrying": 3488,
      "Ġselfish": 3489,
      "Ġconstit": 3490,
      "Ġintroduction": 3491,
      "Ġcease": 3492,
      "Ġhence": 3493,
      "Ġcommunication": 3494,
      "Ġvaluable": 3495,
      "Ġemployed": 3496,
      "Ġxvi": 3497,
      "Ġtolerable": 3498,
      "Ġprevented": 3499,
      "Ġtroublesome": 3500,
      "Ġfalling": 3501,
      "ashion": 3502,
      "Ġsixteen": 3503,
      "Ġmotive": 3504,
      "Ġcivilities": 3505,
      "Ġreserved": 3506,
      "Ġaddressing": 3507,
      "Ġwindows": 3508,
      "Ġwitness": 3509,
      "Ġindependent": 3510,
      "Ġtrusted": 3511,
      "Ġsufficiently": 3512,
      "harriet": 3513,
      "rudent": 3514,
      "humoured": 3515,
      "shire": 3516,
      "Ġrelief": 3517,
      "Ġcarrying": 3518,
      "Ġheavy": 3519,
      "Ġresentment": 3520,
      "Ġtrifling": 3521,
      "Ġignorant": 3522,
      "Ġlanguage": 3523,
      "Ġbirth": 3524,
      "Ġfetch": 3525,
      "Ġwhisper": 3526,
      "Ġintentions": 3527,
      "Ġterms": 3528,
      "Ġfatig": 3529,
      "Ġshrub": 3530,
      "Ġliberty": 3531,
      "Ġauthor": 3532,
      "Ġspectacles": 3533,
      "Ġperplex": 3534,
      "bb": 3535,
      "bo": 3536,
      "bet": 3537,
      "ciled": 3538,
      "char": 3539,
      "emed": 3540,
      "good": 3541,
      "iency": 3542,
      "lings": 3543,
      "leness": 3544,
      "old": 3545,
      "ote": 3546,
      "rate": 3547,
      "ture": 3548,
      "ude": 3549,
      "wr": 3550,
      "zz": 3551,
      "zen": 3552,
      "zab": 3553,
      "Ġsangu": 3554,
      "hand": 3555,
      "Ġbreat": 3556,
      "Ġcur": 3557,
      "Ġheat": 3558,
      "ening": 3559,
      "Ġnur": 3560,
      "Ġhall": 3561,
      "Ġoffered": 3562,
      "Ġdign": 3563,
      "Ġdressed": 3564,
      "Ġple": 3565,
      "Ġhouses": 3566,
      "Ġinsu": 3567,
      "aring": 3568,
      "atory": 3569,
      "oms": 3570,
      "omin": 3571,
      "Ġyork": 3572,
      "vering": 3573,
      "verse": 3574,
      "Ġgrown": 3575,
      "Ġlim": 3576,
      "Ġlab": 3577,
      "Ġlatter": 3578,
      "stand": 3579,
      "Ġrenew": 3580,
      "ented": 3581,
      "ows": 3582,
      "Ġforbe": 3583,
      "ete": 3584,
      "eth": 3585,
      "Ġsuited": 3586,
      "irt": 3587,
      "Ġsore": 3588,
      "alous": 3589,
      "Ġwhite": 3590,
      "Ġdece": 3591,
      "Ġconject": 3592,
      "ains": 3593,
      "Ġstup": 3594,
      "Ġmisunder": 3595,
      "Ġexam": 3596,
      "rand": 3597,
      "raction": 3598,
      "ical": 3599,
      "Ġmissed": 3600,
      "Ġpert": 3601,
      "Ġperse": 3602,
      "Ġperceive": 3603,
      "Ġaloud": 3604,
      "ards": 3605,
      "Ġwestons": 3606,
      "Ġdiss": 3607,
      "Ġdisin": 3608,
      "Ġdisplay": 3609,
      "Ġprecious": 3610,
      "Ġabroad": 3611,
      "Ġcaut": 3612,
      "Ġpop": 3613,
      "Ġrisk": 3614,
      "ilt": 3615,
      "Ġcooll": 3616,
      "Ġcomposed": 3617,
      "Ġcomposure": 3618,
      "ung": 3619,
      "Ġspread": 3620,
      "Ġobt": 3621,
      "acher": 3622,
      "olence": 3623,
      "Ġintention": 3624,
      "ption": 3625,
      "perhaps": 3626,
      "Ġconsci": 3627,
      "Ġattraction": 3628,
      "tens": 3629,
      "umn": 3630,
      "Ġsupport": 3631,
      "Ġsupposing": 3632,
      "clock": 3633,
      "Ġrepent": 3634,
      "Ġrepresent": 3635,
      "Ġrose": 3636,
      "Ġsubst": 3637,
      "Ġoffence": 3638,
      "Ġoffice": 3639,
      "Ġgips": 3640,
      "Ġenter": 3641,
      "Ġentering": 3642,
      "Ġapple": 3643,
      "Ġbrist": 3644,
      "Ġfarm": 3645,
      "Ġfarmer": 3646,
      "Ġcomforts": 3647,
      "Ġenglish": 3648,
      "Ġended": 3649,
      "Ġdelightfully": 3650,
      "Ġglow": 3651,
      "Ġevident": 3652,
      "Ġparent": 3653,
      "Ġolder": 3654,
      "Ġtakes": 3655,
      "Ġobserving": 3656,
      "vile": 3657,
      "Ġjudging": 3658,
      "Ġwarmest": 3659,
      "Ġcares": 3660,
      "Ġacting": 3661,
      "Ġguard": 3662,
      "Ġattending": 3663,
      "Ġdecision": 3664,
      "Ġpropriety": 3665,
      "Ġstronger": 3666,
      "Ġboast": 3667,
      "Ġflut": 3668,
      "respond": 3669,
      "Ġexcuses": 3670,
      "Ġlarger": 3671,
      "ibly": 3672,
      "Ġprivile": 3673,
      "Ġinterference": 3674,
      "Ġpleasantly": 3675,
      "Ġdiscovery": 3676,
      "Ġdiscuss": 3677,
      "Ġexpressing": 3678,
      "Ġexpressions": 3679,
      "Ġcheerfully": 3680,
      "Ġhurried": 3681,
      "Ġdepended": 3682,
      "Ġpursu": 3683,
      "Ġpurcha": 3684,
      "Ġplayed": 3685,
      "office": 3686,
      "Ġdanced": 3687,
      "Ġcondition": 3688,
      "Ġshop": 3689,
      "Ġshook": 3690,
      "Ġencouraged": 3691,
      "Ġdangerous": 3692,
      "Ġwater": 3693,
      "Ġwatched": 3694,
      "Ġrecollection": 3695,
      "Ġacceptable": 3696,
      "Ġdreadfully": 3697,
      "Ġconstantly": 3698,
      "Ġintroduce": 3699,
      "Ġintroduced": 3700,
      "Ġlux": 3701,
      "Ġprosper": 3702,
      "Ġcommunicated": 3703,
      "Ġirres": 3704,
      "Ġmortified": 3705,
      "Ġcorrespond": 3706,
      "Ġindulgence": 3707,
      "Ġpenet": 3708,
      "Ġerrand": 3709,
      "Ġdescribe": 3710,
      "Ġescap": 3711,
      "Ġconclusion": 3712,
      "Ġleading": 3713,
      "Ġcontrary": 3714,
      "ableness": 3715,
      "Ġprospects": 3716,
      "Ġgrieved": 3717,
      "Ġastonished": 3718,
      "Ġdestin": 3719,
      "Ġpeculiar": 3720,
      "Ġpressed": 3721,
      "rudence": 3722,
      "Ġmixture": 3723,
      "Ġwatching": 3724,
      "Ġtalents": 3725,
      "Ġafforded": 3726,
      "Ġstaid": 3727,
      "Ġapologies": 3728,
      "Ġunexception": 3729,
      "Ġfrequent": 3730,
      "Ġfrequently": 3731,
      "Ġdrink": 3732,
      "Ġkingston": 3733,
      "Ġeldest": 3734,
      "Ġelizab": 3735,
      "Ġdispleased": 3736,
      "arrass": 3737,
      "Ġassurance": 3738,
      "Ġindignation": 3739,
      "Ġtemptation": 3740,
      "Ġreconciled": 3741,
      "Ġembarrass": 3742,
      "Ġvolunt": 3743,
      "Ġhitherto": 3744,
      "Ġsoften": 3745,
      "Ġperformance": 3746,
      "Ġunnecessary": 3747,
      "Ġbaked": 3748,
      "Ġvulgar": 3749,
      "Ġgoverness": 3750,
      "Ġmatrimony": 3751,
      "Ġremembrance": 3752,
      "Ġstrawberries": 3753,
      "Ġtiresome": 3754,
      "Ġsource": 3755,
      "Ġtongue": 3756,
      "Ġseveral": 3757,
      "Ġjealous": 3758,
      "Ġearlier": 3759,
      "Ġsanguine": 3760,
      "Ġyorkshire": 3761,
      "Ġforbearance": 3762,
      "Ġstupid": 3763,
      "Ġcoolly": 3764,
      "Ġconscience": 3765,
      "Ġbristol": 3766,
      "Ġelizabeth": 3767,
      "),": 3768,
      "bru": 3769,
      "cil": 3770,
      "did": 3771,
      "ffer": 3772,
      "gge": 3773,
      "ike": 3774,
      "mn": 3775,
      "mes": 3776,
      "mill": 3777,
      "never": 3778,
      "ored": 3779,
      "pet": 3780,
      "pray": 3781,
      "rad": 3782,
      "sing": 3783,
      "ship": 3784,
      "ys": 3785,
      "Ġtaught": 3786,
      "Ġtues": 3787,
      "Ġaut": 3788,
      "Ġapt": 3789,
      "head": 3790,
      "Ġmild": 3791,
      "rer": 3792,
      "ouche": 3793,
      "Ġbore": 3794,
      "Ġbare": 3795,
      "Ġcoura": 3796,
      "Ġfashion": 3797,
      "Ġheight": 3798,
      "enced": 3799,
      "Ġdro": 3800,
      "Ġdry": 3801,
      "Ġdomest": 3802,
      "lli": 3803,
      "lled": 3804,
      "Ġpal": 3805,
      "Ġpus": 3806,
      "Ġeating": 3807,
      "aration": 3808,
      "armed": 3809,
      "attered": 3810,
      "Ġyield": 3811,
      "Ġgay": 3812,
      "Ġgown": 3813,
      "Ġlord": 3814,
      "vet": 3815,
      "vered": 3816,
      "Ġthin": 3817,
      "Ġthir": 3818,
      "Ġthreat": 3819,
      "Ġrendered": 3820,
      "Ġwealth": 3821,
      "illed": 3822,
      "urity": 3823,
      "urday": 3824,
      "Ġalliance": 3825,
      "Ġseven": 3826,
      "Ġseason": 3827,
      "Ġsending": 3828,
      "Ġconvenient": 3829,
      "Ġmoved": 3830,
      "Ġjune": 3831,
      "Ġneat": 3832,
      "Ġfront": 3833,
      "pping": 3834,
      "Ġstart": 3835,
      "Ġstud": 3836,
      "Ġmisc": 3837,
      "Ġmisfortun": 3838,
      "ulous": 3839,
      "Ġfebru": 3840,
      "Ġleg": 3841,
      "Ġlover": 3842,
      "Ġamusing": 3843,
      "Ġfaith": 3844,
      "Ġalert": 3845,
      "Ġalike": 3846,
      "Ġalarmed": 3847,
      "Ġlives": 3848,
      "mpath": 3849,
      "Ġunfe": 3850,
      "Ġunwell": 3851,
      "Ġabund": 3852,
      "Ġabomin": 3853,
      "Ġknightleys": 3854,
      "Ġpoin": 3855,
      "Ġgoodness": 3856,
      "Ġupright": 3857,
      "Ġacross": 3858,
      "Ġcoach": 3859,
      "Ġgreatly": 3860,
      "Ġshade": 3861,
      "Ġspo": 3862,
      "Ġspot": 3863,
      "Ġspared": 3864,
      "Ġhappiest": 3865,
      "osite": 3866,
      "Ġresult": 3867,
      "about": 3868,
      "urning": 3869,
      "ancy": 3870,
      "uming": 3871,
      "Ġimpression": 3872,
      "Ġridd": 3873,
      "Ġrivet": 3874,
      "Ġoverp": 3875,
      "Ġrepet": 3876,
      "Ġarise": 3877,
      "Ġargu": 3878,
      "Ġsaturday": 3879,
      "Ġapplic": 3880,
      "Ġbrain": 3881,
      "ĠĠĠ": 3882,
      "Ġdesign": 3883,
      "aging": 3884,
      "Ġvisiting": 3885,
      "Ġmorrow": 3886,
      "Ġours": 3887,
      "Ġengaging": 3888,
      "Ġdoubts": 3889,
      "Ġextent": 3890,
      "Ġoccasions": 3891,
      "bered": 3892,
      "Ġclass": 3893,
      "Ġendured": 3894,
      "eping": 3895,
      "Ġsurm": 3896,
      "Ġpair": 3897,
      "Ġwherever": 3898,
      "Ġaffected": 3899,
      "Ġpersonal": 3900,
      "then": 3901,
      "Ġsusp": 3902,
      "Ġexped": 3903,
      "Ġexpense": 3904,
      "Ġreadily": 3905,
      "Ġdraught": 3906,
      "Ġdisparity": 3907,
      "Ġhoping": 3908,
      "Ġactive": 3909,
      "Ġdetained": 3910,
      "Ġdaughters": 3911,
      "Ġcoldness": 3912,
      "Ġobjects": 3913,
      "Ġapprove": 3914,
      "Ġstrongly": 3915,
      "Ġdegrad": 3916,
      "mptoms": 3917,
      "Ġthanked": 3918,
      "Ġsensation": 3919,
      "Ġdepends": 3920,
      "Ġopposite": 3921,
      "Ġparade": 3922,
      "Ġcolour": 3923,
      "Ġrecommendation": 3924,
      "Ġquickly": 3925,
      "Ġenjoyed": 3926,
      "ensible": 3927,
      "Ġlistening": 3928,
      "Ġdeclined": 3929,
      "Ġdeclared": 3930,
      "Ġdeclaration": 3931,
      "Ġtrick": 3932,
      "while": 3933,
      "Ġuncertain": 3934,
      "Ġrequire": 3935,
      "landau": 3936,
      "Ġguessed": 3937,
      "Ġforgive": 3938,
      "Ġforgetting": 3939,
      "Ġsweetness": 3940,
      "Ġmerits": 3941,
      "Ġremind": 3942,
      "Ġblushed": 3943,
      "Ġbrilli": 3944,
      "Ġoffering": 3945,
      "Ġschemes": 3946,
      "Ġsympath": 3947,
      "Ġsymptoms": 3948,
      "Ġeste": 3949,
      "Ġestim": 3950,
      "Ġblessed": 3951,
      "Ġoccupy": 3952,
      "mission": 3953,
      "Ġanger": 3954,
      "Ġdistinctly": 3955,
      "Ġdistressing": 3956,
      "Ġfallen": 3957,
      "Ġremoval": 3958,
      "Ġblindness": 3959,
      "Ġcorre": 3960,
      "Ġcorner": 3961,
      "Ġdeny": 3962,
      "Ġsteps": 3963,
      "Ġindulge": 3964,
      "Ġobservations": 3965,
      "Ġpresumption": 3966,
      "Ġmidst": 3967,
      "Ġdescription": 3968,
      "Ġtremb": 3969,
      "Ġunreser": 3970,
      "Ġgardens": 3971,
      "Ġshocked": 3972,
      "Ġcongratulations": 3973,
      "Ġpreparation": 3974,
      "Ġapprehension": 3975,
      "Ġsentiments": 3976,
      "Ġhesitating": 3977,
      "Ġdamp": 3978,
      "humour": 3979,
      "Ġtravel": 3980,
      "Ġnumbers": 3981,
      "Ġannounce": 3982,
      "Ġtreatment": 3983,
      "Ġmeasure": 3984,
      "natured": 3985,
      "Ġhastily": 3986,
      "Ġpuzz": 3987,
      "Ġapproaching": 3988,
      "Ġfeatures": 3989,
      "Ġunfortunate": 3990,
      "Ġmoderate": 3991,
      "Ġestablishment": 3992,
      "Ġbarouche": 3993,
      "Ġbragge": 3994,
      "Ġunsus": 3995,
      "Ġsincerely": 3996,
      "Ġcordial": 3997,
      "Ġceremony": 3998,
      "Ġtranquill": 3999,
      "certainly": 4000,
      "Ġterror": 4001,
      "Ġsolemn": 4002,
      "Ġchiefly": 4003,
      "Ġpoliteness": 4004,
      "Ġunequal": 4005,
      "Ġexistence": 4006,
      "Ġfemale": 4007,
      "Ġlearn": 4008,
      "Ġprecisely": 4009,
      "Ġguests": 4010,
      "Ġconstitution": 4011,
      "Ġshrubber": 4012,
      "Ġcautious": 4013,
      "Ġsubstance": 4014,
      "Ġflutter": 4015,
      "Ġpenetr": 4016,
      "Ġescaped": 4017,
      "Ġdestiny": 4018,
      "Ġunexceptionable": 4019,
      "fferable": 4020,
      "Ġtuesday": 4021,
      "Ġautumn": 4022,
      "Ġcourage": 4023,
      "Ġdomestic": 4024,
      "Ġfebruary": 4025,
      "Ġabominable": 4026,
      ";'": 4027,
      "?'": 4028,
      "by": 4029,
      "cer": 4030,
      "dra": 4031,
      "his": 4032,
      "hour": 4033,
      "iven": 4034,
      "join": 4035,
      "ket": 4036,
      "lance": 4037,
      "mble": 4038,
      "mbered": 4039,
      "nay": 4040,
      "oci": 4041,
      "pha": 4042,
      "ron": 4043,
      "rain": 4044,
      "sor": 4045,
      "tage": 4046,
      "ug": 4047,
      "uit": 4048,
      "was": 4049,
      "Ġaver": 4050,
      "Ġast": 4051,
      "Ġaction": 4052,
      "health": 4053,
      "inent": 4054,
      "Ġsin": 4055,
      "Ġsong": 4056,
      "Ġswell": 4057,
      "Ġsought": 4058,
      "Ġwall": 4059,
      "Ġwine": 4060,
      "Ġmill": 4061,
      "Ġot": 4062,
      "ham": 4063,
      "Ġbab": 4064,
      "Ġcens": 4065,
      "Ġtopic": 4066,
      "onoun": 4067,
      "Ġfal": 4068,
      "Ġfate": 4069,
      "Ġfree": 4070,
      "Ġfurn": 4071,
      "Ġfires": 4072,
      "Ġnay": 4073,
      "Ġdwell": 4074,
      "Ġdances": 4075,
      "Ġbew": 4076,
      "Ġbend": 4077,
      "Ġbell": 4078,
      "ism": 4079,
      "Ġhung": 4080,
      "orge": 4081,
      "Ġincom": 4082,
      "aning": 4083,
      "Ġgil": 4084,
      "Ġlace": 4085,
      "Ġlength": 4086,
      "Ġnotions": 4087,
      "lying": 4088,
      "stem": 4089,
      "Ġreck": 4090,
      "owered": 4091,
      "Ġforce": 4092,
      "Ġones": 4093,
      "ider": 4094,
      "Ġwear": 4095,
      "Ġsol": 4096,
      "aled": 4097,
      "making": 4098,
      "urrence": 4099,
      "roy": 4100,
      "Ġmeal": 4101,
      "Ġdeli": 4102,
      "Ġsecl": 4103,
      "Ġconvenience": 4104,
      "Ġsave": 4105,
      "Ġsaved": 4106,
      "Ġjoke": 4107,
      "Ġmyst": 4108,
      "akes": 4109,
      "Ġmisch": 4110,
      "ulted": 4111,
      "Ġfever": 4112,
      "Ġample": 4113,
      "Ġamiss": 4114,
      "Ġperpet": 4115,
      "Ġalter": 4116,
      "Ġmanage": 4117,
      "Ġliable": 4118,
      "Ġlips": 4119,
      "Ġseek": 4120,
      "Ġvi": 4121,
      "Ġvou": 4122,
      "Ġvast": 4123,
      "Ġvii": 4124,
      "terest": 4125,
      "mpl": 4126,
      "mple": 4127,
      "mpted": 4128,
      "Ġenvy": 4129,
      "Ġunper": 4130,
      "Ġunjust": 4131,
      "Ġcapt": 4132,
      "Ġrising": 4133,
      "usal": 4134,
      "Ġcompare": 4135,
      "Ġshar": 4136,
      "Ġshaken": 4137,
      "Ġadjoin": 4138,
      "Ġgoes": 4139,
      "erty": 4140,
      "pected": 4141,
      "Ġresist": 4142,
      "fulness": 4143,
      "Ġconsult": 4144,
      "Ġoutward": 4145,
      "Ġlonged": 4146,
      "Ġspecul": 4147,
      "Ġfirm": 4148,
      "Ġtwice": 4149,
      "ounded": 4150,
      "Ġafterno": 4151,
      "Ġundert": 4152,
      "jected": 4153,
      "ancing": 4154,
      "Ġtalker": 4155,
      "umb": 4156,
      "Ġride": 4157,
      "Ġoverhe": 4158,
      "Ġapart": 4159,
      "nothing": 4160,
      "Ġpronoun": 4161,
      "Ġartic": 4162,
      "Ġsubd": 4163,
      "Ġsubmitted": 4164,
      "Ġassoci": 4165,
      "Ġmeanwhile": 4166,
      "Ġrapt": 4167,
      "Ġraised": 4168,
      "Ġdespa": 4169,
      "place": 4170,
      "Ġretire": 4171,
      "Ġcontented": 4172,
      "Ġacquit": 4173,
      "Ġacquies": 4174,
      "Ġmatches": 4175,
      "Ġcharity": 4176,
      "Ġchanged": 4177,
      "Ġaccent": 4178,
      "Ġaccident": 4179,
      "Ġpaused": 4180,
      "Ġgentility": 4181,
      "Ġstranger": 4182,
      "Ġrefresh": 4183,
      "Ġinval": 4184,
      "Ġinvitations": 4185,
      "Ġopenly": 4186,
      "Ġresolute": 4187,
      "Ġrespects": 4188,
      "Ġdirection": 4189,
      "Ġmeetings": 4190,
      "Ġheartily": 4191,
      "Ġwarmer": 4192,
      "Ġcheek": 4193,
      "Ġwondering": 4194,
      "Ġsituations": 4195,
      "Ġcontinually": 4196,
      "Ġguided": 4197,
      "Ġattempted": 4198,
      "Ġdecis": 4199,
      "Ġremembered": 4200,
      "Ġproportion": 4201,
      "Ġproperty": 4202,
      "Ġapproved": 4203,
      "Ġboiled": 4204,
      "erned": 4205,
      "Ġflow": 4206,
      "Ġdrew": 4207,
      "Ġexcited": 4208,
      "orthy": 4209,
      "Ġprobable": 4210,
      "Ġsensibility": 4211,
      "Ġencoun": 4212,
      "Ġinterval": 4213,
      "Ġsocial": 4214,
      "Ġhorri": 4215,
      "Ġdrawback": 4216,
      "Ġcreating": 4217,
      "Ġnecessarily": 4218,
      "Ġwaited": 4219,
      "Ġliking": 4220,
      "Ġopposing": 4221,
      "ission": 4222,
      "Ġrecommendations": 4223,
      "Ġcreatures": 4224,
      "Ġdeserves": 4225,
      "Ġtriumph": 4226,
      "Ġconceit": 4227,
      "Ġconceive": 4228,
      "Ġinclined": 4229,
      "Ġrequest": 4230,
      "Ġrecollections": 4231,
      "Ġaccepting": 4232,
      "luck": 4233,
      "Ġeffort": 4234,
      "Ġregrets": 4235,
      "Ġanxiously": 4236,
      "Ġintellect": 4237,
      "Ġcheerfulness": 4238,
      "Ġwindsor": 4239,
      "Ġslighted": 4240,
      "Ġplainly": 4241,
      "Ġfinest": 4242,
      "Ġconstant": 4243,
      "Ġbright": 4244,
      "Ġceased": 4245,
      "Ġsystem": 4246,
      "Ġblessings": 4247,
      "Ġxii": 4248,
      "Ġbelonged": 4249,
      "Ġhints": 4250,
      "Ġattempts": 4251,
      "Ġdenying": 4252,
      "Ġalarming": 4253,
      "Ġpenance": 4254,
      "Ġwelcom": 4255,
      "Ġprovoking": 4256,
      "Ġacknowledgment": 4257,
      "Ġborn": 4258,
      "Ġcalcul": 4259,
      "Ġconclude": 4260,
      "Ġmotion": 4261,
      "Ġmotives": 4262,
      "Ġvarious": 4263,
      "Ġventured": 4264,
      "Ġcontrad": 4265,
      "Ġcontrast": 4266,
      "Ġsucklings": 4267,
      "Ġrude": 4268,
      "Ġentreaties": 4269,
      "Ġtenderness": 4270,
      "Ġastonishment": 4271,
      "Ġdestroy": 4272,
      "Ġnegli": 4273,
      "Ġexertion": 4274,
      "Ġexertions": 4275,
      "Ġdirected": 4276,
      "Ġshocking": 4277,
      "Ġcrossed": 4278,
      "Ġnerves": 4279,
      "Ġpressing": 4280,
      "Ġentertainment": 4281,
      "Ġcontrived": 4282,
      "Ġawkwardness": 4283,
      "Ġprofessed": 4284,
      "Ġprofessions": 4285,
      "Ġinev": 4286,
      "Ġtrave": 4287,
      "Ġskill": 4288,
      "Ġbenev": 4289,
      "Ġheaven": 4290,
      "Ġdepressed": 4291,
      "Ġimproper": 4292,
      "Ġsinking": 4293,
      "Ġbooks": 4294,
      "Ġamaz": 4295,
      "Ġelder": 4296,
      "Ġelig": 4297,
      "Ġanimation": 4298,
      "Ġurge": 4299,
      "Ġblunders": 4300,
      "Ġdispleasure": 4301,
      "Ġcollection": 4302,
      "Ġcalmness": 4303,
      "Ġsuggested": 4304,
      "Ġunfortunately": 4305,
      "Ġcapable": 4306,
      "Ġbetrayed": 4307,
      "Ġvexation": 4308,
      "Ġrejo": 4309,
      "Ġrejoice": 4310,
      "Ġrapidly": 4311,
      "Ġdisturb": 4312,
      "Ġdisturbed": 4313,
      "Ġslowly": 4314,
      "Ġreflections": 4315,
      "known": 4316,
      "Ġbitter": 4317,
      "Ġlater": 4318,
      "Ġunworthy": 4319,
      "Ġdistinguishing": 4320,
      "Ġinvolved": 4321,
      "Ġprevailed": 4322,
      "Ġforeseen": 4323,
      "Ġprinciples": 4324,
      "Ġanticipated": 4325,
      "parties": 4326,
      "Ġingen": 4327,
      "Ġhazard": 4328,
      "Ġqualities": 4329,
      "Ġaccommodation": 4330,
      "Ġaugust": 4331,
      "Ġcottage": 4332,
      "Ġinconsider": 4333,
      "Ġsatisfactory": 4334,
      "Ġauthority": 4335,
      "Ġplea": 4336,
      "Ġinsufferable": 4337,
      "Ġlabour": 4338,
      "Ġmisunderstand": 4339,
      "Ġgipsies": 4340,
      "Ġpurchase": 4341,
      "Ġirresist": 4342,
      "Ġmisfortune": 4343,
      "Ġsuspense": 4344,
      "Ġbrilliant": 4345,
      "Ġcorrect": 4346,
      "Ġunreserve": 4347,
      "Ġbaby": 4348,
      "Ġcensure": 4349,
      "Ġfalse": 4350,
      "Ġgilbert": 4351,
      "Ġreckon": 4352,
      "Ġadjoining": 4353,
      "Ġafternoon": 4354,
      "Ġresolutely": 4355,
      ").": 4356,
      "_;": 4357,
      "_.\"": 4358,
      "_,\"": 4359,
      "ail": 4360,
      "airs": 4361,
      "can": 4362,
      "cake": 4363,
      "cence": 4364,
      "cont": 4365,
      "ec": 4366,
      "four": 4367,
      "gation": 4368,
      "hor": 4369,
      "hod": 4370,
      "ich": 4371,
      "ivers": 4372,
      "ls": 4373,
      "light": 4374,
      "lanted": 4375,
      "men": 4376,
      "mit": 4377,
      "mat": 4378,
      "pte": 4379,
      "rated": 4380,
      "rase": 4381,
      "sc": 4382,
      "turning": 4383,
      "uary": 4384,
      "wl": 4385,
      "wom": 4386,
      "work": 4387,
      "Ġ2": 4388,
      "Ġav": 4389,
      "Ġamend": 4390,
      "Ġsw": 4391,
      "Ġsou": 4392,
      "Ġsal": 4393,
      "Ġwet": 4394,
      "Ġwid": 4395,
      "Ġwra": 4396,
      "Ġmag": 4397,
      "Ġmouth": 4398,
      "Ġoper": 4399,
      "Ġbid": 4400,
      "Ġballs": 4401,
      "Ġidle": 4402,
      "only": 4403,
      "Ġfro": 4404,
      "Ġfreed": 4405,
      "Ġnin": 4406,
      "Ġnar": 4407,
      "Ġhate": 4408,
      "Ġdw": 4409,
      "Ġdie": 4410,
      "Ġdirty": 4411,
      "Ġpred": 4412,
      "Ġpace": 4413,
      "Ġportion": 4414,
      "Ġprudence": 4415,
      "Ġeart": 4416,
      "Ġegg": 4417,
      "let": 4418,
      "ases": 4419,
      "Ġhod": 4420,
      "Ġinher": 4421,
      "Ġinfect": 4422,
      "Ġincess": 4423,
      "Ġnove": 4424,
      "Ġnoble": 4425,
      "Ġnoise": 4426,
      "anuary": 4427,
      "arse": 4428,
      "arter": 4429,
      "atte": 4430,
      "Ġyards": 4431,
      "Ġhero": 4432,
      "Ġge": 4433,
      "Ġgain": 4434,
      "Ġgained": 4435,
      "Ġgates": 4436,
      "Ġlist": 4437,
      "Ġlower": 4438,
      "Ġnotion": 4439,
      "stairs": 4440,
      "Ġthick": 4441,
      "Ġren": 4442,
      "Ġresemb": 4443,
      "ric": 4444,
      "Ġforth": 4445,
      "ims": 4446,
      "Ġange": 4447,
      "iding": 4448,
      "idable": 4449,
      "Ġsofa": 4450,
      "maid": 4451,
      "ades": 4452,
      "Ġdem": 4453,
      "Ġdepl": 4454,
      "Ġdefer": 4455,
      "Ġdefic": 4456,
      "Ġdeficient": 4457,
      "Ġdeaf": 4458,
      "Ġemot": 4459,
      "Ġsex": 4460,
      "Ġseized": 4461,
      "Ġsepte": 4462,
      "Ġconqu": 4463,
      "Ġsafer": 4464,
      "Ġjoint": 4465,
      "Ġjanuary": 4466,
      "Ġfruit": 4467,
      "Ġstation": 4468,
      "Ġstore": 4469,
      "Ġexper": 4470,
      "Ġexult": 4471,
      "alled": 4472,
      "ulate": 4473,
      "Ġlosing": 4474,
      "Ġamount": 4475,
      "orted": 4476,
      "Ġaltered": 4477,
      "Ġquant": 4478,
      "Ġquitting": 4479,
      "arder": 4480,
      "depend": 4481,
      "itty": 4482,
      "okes": 4483,
      "Ġmoreover": 4484,
      "atefully": 4485,
      "Ġvo": 4486,
      "Ġvig": 4487,
      "Ġvirt": 4488,
      "tending": 4489,
      "Ġdiscl": 4490,
      "Ġdisgra": 4491,
      "Ġprejud": 4492,
      "Ġwholesome": 4493,
      "Ġunt": 4494,
      "Ġunse": 4495,
      "Ġunus": 4496,
      "Ġunwho": 4497,
      "Ġungra": 4498,
      "Ġunluck": 4499,
      "Ġunivers": 4500,
      "Ġcapri": 4501,
      "Ġgoodwill": 4502,
      "Ġrous": 4503,
      "Ġrise": 4504,
      "elcome": 4505,
      "ils": 4506,
      "ift": 4507,
      "Ġcop": 4508,
      "Ġcompose": 4509,
      "Ġshape": 4510,
      "Ġshawl": 4511,
      "Ġspru": 4512,
      "Ġado": 4513,
      "Ġsomehow": 4514,
      "Ġjump": 4515,
      "acity": 4516,
      "aches": 4517,
      "rue": 4518,
      "Ġthoughtful": 4519,
      "osp": 4520,
      "Ġplenty": 4521,
      "Ġevenings": 4522,
      "Ġspending": 4523,
      "ounds": 4524,
      "inement": 4525,
      "Ġjustified": 4526,
      "anced": 4527,
      "ancies": 4528,
      "Ġimprudent": 4529,
      "Ġribb": 4530,
      "fortable": 4531,
      "command": 4532,
      "Ġsupplied": 4533,
      "Ġroast": 4534,
      "iculous": 4535,
      "Ġsubs": 4536,
      "Ġbateses": 4537,
      "Ġassisted": 4538,
      "Ġkinder": 4539,
      "Ġentit": 4540,
      "Ġentrance": 4541,
      "Ġmomentary": 4542,
      "Ġdesp": 4543,
      "Ġdesert": 4544,
      "Ġretired": 4545,
      "Ġcontaining": 4546,
      "Ġhandwr": 4547,
      "Ġlasting": 4548,
      "Ġvisited": 4549,
      "Ġgranted": 4550,
      "Ġgratefully": 4551,
      "Ġdistressed": 4552,
      "Ġblood": 4553,
      "Ġblack": 4554,
      "Ġbloom": 4555,
      "Ġengross": 4556,
      "Ġobligation": 4557,
      "aming": 4558,
      "Ġteach": 4559,
      "Ġcarried": 4560,
      "Ġscene": 4561,
      "Ġcalls": 4562,
      "Ġnative": 4563,
      "Ġsurp": 4564,
      "Ġsurr": 4565,
      "Ġallowing": 4566,
      "Ġrights": 4567,
      "retion": 4568,
      "Ġchances": 4569,
      "Ġrefrain": 4570,
      "Ġrefusal": 4571,
      "these": 4572,
      "thened": 4573,
      "Ġexpose": 4574,
      "Ġrestored": 4575,
      "Ġdownright": 4576,
      "Ġshortly": 4577,
      "Ġagreeably": 4578,
      "Ġappearing": 4579,
      "Ġanswering": 4580,
      "Ġpromising": 4581,
      "Ġcontinuing": 4582,
      "ivity": 4583,
      "Ġdecide": 4584,
      "Ġpropose": 4585,
      "Ġexample": 4586,
      "Ġapproached": 4587,
      "Ġstrongest": 4588,
      "Ġpowerful": 4589,
      "Ġexciting": 4590,
      "ustom": 4591,
      "Ġstoop": 4592,
      "Ġstopping": 4593,
      "Ġthankful": 4594,
      "Ġelev": 4595,
      "Ġhonoured": 4596,
      "Ġexception": 4597,
      "Ġmentioning": 4598,
      "Ġpainful": 4599,
      "Ġlikes": 4600,
      "picious": 4601,
      "Ġoppose": 4602,
      "Ġrecommending": 4603,
      "Ġdetermination": 4604,
      "Ġsweep": 4605,
      "Ġmethod": 4606,
      "Ġpattern": 4607,
      "Ġcommission": 4608,
      "which": 4609,
      "Ġarrive": 4610,
      "Ġarriving": 4611,
      "Ġgentlemanlike": 4612,
      "Ġincluded": 4613,
      "Ġremains": 4614,
      "Ġexcellence": 4615,
      "Ġoccasionally": 4616,
      "Ġsuspecting": 4617,
      "Ġrequires": 4618,
      "forward": 4619,
      "urious": 4620,
      "Ġpraised": 4621,
      "Ġpersuading": 4622,
      "Ġregretted": 4623,
      "Ġguessing": 4624,
      "Ġforgiven": 4625,
      "Ġsufferings": 4626,
      "Ġcounter": 4627,
      "Ġcounsel": 4628,
      "Ġslightest": 4629,
      "Ġfinery": 4630,
      "Ġintroducing": 4631,
      "Ġoffers": 4632,
      "Ġsinging": 4633,
      "Ġmodest": 4634,
      "Ġmodern": 4635,
      "Ġmadness": 4636,
      "Ġworking": 4637,
      "Ġcommunications": 4638,
      "Ġrelate": 4639,
      "Ġrelative": 4640,
      "Ġsummon": 4641,
      "Ġstrugg": 4642,
      "grateful": 4643,
      "Ġmortifying": 4644,
      "Ġsuddenly": 4645,
      "Ġeffects": 4646,
      "Ġremove": 4647,
      "Ġsighing": 4648,
      "Ġdearer": 4649,
      "Ġunpre": 4650,
      "Ġpencil": 4651,
      "Ġpresumed": 4652,
      "Ġprovided": 4653,
      "Ġdescribed": 4654,
      "Ġacknowledging": 4655,
      "Ġinferiority": 4656,
      "Ġtreas": 4657,
      "Ġvariety": 4658,
      "Ġutter": 4659,
      "Ġcutting": 4660,
      "Ġsucceeding": 4661,
      "Ġsolicit": 4662,
      "Ġthousands": 4663,
      "Ġgrief": 4664,
      "Ġastonishing": 4665,
      "Ġfearful": 4666,
      "Ġholds": 4667,
      "Ġcongratulate": 4668,
      "Ġcatching": 4669,
      "Ġformerly": 4670,
      "Ġpreparing": 4671,
      "Ġentertaining": 4672,
      "Ġapprehens": 4673,
      "Ġwretchedness": 4674,
      "Ġmixed": 4675,
      "Ġhesitated": 4676,
      "Ġcoxes": 4677,
      "ĠĠĠĠĠĠĠĠĠĠĠĠĠĠĠĠ": 4678,
      "Ġavoiding": 4679,
      "Ġbecomes": 4680,
      "Ġinex": 4681,
      "Ġrelieved": 4682,
      "Ġimpatience": 4683,
      "Ġsket": 4684,
      "Ġbenefit": 4685,
      "Ġnicely": 4686,
      "Ġapology": 4687,
      "Ġannounced": 4688,
      "Ġtreated": 4689,
      "Ġkingd": 4690,
      "Ġprincipally": 4691,
      "Ġmutual": 4692,
      "Ġcards": 4693,
      "Ġhasty": 4694,
      "Ġanimated": 4695,
      "Ġdevoted": 4696,
      "Ġartless": 4697,
      "Ġvisitors": 4698,
      "Ġadmirer": 4699,
      "Ġhorseback": 4700,
      "Ġeighteen": 4701,
      "Ġfeature": 4702,
      "Ġassurances": 4703,
      "Ġreconci": 4704,
      "Ġgravely": 4705,
      "Ġestablished": 4706,
      "Ġbasket": 4707,
      "Ġphrase": 4708,
      "Ġcandour": 4709,
      "Ġsleeping": 4710,
      "Ġowed": 4711,
      "Ġsteadily": 4712,
      "Ġunwelcome": 4713,
      "Ġaffairs": 4714,
      "Ġridiculous": 4715,
      "Ġpossession": 4716,
      "Ġaccording": 4717,
      "Ġforesee": 4718,
      "Ġoriginal": 4719,
      "sembled": 4720,
      "Ġprocuring": 4721,
      "Ġconfirmed": 4722,
      "Ġrestraint": 4723,
      "Ġsorrowful": 4724,
      "Ġostler": 4725,
      "Ġoffended": 4726,
      "Ġpunct": 4727,
      "Ġcontempl": 4728,
      "Ġuncomfortable": 4729,
      "Ġabruptly": 4730,
      "Ġspeedily": 4731,
      "chard": 4732,
      "Ġdignity": 4733,
      "Ġdisinterest": 4734,
      "Ġpopular": 4735,
      "Ġobtained": 4736,
      "Ġprivilege": 4737,
      "Ġdiscussion": 4738,
      "Ġprosperous": 4739,
      "Ġdrinking": 4740,
      "Ġembarrassment": 4741,
      "Ġvoluntarily": 4742,
      "Ġsoftened": 4743,
      "Ġjealousy": 4744,
      "Ġbarely": 4745,
      "Ġpalp": 4746,
      "Ġthird": 4747,
      "Ġstudy": 4748,
      "Ġabundance": 4749,
      "Ġpointed": 4750,
      "Ġcoachman": 4751,
      "Ġriddle": 4752,
      "Ġrepetition": 4753,
      "Ġargument": 4754,
      "Ġuncertainty": 4755,
      "Ġsympathy": 4756,
      "Ġtrembling": 4757,
      "Ġunsuspicious": 4758,
      "Ġtranquillity": 4759,
      "Ġshrubbery": 4760,
      "Ġpenetration": 4761,
      "Ġotway": 4762,
      "Ġseclusion": 4763,
      "Ġmystery": 4764,
      "Ġmischief": 4765,
      "Ġvouch": 4766,
      "Ġspeculation": 4767,
      "Ġarticle": 4768,
      "Ġraptures": 4769,
      "Ġdespair": 4770,
      "Ġretirement": 4771,
      "Ġacquiescence": 4772,
      "Ġinvalid": 4773,
      "Ġdecisive": 4774,
      "Ġencounter": 4775,
      "Ġhorrible": 4776,
      "Ġnegligent": 4777,
      "Ġtravelling": 4778,
      "Ġirresistible": 4779,
      "Ġnarrow": 4780,
      "Ġearth": 4781,
      "Ġhodges": 4782,
      "Ġincessant": 4783,
      "Ġnovember": 4784,
      "Ġresemblance": 4785,
      "Ġangel": 4786,
      "Ġseptember": 4787,
      "Ġunusual": 4788,
      "Ġunwholesome": 4789,
      "Ġungracious": 4790,
      "Ġspruce": 4791,
      "Ġhandwriting": 4792,
      "Ġdisinterested": 4793,
      "'d": 4794,
      ".)": 4795,
      "00": 4796,
      ":\"": 4797,
      "act": 4798,
      "amed": 4799,
      "bl": 4800,
      "bing": 4801,
      "bid": 4802,
      "bred": 4803,
      "bted": 4804,
      "don": 4805,
      "dain": 4806,
      "evi": 4807,
      "fr": 4808,
      "gance": 4809,
      "gam": 4810,
      "iver": 4811,
      "ife": 4812,
      "iving": 4813,
      "kes": 4814,
      "length": 4815,
      "mation": 4816,
      "nes": 4817,
      "nod": 4818,
      "nonsense": 4819,
      "oat": 4820,
      "oves": 4821,
      "ober": 4822,
      "pre": 4823,
      "ply": 4824,
      "ppe": 4825,
      "posed": 4826,
      "pulous": 4827,
      "rat": 4828,
      "sha": 4829,
      "sight": 4830,
      "sum": 4831,
      "sized": 4832,
      "tr": 4833,
      "tim": 4834,
      "table": 4835,
      "tete": 4836,
      "true": 4837,
      "ume": 4838,
      "uous": 4839,
      "voured": 4840,
      "would": 4841,
      "Ġze": 4842,
      "Ġtid": 4843,
      "Ġtree": 4844,
      "Ġtete": 4845,
      "Ġaro": 4846,
      "inations": 4847,
      "Ġsan": 4848,
      "Ġsly": 4849,
      "Ġsli": 4850,
      "Ġwal": 4851,
      "Ġwound": 4852,
      "Ġwond": 4853,
      "Ġwick": 4854,
      "Ġwright": 4855,
      "Ġmain": 4856,
      "Ġmil": 4857,
      "Ġoct": 4858,
      "has": 4859,
      "Ġbow": 4860,
      "Ġbank": 4861,
      "Ġbought": 4862,
      "Ġii": 4863,
      "Ġiii": 4864,
      "erg": 4865,
      "erous": 4866,
      "nday": 4867,
      "Ġcre": 4868,
      "Ġcow": 4869,
      "Ġcous": 4870,
      "Ġcruel": 4871,
      "Ġfid": 4872,
      "Ġfill": 4873,
      "inger": 4874,
      "Ġnames": 4875,
      "Ġhang": 4876,
      "Ġdied": 4877,
      "Ġdouble": 4878,
      "Ġdiver": 4879,
      "isis": 4880,
      "isser": 4881,
      "ishes": 4882,
      "iti": 4883,
      "ital": 4884,
      "itions": 4885,
      "Ġpet": 4886,
      "Ġpounds": 4887,
      "Ġess": 4888,
      "ashed": 4889,
      "Ġhosp": 4890,
      "Ġinn": 4891,
      "verance": 4892,
      "Ġgather": 4893,
      "Ġland": 4894,
      "Ġshel": 4895,
      "Ġthither": 4896,
      "uted": 4897,
      "ching": 4898,
      "Ġremon": 4899,
      "Ġrevi": 4900,
      "Ġreign": 4901,
      "Ġrelu": 4902,
      "Ġreception": 4903,
      "Ġreap": 4904,
      "Ġreverse": 4905,
      "Ġrejected": 4906,
      "Ġaside": 4907,
      "Ġassembled": 4908,
      "imens": 4909,
      "Ġsuitable": 4910,
      "idious": 4911,
      "Ġweight": 4912,
      "Ġwelf": 4913,
      "Ġsoot": 4914,
      "Ġsober": 4915,
      "Ġsolit": 4916,
      "Ġupp": 4917,
      "ode": 4918,
      "Ġwhist": 4919,
      "Ġwhims": 4920,
      "Ġkilled": 4921,
      "urd": 4922,
      "ural": 4923,
      "urbation": 4924,
      "adows": 4925,
      "Ġallevi": 4926,
      "root": 4927,
      "Ġmeadows": 4928,
      "tering": 4929,
      "Ġdeb": 4930,
      "Ġdeemed": 4931,
      "quality": 4932,
      "quarter": 4933,
      "Ġseas": 4934,
      "Ġconund": 4935,
      "Ġdozen": 4936,
      "Ġcomma": 4937,
      "Ġcommend": 4938,
      "Ġsau": 4939,
      "ainted": 4940,
      "Ġstable": 4941,
      "Ġstret": 4942,
      "Ġstokes": 4943,
      "Ġextens": 4944,
      "icing": 4945,
      "icious": 4946,
      "ularly": 4947,
      "fere": 4948,
      "Ġlevel": 4949,
      "meaning": 4950,
      "Ġperception": 4951,
      "Ġpermitted": 4952,
      "Ġalas": 4953,
      "Ġalong": 4954,
      "Ġalpha": 4955,
      "lies": 4956,
      "Ġquit": 4957,
      "Ġvac": 4958,
      "Ġdisper": 4959,
      "Ġdissu": 4960,
      "Ġdisdain": 4961,
      "Ġchuses": 4962,
      "Ġprec": 4963,
      "Ġpretens": 4964,
      "othed": 4965,
      "Ġenv": 4966,
      "Ġyours": 4967,
      "Ġunf": 4968,
      "Ġunm": 4969,
      "Ġunion": 4970,
      "Ġunsu": 4971,
      "Ġunfair": 4972,
      "Ġunaf": 4973,
      "Ġunfit": 4974,
      "Ġunknown": 4975,
      "Ġungrateful": 4976,
      "Ġprote": 4977,
      "Ġproving": 4978,
      "Ġcauses": 4979,
      "ivete": 4980,
      "elt": 4981,
      "eling": 4982,
      "Ġcompet": 4983,
      "Ġwoodhouses": 4984,
      "Ġowned": 4985,
      "unk": 4986,
      "unction": 4987,
      "Ġspos": 4988,
      "Ġspace": 4989,
      "Ġsomewhat": 4990,
      "Ġsomewhere": 4991,
      "ache": 4992,
      "rum": 4993,
      "Ġthoughtless": 4994,
      "Ġintently": 4995,
      "Ġusually": 4996,
      "Ġbeforehand": 4997,
      "Ġresign": 4998,
      "Ġresidence": 4999,
      "Ġlikewise": 5000,
      "abilities": 5001,
      "fected": 5002,
      "Ġwiser": 5003,
      "Ġconsulting": 5004,
      "Ġconsulted": 5005,
      "Ġchaise": 5006,
      "Ġindebted": 5007,
      "Ġlonging": 5008,
      "though": 5009,
      "Ġattract": 5010,
      "Ġyoungest": 5011,
      "Ġtalks": 5012,
      "Ġmarries": 5013,
      "Ġimpert": 5014,
      "Ġimplied": 5015,
      "Ġbathing": 5016,
      "onduct": 5017,
      "Ġsupplanted": 5018,
      "Ġpresence": 5019,
      "Ġarrow": 5020,
      "Ġwalks": 5021,
      "Ġsubsequ": 5022,
      "Ġintending": 5023,
      "Ġassert": 5024,
      "Ġassuming": 5025,
      "Ġbrings": 5026,
      "Ġbrisk": 5027,
      "Ġhears": 5028,
      "Ġdesper": 5029,
      "Ġminds": 5030,
      "Ġcontained": 5031,
      "Ġhanded": 5032,
      "Ġindub": 5033,
      "Ġblank": 5034,
      "Ġblue": 5035,
      "Ġblock": 5036,
      "Ġtear": 5037,
      "Ġteacher": 5038,
      "Ġcaro": 5039,
      "Ġwriter": 5040,
      "Ġconsiders": 5041,
      "Ġconsiderably": 5042,
      "Ġscra": 5043,
      "Ġfewer": 5044,
      "beer": 5045,
      "Ġtrain": 5046,
      "Ġtrade": 5047,
      "Ġclub": 5048,
      "Ġseries": 5049,
      "Ġglimp": 5050,
      "Ġglancing": 5051,
      "Ġgloves": 5052,
      "Ġallowable": 5053,
      "Ġrightly": 5054,
      "Ġcharitable": 5055,
      "Ġcharades": 5056,
      "Ġgenerous": 5057,
      "Ġgenerosity": 5058,
      "Ġimaginary": 5059,
      "Ġconfused": 5060,
      "Ġconfident": 5061,
      "Ġoftener": 5062,
      "Ġpale": 5063,
      "Ġrecur": 5064,
      "Ġfortitude": 5065,
      "Ġsecurity": 5066,
      "bute": 5067,
      "Ġletting": 5068,
      "Ġexpectations": 5069,
      "Ġadvent": 5070,
      "Ġadvance": 5071,
      "Ġadvised": 5072,
      "Ġaddressed": 5073,
      "Ġgets": 5074,
      "monious": 5075,
      "Ġinviting": 5076,
      "ourably": 5077,
      "Ġexposed": 5078,
      "Ġrestore": 5079,
      "Ġresolving": 5080,
      "Ġdownstairs": 5081,
      "Ġlessen": 5082,
      "vial": 5083,
      "Ġagreeing": 5084,
      "Ġcomplain": 5085,
      "Ġcomplac": 5086,
      "Ġwives": 5087,
      "Ġappearances": 5088,
      "Ġcareful": 5089,
      "Ġcareless": 5090,
      "Ġkey": 5091,
      "Ġpromoted": 5092,
      "Ġpromises": 5093,
      "Ġpromote": 5094,
      "Ġacted": 5095,
      "Ġactivity": 5096,
      "Ġabsurd": 5097,
      "Ġfortunately": 5098,
      "Ġcolds": 5099,
      "Ġobjections": 5100,
      "Ġfanciful": 5101,
      "Ġdonke": 5102,
      "Ġthroughout": 5103,
      "Ġaccounts": 5104,
      "Ġexact": 5105,
      "Ġapproving": 5106,
      "Ġcleared": 5107,
      "Ġboot": 5108,
      "Ġequality": 5109,
      "Ġflattered": 5110,
      "Ġbrothers": 5111,
      "Ġsentence": 5112,
      "Ġexchan": 5113,
      "ustice": 5114,
      "Ġslave": 5115,
      "Ġstock": 5116,
      "Ġsenses": 5117,
      "Ġairing": 5118,
      "Ġsettling": 5119,
      "Ġprize": 5120,
      "Ġdiscreet": 5121,
      "Ġdiscovered": 5122,
      "Ġdiscretion": 5123,
      "Ġgratifying": 5124,
      "Ġdrawings": 5125,
      "Ġdisappe": 5126,
      "Ġregarded": 5127,
      "Ġconcurrence": 5128,
      "Ġneedless": 5129,
      "Ġopposed": 5130,
      "Ġplays": 5131,
      "Ġdixons": 5132,
      "Ġfondly": 5133,
      "Ġhumili": 5134,
      "Ġheadache": 5135,
      "Ġenjoying": 5136,
      "Ġdetermine": 5137,
      "Ġhush": 5138,
      "Ġimpossibility": 5139,
      "Ġquestioned": 5140,
      "Ġpath": 5141,
      "Ġpatient": 5142,
      "Ġlawn": 5143,
      "Ġdeclining": 5144,
      "Ġcommitted": 5145,
      "Ġdeserving": 5146,
      "Ġtrial": 5147,
      "Ġconceited": 5148,
      "Ġshoes": 5149,
      "onscious": 5150,
      "Ġexplain": 5151,
      "Ġexplore": 5152,
      "Ġuncon": 5153,
      "Ġunconscious": 5154,
      "Ġtruths": 5155,
      "Ġhandsomely": 5156,
      "Ġbelow": 5157,
      "Ġpays": 5158,
      "Ġoccasioned": 5159,
      "Ġrequisite": 5160,
      "Ġhusbands": 5161,
      "Ġsimil": 5162,
      "Ġballroom": 5163,
      "Ġliveliness": 5164,
      "Ġcharmingly": 5165,
      "Ġinsp": 5166,
      "Ġinsolent": 5167,
      "Ġinsensible": 5168,
      "Ġconsequently": 5169,
      "Ġfinish": 5170,
      "Ġremiss": 5171,
      "Ġproceeding": 5172,
      "zement": 5173,
      "Ġmodel": 5174,
      "Ġproducing": 5175,
      "Ġtendency": 5176,
      "Ġirish": 5177,
      "Ġrelated": 5178,
      "Ġrelations": 5179,
      "Ġvalued": 5180,
      "Ġintelligent": 5181,
      "Ġforest": 5182,
      "Ġformal": 5183,
      "Ġoccupation": 5184,
      "Ġinferred": 5185,
      "Ġbelonging": 5186,
      "Ġproofs": 5187,
      "Ġdelays": 5188,
      "Ġblinded": 5189,
      "Ġconcealing": 5190,
      "Ġdenied": 5191,
      "Ġunpardon": 5192,
      "Ġindulged": 5193,
      "Ġindulging": 5194,
      "Ġscrupulous": 5195,
      "Ġconfessing": 5196,
      "Ġconfession": 5197,
      "Ġrunning": 5198,
      "Ġcomprehension": 5199,
      "Ġmidsum": 5200,
      "Ġprovide": 5201,
      "Ġspeeches": 5202,
      "Ġavoided": 5203,
      "Ġdriving": 5204,
      "Ġconcluded": 5205,
      "Ġconcluding": 5206,
      "Ġvaried": 5207,
      "Ġexclaiming": 5208,
      "Ġendeavoured": 5209,
      "Ġtouched": 5210,
      "Ġseparation": 5211,
      "Ġentreated": 5212,
      "Ġrepeatedly": 5213,
      "Ġdestined": 5214,
      "Ġreproof": 5215,
      "Ġdirections": 5216,
      "Ġprivations": 5217,
      "Ġquarrelled": 5218,
      "Ġinjured": 5219,
      "Ġinjustice": 5220,
      "Ġpreparatory": 5221,
      "Ġattendance": 5222,
      "Ġnephews": 5223,
      "Ġhesitate": 5224,
      "Ġstriking": 5225,
      "Ġcontrive": 5226,
      "Ġclearness": 5227,
      "Ġprofession": 5228,
      "Ġcompassionate": 5229,
      "Ġinequality": 5230,
      "Ġinconvenient": 5231,
      "Ġstrengthened": 5232,
      "Ġsickly": 5233,
      "Ġdepart": 5234,
      "Ġstairs": 5235,
      "Ġhappening": 5236,
      "Ġimproved": 5237,
      "Ġmaterially": 5238,
      "Ġunexpected": 5239,
      "Ġinquiring": 5240,
      "Ġannouncing": 5241,
      "Ġnaivete": 5242,
      "Ġmeasles": 5243,
      "Ġfamiliar": 5244,
      "Ġadditional": 5245,
      "Ġtrifle": 5246,
      "nature": 5247,
      "Ġamazed": 5248,
      "Ġamazement": 5249,
      "Ġsignific": 5250,
      "Ġdivided": 5251,
      "Ġpupp": 5252,
      "Ġdevot": 5253,
      "Ġpositive": 5254,
      "Ġcooler": 5255,
      "Ġapparently": 5256,
      "Ġflattery": 5257,
      "Ġflattering": 5258,
      "Ġcollecting": 5259,
      "Ġignorance": 5260,
      "Ġmoderately": 5261,
      "Ġvexed": 5262,
      "Ġbasin": 5263,
      "Ġcrit": 5264,
      "Ġcrisis": 5265,
      "Ġgraceful": 5266,
      "Ġinducement": 5267,
      "Ġerrors": 5268,
      "knightley": 5269,
      "Ġcordially": 5270,
      "Ġlatest": 5271,
      "Ġreaching": 5272,
      "Ġsteadiness": 5273,
      "Ġaccordingly": 5274,
      "Ġcomplaints": 5275,
      "Ġprompted": 5276,
      "Ġprevail": 5277,
      "Ġirritation": 5278,
      "Ġtranquil": 5279,
      "Ġanticipation": 5280,
      "Ġunwillingness": 5281,
      "Ġingrat": 5282,
      "Ġgaiety": 5283,
      "Ġprocure": 5284,
      "Ġpreserved": 5285,
      "Ġaccompanied": 5286,
      "Ġmaintain": 5287,
      "Ġmaintained": 5288,
      "Ġpunishment": 5289,
      "Ġcontempt": 5290,
      "Ġuncommon": 5291,
      "Ġunlikely": 5292,
      "Ġrecovering": 5293,
      "Ġgraciously": 5294,
      "Ġdiscoveries": 5295,
      "Ġselfishness": 5296,
      "Ġwitnessed": 5297,
      "Ġwhispering": 5298,
      "Ġfatigued": 5299,
      "Ġperplexity": 5300,
      "Ġdecember": 5301,
      "Ġconjectures": 5302,
      "Ġperturbation": 5303,
      "Ġperseverance": 5304,
      "Ġdissip": 5305,
      "Ġparents": 5306,
      "Ġboasted": 5307,
      "Ġpursuit": 5308,
      "Ġluxury": 5309,
      "Ġpushed": 5310,
      "Ġthreatened": 5311,
      "Ġmisconduct": 5312,
      "Ġalertness": 5313,
      "Ġspoiled": 5314,
      "Ġoverpowered": 5315,
      "Ġsurmise": 5316,
      "Ġdegradation": 5317,
      "cerity": 5318,
      "Ġastley": 5319,
      "Ġsincerity": 5320,
      "Ġfireside": 5321,
      "Ġperpetual": 5322,
      "Ġshark": 5323,
      "Ġsubdued": 5324,
      "Ġcheeks": 5325,
      "Ġwelcomed": 5326,
      "Ġinevitable": 5327,
      "Ġbenevolence": 5328,
      "Ġamazing": 5329,
      "Ġeligible": 5330,
      "Ġmisunderstandings": 5331,
      "woman": 5332,
      "Ġamends": 5333,
      "Ġswisser": 5334,
      "Ġoperation": 5335,
      "Ġdwelt": 5336,
      "Ġgeorge": 5337,
      "Ġdeficiency": 5338,
      "Ġexperience": 5339,
      "Ġexultation": 5340,
      "Ġquantity": 5341,
      "Ġvoices": 5342,
      "Ġvigor": 5343,
      "Ġunlucky": 5344,
      "Ġuniversally": 5345,
      "Ġadopt": 5346,
      "Ġribbon": 5347,
      "Ġsurrounded": 5348,
      "Ġsolicitous": 5349,
      "Ġapprehensive": 5350,
      "Ġkingdom": 5351,
      "Ġpopularity": 5352,
      "Ġvouchs": 5353,
      "gammon": 5354,
      "nodding": 5355,
      "Ġzeal": 5356,
      "Ġarose": 5357,
      "Ġsanction": 5358,
      "Ġwondered": 5359,
      "Ġwicked": 5360,
      "Ġoctober": 5361,
      "Ġfidget": 5362,
      "Ġremonst": 5363,
      "Ġreluct": 5364,
      "Ġreappe": 5365,
      "Ġwelfare": 5366,
      "Ġupper": 5367,
      "Ġconundrum": 5368,
      "Ġextensive": 5369,
      "Ġalphabet": 5370,
      "Ġunaffected": 5371,
      "Ġsposo": 5372,
      "Ġsubsequent": 5373,
      "Ġindubitable": 5374,
      "Ġglimpse": 5375,
      "Ġhumiliation": 5376,
      "Ġmidsummer": 5377,
      "Ġswisserland": 5378,
      ":'": 5379,
      "ais": 5380,
      "ale": 5381,
      "app": 5382,
      "afe": 5383,
      "ament": 5384,
      "actly": 5385,
      "boy": 5386,
      "bye": 5387,
      "bread": 5388,
      "cher": 5389,
      "cal": 5390,
      "cation": 5391,
      "col": 5392,
      "cies": 5393,
      "count": 5394,
      "cerned": 5395,
      "den": 5396,
      "des": 5397,
      "dent": 5398,
      "dious": 5399,
      "dling": 5400,
      "door": 5401,
      "ef": 5402,
      "eur": 5403,
      "ff": 5404,
      "fted": 5405,
      "gate": 5406,
      "gged": 5407,
      "him": 5408,
      "hic": 5409,
      "house": 5410,
      "iation": 5411,
      "ips": 5412,
      "iction": 5413,
      "ivering": 5414,
      "john": 5415,
      "mu": 5416,
      "may": 5417,
      "might": 5418,
      "mind": 5419,
      "mitting": 5420,
      "net": 5421,
      "ost": 5422,
      "press": 5423,
      "pret": 5424,
      "path": 5425,
      "priety": 5426,
      "rant": 5427,
      "rather": 5428,
      "rity": 5429,
      "rances": 5430,
      "spe": 5431,
      "sue": 5432,
      "saw": 5433,
      "tle": 5434,
      "tom": 5435,
      "take": 5436,
      "tily": 5437,
      "uation": 5438,
      "uine": 5439,
      "vent": 5440,
      "vance": 5441,
      "vity": 5442,
      "vag": 5443,
      "yer": 5444,
      "Ġ&": 5445,
      "Ġver": 5446,
      "Ġ.\"": 5447,
      "Ġtest": 5448,
      "Ġach": 5449,
      "Ġaid": 5450,
      "Ġade": 5451,
      "Ġaye": 5452,
      "inct": 5453,
      "infor": 5454,
      "Ġsne": 5455,
      "Ġsang": 5456,
      "Ġsins": 5457,
      "Ġwar": 5458,
      "Ġwand": 5459,
      "Ġwild": 5460,
      "Ġmour": 5461,
      "rew": 5462,
      "rell": 5463,
      "rees": 5464,
      "reci": 5465,
      "recy": 5466,
      "Ġox": 5467,
      "Ġodious": 5468,
      "had": 5469,
      "Ġbon": 5470,
      "Ġble": 5471,
      "Ġbot": 5472,
      "Ġburn": 5473,
      "Ġbond": 5474,
      "Ġbick": 5475,
      "Ġbili": 5476,
      "Ġbowed": 5477,
      "Ġiv": 5478,
      "Ġix": 5479,
      "erton": 5480,
      "Ġcent": 5481,
      "Ġcake": 5482,
      "Ġcast": 5483,
      "Ġcough": 5484,
      "Ġcured": 5485,
      "Ġcult": 5486,
      "Ġcustom": 5487,
      "Ġtop": 5488,
      "Ġfly": 5489,
      "Ġfood": 5490,
      "Ġfif": 5491,
      "Ġfield": 5492,
      "Ġfaint": 5493,
      "Ġfinger": 5494,
      "Ġheir": 5495,
      "Ġheated": 5496,
      "Ġnine": 5497,
      "Ġnorth": 5498,
      "Ġnarr": 5499,
      "Ġnaming": 5500,
      "Ġder": 5501,
      "Ġdent": 5502,
      "Ġdul": 5503,
      "Ġdrove": 5504,
      "Ġdial": 5505,
      "Ġdarted": 5506,
      "Ġbeat": 5507,
      "lls": 5508,
      "isy": 5509,
      "iser": 5510,
      "isions": 5511,
      "itly": 5512,
      "itate": 5513,
      "itche": 5514,
      "itality": 5515,
      "Ġpul": 5516,
      "Ġport": 5517,
      "Ġpack": 5518,
      "Ġpang": 5519,
      "Ġprudent": 5520,
      "leg": 5521,
      "ashes": 5522,
      "Ġhit": 5523,
      "Ġhom": 5524,
      "Ġhind": 5525,
      "Ġhol": 5526,
      "Ġhumph": 5527,
      "Ġhug": 5528,
      "oration": 5529,
      "orable": 5530,
      "orily": 5531,
      "Ġinch": 5532,
      "Ġinim": 5533,
      "Ġinno": 5534,
      "Ġnovel": 5535,
      "any": 5536,
      "anter": 5537,
      "arch": 5538,
      "atively": 5539,
      "omer": 5540,
      "Ġyell": 5541,
      "vert": 5542,
      "verty": 5543,
      "Ġgame": 5544,
      "Ġlod": 5545,
      "Ġliter": 5546,
      "Ġnoticing": 5547,
      "ste": 5548,
      "start": 5549,
      "street": 5550,
      "Ġthirty": 5551,
      "utable": 5552,
      "Ġrev": 5553,
      "Ġreward": 5554,
      "Ġrefer": 5555,
      "ril": 5556,
      "rim": 5557,
      "riend": 5558,
      "ential": 5559,
      "Ġaspar": 5560,
      "Ġascertain": 5561,
      "Ġforlor": 5562,
      "Ġforbid": 5563,
      "Ġsuits": 5564,
      "Ġanne": 5565,
      "iday": 5566,
      "idity": 5567,
      "Ġwithdra": 5568,
      "iring": 5569,
      "cted": 5570,
      "ctions": 5571,
      "Ġsold": 5572,
      "Ġumb": 5573,
      "odig": 5574,
      "als": 5575,
      "always": 5576,
      "Ġkings": 5577,
      "Ġmult": 5578,
      "adable": 5579,
      "ightforward": 5580,
      "Ġalloy": 5581,
      "Ġallusion": 5582,
      "Ġknock": 5583,
      "robation": 5584,
      "rogance": 5585,
      "Ġmemor": 5586,
      "Ġdead": 5587,
      "Ġdefe": 5588,
      "Ġdemand": 5589,
      "Ġdeceive": 5590,
      "quate": 5591,
      "quite": 5592,
      "Ġsees": 5593,
      "Ġsevent": 5594,
      "Ġconfer": 5595,
      "Ġconceived": 5596,
      "Ġdoating": 5597,
      "Ġcomb": 5598,
      "lful": 5599,
      "Ġstom": 5600,
      "Ġstout": 5601,
      "Ġstorm": 5602,
      "Ġstarted": 5603,
      "Ġexulting": 5604,
      "Ġexec": 5605,
      "icable": 5606,
      "ically": 5607,
      "ician": 5608,
      "ulation": 5609,
      "Ġfee": 5610,
      "Ġloin": 5611,
      "Ġlovers": 5612,
      "Ġlocal": 5613,
      "hant": 5614,
      "Ġmissing": 5615,
      "antation": 5616,
      "Ġfame": 5617,
      "Ġfaces": 5618,
      "Ġpercei": 5619,
      "Ġperman": 5620,
      "Ġalive": 5621,
      "Ġalac": 5622,
      "Ġshift": 5623,
      "Ġorn": 5624,
      "liation": 5625,
      "liven": 5626,
      "lihood": 5627,
      "Ġlie": 5628,
      "oked": 5629,
      "Ġva": 5630,
      "Ġvill": 5631,
      "tell": 5632,
      "Ġdisord": 5633,
      "Ġeverywhere": 5634,
      "Ġpreced": 5635,
      "Ġenerg": 5636,
      "Ġenliven": 5637,
      "Ġung": 5638,
      "Ġunite": 5639,
      "Ġunac": 5640,
      "Ġunnot": 5641,
      "Ġunnat": 5642,
      "Ġabilities": 5643,
      "Ġprol": 5644,
      "Ġprose": 5645,
      "Ġproject": 5646,
      "Ġpondered": 5647,
      "Ġpoverty": 5648,
      "Ġshoulders": 5649,
      "Ġlittleness": 5650,
      "Ġrom": 5651,
      "Ġrout": 5652,
      "Ġrus": 5653,
      "Ġrough": 5654,
      "Ġrum": 5655,
      "Ġrub": 5656,
      "Ġrode": 5657,
      "Ġbeings": 5658,
      "ifully": 5659,
      "Ġupstart": 5660,
      "Ġpartridge": 5661,
      "Ġcovered": 5662,
      "Ġcoarse": 5663,
      "usable": 5664,
      "Ġfriday": 5665,
      "Ġcomplying": 5666,
      "Ġworn": 5667,
      "unted": 5668,
      "Ġfriendliness": 5669,
      "ndering": 5670,
      "Ġshad": 5671,
      "Ġshaking": 5672,
      "ieces": 5673,
      "Ġsple": 5674,
      "Ġsport": 5675,
      "Ġada": 5676,
      "Ġpleases": 5677,
      "Ġpleasanter": 5678,
      "Ġobst": 5679,
      "Ġobsc": 5680,
      "Ġfairy": 5681,
      "acing": 5682,
      "rust": 5683,
      "Ġwisest": 5684,
      "Ġconsist": 5685,
      "pless": 5686,
      "plete": 5687,
      "Ġlongest": 5688,
      "Ġspec": 5689,
      "those": 5690,
      "three": 5691,
      "Ġattri": 5692,
      "Ġattitude": 5693,
      "Ġsurely": 5694,
      "jection": 5695,
      "Ġtalkative": 5696,
      "Ġmarking": 5697,
      "Ġimped": 5698,
      "Ġimpart": 5699,
      "Ġimpud": 5700,
      "Ġimpressed": 5701,
      "Ġimprudence": 5702,
      "Ġriver": 5703,
      "Ġrichard": 5704,
      "Ġoverlo": 5705,
      "Ġapril": 5706,
      "comb": 5707,
      "coming": 5708,
      "were": 5709,
      "ounted": 5710,
      "Ġprodig": 5711,
      "Ġdelusion": 5712,
      "cked": 5713,
      "Ġarch": 5714,
      "Ġarrogance": 5715,
      "Ġhereaf": 5716,
      "Ġbelieving": 5717,
      "Ġsubmiss": 5718,
      "Ġsubmission": 5719,
      "Ġsubmit": 5720,
      "Ġoffices": 5721,
      "Ġassent": 5722,
      "Ġkindest": 5723,
      "Ġapplied": 5724,
      "Ġpasses": 5725,
      "Ġretract": 5726,
      "agus": 5727,
      "ague": 5728,
      "Ġdoubly": 5729,
      "Ġloveliness": 5730,
      "Ġlasted": 5731,
      "arying": 5732,
      "Ġmoral": 5733,
      "Ġindiv": 5734,
      "Ġindust": 5735,
      "Ġgrant": 5736,
      "Ġcomforted": 5737,
      "Ġdistrust": 5738,
      "Ġblow": 5739,
      "Ġoblige": 5740,
      "Ġpresented": 5741,
      "Ġacquire": 5742,
      "Ġacquired": 5743,
      "amation": 5744,
      "ildered": 5745,
      "Ġcaring": 5746,
      "Ġregularly": 5747,
      "Ġconsiderate": 5748,
      "Ġscold": 5749,
      "Ġscattered": 5750,
      "ceptions": 5751,
      "Ġclos": 5752,
      "Ġcloud": 5753,
      "Ġending": 5754,
      "Ġgenuine": 5755,
      "Ġserle": 5756,
      "Ġserve": 5757,
      "Ġglass": 5758,
      "Ġgloom": 5759,
      "Ġallowances": 5760,
      "Ġunderstands": 5761,
      "Ġchanging": 5762,
      "Ġdealing": 5763,
      "sery": 5764,
      "Ġtruer": 5765,
      "Ġfoundation": 5766,
      "Ġrecent": 5767,
      "Ġrecall": 5768,
      "Ġfamous": 5769,
      "Ġgentleness": 5770,
      "Ġasks": 5771,
      "Ġsecres": 5772,
      "Ġsecuring": 5773,
      "Ġsecrecy": 5774,
      "Ġspirited": 5775,
      "Ġinstances": 5776,
      "Ġadvoc": 5777,
      "Ġadvanced": 5778,
      "ircase": 5779,
      "Ġstring": 5780,
      "Ġhardship": 5781,
      "Ġaffectedly": 5782,
      "month": 5783,
      "Ġrefined": 5784,
      "Ġrefinement": 5785,
      "Ġinvent": 5786,
      "ouragement": 5787,
      "Ġperrys": 5788,
      "Ġbroke": 5789,
      "Ġbroken": 5790,
      "Ġopenness": 5791,
      "Ġrestlessness": 5792,
      "Ġlesson": 5793,
      "nobody": 5794,
      "Ġinfant": 5795,
      "Ġprettily": 5796,
      "Ġjudicious": 5797,
      "Ġcomplais": 5798,
      "Ġbegins": 5799,
      "Ġseemingly": 5800,
      "racted": 5801,
      "Ġcarefully": 5802,
      "Ġwonders": 5803,
      "dding": 5804,
      "Ġbackgammon": 5805,
      "Ġprominent": 5806,
      "Ġactual": 5807,
      "Ġguilt": 5808,
      "Ġdetected": 5809,
      "Ġdetail": 5810,
      "ivoc": 5811,
      "Ġreasonings": 5812,
      "Ġhandsomest": 5813,
      "Ġdecor": 5814,
      "Ġsmaller": 5815,
      "Ġpropriet": 5816,
      "Ġproposition": 5817,
      "aimed": 5818,
      "Ġappropri": 5819,
      "Ġclearly": 5820,
      "Ġclevere": 5821,
      "Ġclearer": 5822,
      "Ġcompleted": 5823,
      "Ġflour": 5824,
      "Ġflatte": 5825,
      "Ġsentences": 5826,
      "Ġexcite": 5827,
      "Ġexcused": 5828,
      "Ġbeauties": 5829,
      "Ġbeautifully": 5830,
      "Ġfeelingly": 5831,
      "Ġshews": 5832,
      "Ġthanking": 5833,
      "Ġairs": 5834,
      "Ġairy": 5835,
      "Ġbearing": 5836,
      "Ġencumb": 5837,
      "Ġinterfere": 5838,
      "Ġamongst": 5839,
      "Ġpleasantest": 5840,
      "Ġgladly": 5841,
      "Ġdiscern": 5842,
      "Ġdiscerned": 5843,
      "Ġgratify": 5844,
      "Ġdraws": 5845,
      "Ġsilenced": 5846,
      "Ġdependent": 5847,
      "Ġfuller": 5848,
      "Ġpurse": 5849,
      "Ġplayfulness": 5850,
      "papa": 5851,
      "Ġeasier": 5852,
      "Ġhumanity": 5853,
      "Ġconversable": 5854,
      "Ġmonarch": 5855,
      "Ġquickest": 5856,
      "ension": 5857,
      "ensable": 5858,
      "Ġdancer": 5859,
      "Ġmusing": 5860,
      "Ġelegancies": 5861,
      "Ġcondes": 5862,
      "Ġhelped": 5863,
      "cribed": 5864,
      "Ġnights": 5865,
      "Ġpatron": 5866,
      "ieties": 5867,
      "success": 5868,
      "suadable": 5869,
      "Ġtrivial": 5870,
      "Ġattentively": 5871,
      "Ġencourage": 5872,
      "Ġbehave": 5873,
      "Ġbehaving": 5874,
      "Ġexplained": 5875,
      "Ġincluding": 5876,
      "Ġcommonplace": 5877,
      "Ġplanning": 5878,
      "Ġoccasional": 5879,
      "Ġconvincing": 5880,
      "Ġwatering": 5881,
      "Ġrecollecting": 5882,
      "Ġrecollected": 5883,
      "Ġfold": 5884,
      "Ġhealthy": 5885,
      "Ġeff": 5886,
      "Ġinsens": 5887,
      "Ġslightly": 5888,
      "Ġmercy": 5889,
      "Ġbread": 5890,
      "Ġarrange": 5891,
      "Ġoccurrence": 5892,
      "Ġgrandeur": 5893,
      "Ġconstancy": 5894,
      "Ġassisting": 5895,
      "Ġbrief": 5896,
      "Ġcurious": 5897,
      "Ġexcluded": 5898,
      "Ġexclamation": 5899,
      "Ġadmiring": 5900,
      "Ġadmirable": 5901,
      "Ġoddest": 5902,
      "Ġestate": 5903,
      "Ġplacing": 5904,
      "Ġcommunicate": 5905,
      "Ġcommunicative": 5906,
      "Ġdisagreement": 5907,
      "Ġtende": 5908,
      "Ġsadly": 5909,
      "Ġxi": 5910,
      "Ġxv": 5911,
      "Ġxiv": 5912,
      "Ġtolerate": 5913,
      "Ġforesaw": 5914,
      "Ġformidable": 5915,
      "Ġextravag": 5916,
      "Ġevents": 5917,
      "Ġbreaking": 5918,
      "Ġmiserably": 5919,
      "Ġeffectually": 5920,
      "Ġremoving": 5921,
      "Ġsends": 5922,
      "Ġjoyous": 5923,
      "Ġjoyful": 5924,
      "Ġdelayed": 5925,
      "Ġdenial": 5926,
      "Ġdenote": 5927,
      "Ġduties": 5928,
      "Ġundes": 5929,
      "Ġstept": 5930,
      "Ġenjoyments": 5931,
      "Ġbehold": 5932,
      "Ġcomprehending": 5933,
      "ogue": 5934,
      "Ġprovision": 5935,
      "Ġprovoked": 5936,
      "Ġluckiest": 5937,
      "Ġearnestness": 5938,
      "Ġtrees": 5939,
      "Ġsnowing": 5940,
      "Ġborrow": 5941,
      "Ġventuring": 5942,
      "ticoat": 5943,
      "Ġseparated": 5944,
      "Ġrules": 5945,
      "Ġaddresses": 5946,
      "Ġremarkable": 5947,
      "Ġeducated": 5948,
      "Ġgrieve": 5949,
      "beds": 5950,
      "Ġjob": 5951,
      "Ġtrusting": 5952,
      "Ġquarrelling": 5953,
      "Ġnumerous": 5954,
      "Ġinjury": 5955,
      "Ġinjunction": 5956,
      "Ġpreparations": 5957,
      "Ġentertained": 5958,
      "Ġapprehend": 5959,
      "Ġapprehended": 5960,
      "Ġtotal": 5961,
      "Ġeaten": 5962,
      "Ġstrict": 5963,
      "Ġstrikes": 5964,
      "Ġcoxcomb": 5965,
      "Ġcontribut": 5966,
      "ĠĠĠĠĠĠĠĠĠĠĠ": 5967,
      "Ġendeavouring": 5968,
      "Ġfreshness": 5969,
      "Ġrelieve": 5970,
      "Ġexcessive": 5971,
      "Ġfavourably": 5972,
      "Ġcourtes": 5973,
      "Ġexplanations": 5974,
      "Ġremaining": 5975,
      "Ġfooting": 5976,
      "Ġfootpath": 5977,
      "Ġskin": 5978,
      "Ġsounds": 5979,
      "Ġbeneath": 5980,
      "Ġconnect": 5981,
      "Ġharmless": 5982,
      "Ġstaircase": 5983,
      "Ġpapers": 5984,
      "Ġaccomplishment": 5985,
      "Ġsuccessful": 5986,
      "Ġperformer": 5987,
      "Ġshameful": 5988,
      "Ġshamefully": 5989,
      "Ġhumourist": 5990,
      "Ġdeclares": 5991,
      "Ġtransition": 5992,
      "Ġsignify": 5993,
      "Ġmutton": 5994,
      "Ġmutually": 5995,
      "Ġdivision": 5996,
      "Ġdivisions": 5997,
      "Ġpractice": 5998,
      "Ġpractise": 5999,
      "Ġpractised": 6000,
      "Ġpracticable": 6001,
      "Ġanimating": 6002,
      "Ġsoftness": 6003,
      "Ġdevice": 6004,
      "Ġsafest": 6005,
      "whoever": 6006,
      "Ġcalmly": 6007,
      "Ġselves": 6008,
      "Ġsacrific": 6009,
      "Ġstraightforward": 6010,
      "Ġcapital": 6011,
      "Ġproposals": 6012,
      "Ġunreasonably": 6013,
      "judging": 6014,
      "Ġcromer": 6015,
      "Ġphys": 6016,
      "Ġlouder": 6017,
      "Ġloudly": 6018,
      "Ġwhispered": 6019,
      "Ġvolume": 6020,
      "Ġcandles": 6021,
      "Ġsupplying": 6022,
      "Ġrapidity": 6023,
      "Ġillnesses": 6024,
      "Ġreflected": 6025,
      "Ġneglecting": 6026,
      "Ġneglected": 6027,
      "Ġmedi": 6028,
      "Ġowing": 6029,
      "Ġowes": 6030,
      "Ġsofter": 6031,
      "Ġpossessed": 6032,
      "Ġdistinguished": 6033,
      "Ġinvolunt": 6034,
      "Ġchecked": 6035,
      "Ġparcels": 6036,
      "Ġceremonious": 6037,
      "Ġirritated": 6038,
      "Ġunnecessarily": 6039,
      "exactly": 6040,
      "Ġterri": 6041,
      "Ġhazle": 6042,
      "Ġgaze": 6043,
      "Ġtwelvemonth": 6044,
      "Ġmarked": 6045,
      "Ġpreserve": 6046,
      "Ġblameless": 6047,
      "Ġconfirmation": 6048,
      "Ġrestrain": 6049,
      "Ġlawyer": 6050,
      "Ġaccompany": 6051,
      "Ġsmoothness": 6052,
      "Ġindisposed": 6053,
      "Ġindispensable": 6054,
      "Ġostensible": 6055,
      "Ġbuild": 6056,
      "Ġcotton": 6057,
      "Ġoffend": 6058,
      "Ġhonestly": 6059,
      "Ġxvii": 6060,
      "Ġxviii": 6061,
      "Ġperplexities": 6062,
      "boarder": 6063,
      "between": 6064,
      "Ġbreath": 6065,
      "Ġbreathe": 6066,
      "Ġnursed": 6067,
      "Ġnursery": 6068,
      "Ġlimited": 6069,
      "Ġrenewed": 6070,
      "Ġrenewal": 6071,
      "Ġconjecture": 6072,
      "Ġexamining": 6073,
      "Ġdisincl": 6074,
      "Ġrepresenting": 6075,
      "Ġrepresentation": 6076,
      "Ġguarded": 6077,
      "Ġluxurious": 6078,
      "Ġprosperity": 6079,
      "Ġcorrespondent": 6080,
      "Ġvoluntary": 6081,
      "rers": 6082,
      "Ġdropt": 6083,
      "Ġmiscon": 6084,
      "Ġunfeeling": 6085,
      "abouts": 6086,
      "Ġoverpower": 6087,
      "Ġapplication": 6088,
      "Ġapplications": 6089,
      "Ġexpediency": 6090,
      "Ġdegrading": 6091,
      "Ġreminded": 6092,
      "Ġesteem": 6093,
      "Ġesteemed": 6094,
      "Ġestimation": 6095,
      "Ġhesitatingly": 6096,
      "Ġpuzzled": 6097,
      "draper": 6098,
      "Ġaverting": 6099,
      "Ġwallis": 6100,
      "Ġtopics": 6101,
      "Ġbewit": 6102,
      "Ġbewildered": 6103,
      "Ġbella": 6104,
      "Ġhungry": 6105,
      "Ġincommod": 6106,
      "Ġsolitude": 6107,
      "Ġdeliber": 6108,
      "Ġviii": 6109,
      "Ġunpersuadable": 6110,
      "Ġcaptain": 6111,
      "Ġoverhearing": 6112,
      "Ġpronounced": 6113,
      "Ġassociate": 6114,
      "Ġaccidental": 6115,
      "Ġintellectual": 6116,
      "Ġxiii": 6117,
      "Ġcalculated": 6118,
      "Ġcontradict": 6119,
      "Ġcontradiction": 6120,
      "Ġrejoiced": 6121,
      "Ġaugusta": 6122,
      "Ġfalsehood": 6123,
      "Ġreckoned": 6124,
      "contre": 6125,
      "Ġsoul": 6126,
      "Ġsalary": 6127,
      "Ġwidow": 6128,
      "Ġwrapt": 6129,
      "Ġmagn": 6130,
      "Ġfrozen": 6131,
      "Ġfreedom": 6132,
      "Ġpredict": 6133,
      "Ġinfection": 6134,
      "Ġrencontre": 6135,
      "Ġdemure": 6136,
      "Ġdeplorable": 6137,
      "Ġemotion": 6138,
      "Ġvirtue": 6139,
      "Ġdisclosure": 6140,
      "Ġdisgraced": 6141,
      "Ġunseen": 6142,
      "Ġcaprice": 6143,
      "Ġrousing": 6144,
      "Ġcopied": 6145,
      "Ġentitled": 6146,
      "Ġsurpr": 6147,
      "Ġstooping": 6148,
      "Ġelevation": 6149,
      "Ġcounteract": 6150,
      "Ġunpretending": 6151,
      "Ġtreasure": 6152,
      "Ġinexpress": 6153,
      "Ġsketch": 6154,
      "Ġreconciliation": 6155,
      "Ġpunctually": 6156,
      "Ġpalpably": 6157,
      "shall": 6158,
      "sighted": 6159,
      "trade": 6160,
      "time": 6161,
      "Ġtidings": 6162,
      "Ġslice": 6163,
      "Ġhanging": 6164,
      "Ġpetticoat": 6165,
      "Ġessential": 6166,
      "Ġhospitality": 6167,
      "Ġrevived": 6168,
      "Ġreigns": 6169,
      "Ġsoothing": 6170,
      "Ġsolitary": 6171,
      "Ġsaucy": 6172,
      "Ġdissuade": 6173,
      "Ġunsuitable": 6174,
      "Ġcompetent": 6175,
      "Ġarrowroot": 6176,
      "Ġdesperate": 6177,
      "Ġblockhead": 6178,
      "Ġteachers": 6179,
      "Ġcomplacency": 6180,
      "Ġdonkey": 6181,
      "Ġdisappearance": 6182,
      "Ġsimilar": 6183,
      "Ġunpardonable": 6184,
      "Ġdeparture": 6185,
      "Ġpuppy": 6186,
      "Ġingratitude": 6187,
      "Ġcontemptible": 6188,
      "Ġvigorously": 6189,
      "Ġwickedness": 6190,
      "Ġreluctance": 6191,
      "Ġreappeared": 6192,
      "countable": 6193,
      "much": 6194,
      "minded": 6195,
      "speaking": 6196,
      "Ġachie": 6197,
      "informed": 6198,
      "Ġbonnet": 6199,
      "Ġbottom": 6200,
      "Ġbickerton": 6201,
      "Ġbilious": 6202,
      "Ġcentre": 6203,
      "Ġfifty": 6204,
      "Ġdentist": 6205,
      "Ġdulness": 6206,
      "Ġhomes": 6207,
      "Ġholiday": 6208,
      "Ġhughes": 6209,
      "Ġinimitable": 6210,
      "Ġinnoc": 6211,
      "Ġyellow": 6212,
      "Ġasparagus": 6213,
      "Ġforlorn": 6214,
      "Ġwithdrawn": 6215,
      "Ġumbrell": 6216,
      "Ġseventeen": 6217,
      "Ġperceiving": 6218,
      "Ġalacrity": 6219,
      "Ġdisorder": 6220,
      "Ġenergy": 6221,
      "Ġunaccountable": 6222,
      "Ġunnoticed": 6223,
      "Ġunnatural": 6224,
      "Ġobscurity": 6225,
      "Ġoverlook": 6226,
      "Ġhereafter": 6227,
      "Ġindivid": 6228,
      "Ġsecresy": 6229,
      "Ġadvocate": 6230,
      "Ġcleverer": 6231,
      "Ġencumbrance": 6232,
      "10": 6233,
      "aid": 6234,
      "aide": 6235,
      "ailed": 6236,
      "ailing": 6237,
      "bin": 6238,
      "bre": 6239,
      "bat": 6240,
      "bod": 6241,
      "bro": 6242,
      "bable": 6243,
      "brow": 6244,
      "bition": 6245,
      "bility": 6246,
      "bating": 6247,
      "breed": 6248,
      "cu": 6249,
      "con": 6250,
      "cot": 6251,
      "care": 6252,
      "cuse": 6253,
      "cue": 6254,
      "cause": 6255,
      "chest": 6256,
      "cension": 6257,
      "dy": 6258,
      "dump": 6259,
      "dges": 6260,
      "eg": 6261,
      "every": 6262,
      "elf": 6263,
      "eel": 6264,
      "emy": 6265,
      "emption": 6266,
      "eleg": 6267,
      "ffe": 6268,
      "five": 6269,
      "fied": 6270,
      "full": 6271,
      "farm": 6272,
      "ford": 6273,
      "fited": 6274,
      "ffic": 6275,
      "fashion": 6276,
      "friend": 6277,
      "gl": 6278,
      "go": 6279,
      "gs": 6280,
      "gur": 6281,
      "gain": 6282,
      "grown": 6283,
      "gular": 6284,
      "gency": 6285,
      "hib": 6286,
      "iz": 6287,
      "ipp": 6288,
      "ius": 6289,
      "iating": 6290,
      "ipped": 6291,
      "iences": 6292,
      "jar": 6293,
      "jug": 6294,
      "ks": 6295,
      "ked": 6296,
      "lin": 6297,
      "lar": 6298,
      "low": 6299,
      "lim": 6300,
      "lite": 6301,
      "lau": 6302,
      "lashes": 6303,
      "laide": 6304,
      "ms": 6305,
      "min": 6306,
      "mith": 6307,
      "must": 6308,
      "mming": 6309,
      "mense": 6310,
      "master": 6311,
      "nn": 6312,
      "nut": 6313,
      "nic": 6314,
      "nful": 6315,
      "nings": 6316,
      "ops": 6317,
      "ph": 6318,
      "pas": 6319,
      "pent": 6320,
      "pared": 6321,
      "pired": 6322,
      "piece": 6323,
      "powered": 6324,
      "rm": 6325,
      "rained": 6326,
      "sion": 6327,
      "sal": 6328,
      "spect": 6329,
      "somet": 6330,
      "sued": 6331,
      "tc": 6332,
      "ts": 6333,
      "tz": 6334,
      "tis": 6335,
      "till": 6336,
      "tart": 6337,
      "tive": 6338,
      "tty": 6339,
      "taken": 6340,
      "taking": 6341,
      "trim": 6342,
      "ule": 6343,
      "uly": 6344,
      "uce": 6345,
      "uance": 6346,
      "uity": 6347,
      "uations": 6348,
      "umption": 6349,
      "vis": 6350,
      "vil": 6351,
      "vice": 6352,
      "vances": 6353,
      "view": 6354,
      "vourable": 6355,
      "wa": 6356,
      "wor": 6357,
      "wood": 6358,
      "wife": 6359,
      "xter": 6360,
      "za": 6361,
      "Ġ,": 6362,
      "Ġ[": 6363,
      "Ġvers": 6364,
      "Ġ.'": 6365,
      "Ġ10": 6366,
      "Ġtour": 6367,
      "Ġtac": 6368,
      "Ġtup": 6369,
      "Ġtipp": 6370,
      "Ġaim": 6371,
      "Ġaven": 6372,
      "Ġaired": 6373,
      "Ġaud": 6374,
      "Ġajar": 6375,
      "hered": 6376,
      "heard": 6377,
      "hened": 6378,
      "hecked": 6379,
      "inu": 6380,
      "inen": 6381,
      "inate": 6382,
      "inity": 6383,
      "inced": 6384,
      "inition": 6385,
      "Ġston": 6386,
      "Ġsme": 6387,
      "Ġsig": 6388,
      "Ġsources": 6389,
      "Ġsashed": 6390,
      "Ġwin": 6391,
      "Ġwan": 6392,
      "Ġwitt": 6393,
      "Ġwore": 6394,
      "Ġwarr": 6395,
      "Ġwains": 6396,
      "Ġwitty": 6397,
      "Ġment": 6398,
      "Ġmant": 6399,
      "Ġmare": 6400,
      "Ġmount": 6401,
      "rec": 6402,
      "reen": 6403,
      "rely": 6404,
      "render": 6405,
      "ream": 6406,
      "regular": 6407,
      "Ġowe": 6408,
      "Ġomission": 6409,
      "haved": 6410,
      "haust": 6411,
      "oup": 6412,
      "oult": 6413,
      "Ġba": 6414,
      "Ġbis": 6415,
      "Ġban": 6416,
      "Ġbent": 6417,
      "Ġbred": 6418,
      "Ġband": 6419,
      "Ġbount": 6420,
      "erable": 6421,
      "erfect": 6422,
      "nds": 6423,
      "ndour": 6424,
      "Ġcher": 6425,
      "Ġcra": 6426,
      "Ġcart": 6427,
      "Ġcray": 6428,
      "Ġcases": 6429,
      "ony": 6430,
      "onlight": 6431,
      "Ġfle": 6432,
      "Ġfart": 6433,
      "Ġfles": 6434,
      "Ġfish": 6435,
      "Ġfres": 6436,
      "Ġfaster": 6437,
      "Ġfilled": 6438,
      "Ġfainted": 6439,
      "Ġflies": 6440,
      "Ġheal": 6441,
      "Ġhedge": 6442,
      "Ġhedges": 6443,
      "Ġhetty": 6444,
      "ingen": 6445,
      "edience": 6446,
      "Ġnieces": 6447,
      "Ġhat": 6448,
      "Ġhaut": 6449,
      "Ġhating": 6450,
      "Ġhann": 6451,
      "Ġdar": 6452,
      "Ġdess": 6453,
      "Ġdate": 6454,
      "Ġdies": 6455,
      "Ġdined": 6456,
      "Ġdust": 6457,
      "Ġdrown": 6458,
      "Ġdub": 6459,
      "Ġdedu": 6460,
      "Ġdict": 6461,
      "Ġdashed": 6462,
      "Ġdimens": 6463,
      "Ġbeau": 6464,
      "Ġbeam": 6465,
      "Ġbears": 6466,
      "Ġbearer": 6467,
      "Ġbefriend": 6468,
      "llor": 6469,
      "isen": 6470,
      "isable": 6471,
      "isper": 6472,
      "itim": 6473,
      "iture": 6474,
      "itably": 6475,
      "itute": 6476,
      "itating": 6477,
      "Ġpan": 6478,
      "Ġpom": 6479,
      "Ġpure": 6480,
      "Ġpage": 6481,
      "Ġpages": 6482,
      "Ġpoult": 6483,
      "Ġecc": 6484,
      "Ġetern": 6485,
      "Ġetc": 6486,
      "leave": 6487,
      "leep": 6488,
      "lelight": 6489,
      "asible": 6490,
      "Ġhy": 6491,
      "Ġhue": 6492,
      "ors": 6493,
      "ormed": 6494,
      "orious": 6495,
      "orary": 6496,
      "orned": 6497,
      "Ġinade": 6498,
      "Ġnod": 6499,
      "Ġnoisy": 6500,
      "ans": 6501,
      "anch": 6502,
      "another": 6503,
      "esse": 6504,
      "escri": 6505,
      "especially": 6506,
      "arian": 6507,
      "arls": 6508,
      "atis": 6509,
      "atious": 6510,
      "atible": 6511,
      "atives": 6512,
      "attle": 6513,
      "atuation": 6514,
      "omed": 6515,
      "omeness": 6516,
      "verie": 6517,
      "Ġgest": 6518,
      "Ġgross": 6519,
      "Ġgaining": 6520,
      "Ġlent": 6521,
      "Ġlame": 6522,
      "Ġlinen": 6523,
      "vement": 6524,
      "vealed": 6525,
      "Ġsheet": 6526,
      "Ġwaste": 6527,
      "ghing": 6528,
      "stood": 6529,
      "stru": 6530,
      "step": 6531,
      "stead": 6532,
      "stancy": 6533,
      "Ġthy": 6534,
      "Ġthri": 6535,
      "Ġthrew": 6536,
      "uting": 6537,
      "utions": 6538,
      "sellor": 6539,
      "Ġ\"`": 6540,
      "cending": 6541,
      "Ġreleas": 6542,
      "Ġreplete": 6543,
      "Ġreverie": 6544,
      "Ġrevealed": 6545,
      "rich": 6546,
      "riment": 6547,
      "rick": 6548,
      "riously": 6549,
      "entive": 6550,
      "entric": 6551,
      "Ġasper": 6552,
      "Ġasunder": 6553,
      "Ġaspired": 6554,
      "Ġasleep": 6555,
      "oward": 6556,
      "Ġforfe": 6557,
      "Ġforci": 6558,
      "Ġforwards": 6559,
      "etite": 6560,
      "Ġsung": 6561,
      "Ġsunday": 6562,
      "Ġant": 6563,
      "idant": 6564,
      "Ġweigh": 6565,
      "irm": 6566,
      "iration": 6567,
      "irth": 6568,
      "iriting": 6569,
      "cting": 6570,
      "Ġbutter": 6571,
      "Ġbutler": 6572,
      "Ġbutcher": 6573,
      "Ġate": 6574,
      "Ġatone": 6575,
      "Ġissue": 6576,
      "odies": 6577,
      "Ġkiss": 6578,
      "Ġkitty": 6579,
      "Ġkitche": 6580,
      "illing": 6581,
      "Ġmurm": 6582,
      "urs": 6583,
      "urous": 6584,
      "add": 6585,
      "ading": 6586,
      "aded": 6587,
      "Ġalluded": 6588,
      "Ġalluding": 6589,
      "Ġknitting": 6590,
      "roke": 6591,
      "robert": 6592,
      "rocation": 6593,
      "pelled": 6594,
      "Ġmeat": 6595,
      "terior": 6596,
      "Ġdeed": 6597,
      "Ġdema": 6598,
      "Ġdeference": 6599,
      "Ġdeem": 6600,
      "Ġdevo": 6601,
      "Ġdevel": 6602,
      "Ġdeeper": 6603,
      "Ġdexter": 6604,
      "Ġseize": 6605,
      "Ġseiz": 6606,
      "Ġconcess": 6607,
      "Ġconjug": 6608,
      "Ġdoct": 6609,
      "Ġdoated": 6610,
      "Ġmoves": 6611,
      "Ġmonday": 6612,
      "Ġmoonlight": 6613,
      "Ġsale": 6614,
      "Ġsaving": 6615,
      "Ġsack": 6616,
      "Ġharp": 6617,
      "Ġharsh": 6618,
      "Ġharmony": 6619,
      "Ġframe": 6620,
      "Ġfrown": 6621,
      "Ġframed": 6622,
      "ppery": 6623,
      "Ġstor": 6624,
      "Ġstim": 6625,
      "Ġstain": 6626,
      "Ġstake": 6627,
      "Ġstag": 6628,
      "Ġstip": 6629,
      "Ġstability": 6630,
      "aks": 6631,
      "Ġmisled": 6632,
      "Ġmisinter": 6633,
      "ession": 6634,
      "Ġexten": 6635,
      "Ġexemption": 6636,
      "Ġexhaust": 6637,
      "Ġexterior": 6638,
      "ics": 6639,
      "icer": 6640,
      "icated": 6641,
      "icities": 6642,
      "icism": 6643,
      "icule": 6644,
      "ulated": 6645,
      "felt": 6646,
      "Ġfeed": 6647,
      "Ġfeasible": 6648,
      "Ġlest": 6649,
      "Ġlect": 6650,
      "Ġleaning": 6651,
      "george": 6652,
      "Ġwillingly": 6653,
      "ants": 6654,
      "anty": 6655,
      "redible": 6656,
      "Ġamid": 6657,
      "Ġamity": 6658,
      "Ġamuses": 6659,
      "Ġamply": 6660,
      "Ġambition": 6661,
      "Ġfaire": 6662,
      "Ġfailing": 6663,
      "Ġfagged": 6664,
      "ortions": 6665,
      "Ġperverse": 6666,
      "Ġaltern": 6667,
      "Ġshr": 6668,
      "Ġshow": 6669,
      "Ġshower": 6670,
      "Ġshilling": 6671,
      "Ġorchard": 6672,
      "ours": 6673,
      "liance": 6674,
      "liest": 6675,
      "liction": 6676,
      "Ġlip": 6677,
      "Ġlies": 6678,
      "Ġquality": 6679,
      "Ġquivering": 6680,
      "ittal": 6681,
      "Ġven": 6682,
      "Ġvan": 6683,
      "Ġviv": 6684,
      "tended": 6685,
      "Ġdiscom": 6686,
      "Ġdisci": 6687,
      "Ġdisgu": 6688,
      "reated": 6689,
      "Ġchick": 6690,
      "Ġchusing": 6691,
      "Ġeveryday": 6692,
      "Ġages": 6693,
      "Ġagric": 6694,
      "Ġagrees": 6695,
      "Ġagony": 6696,
      "Ġpremat": 6697,
      "Ġpretending": 6698,
      "Ġenqu": 6699,
      "Ġenable": 6700,
      "Ġenemy": 6701,
      "Ġenlar": 6702,
      "Ġenrich": 6703,
      "ongru": 6704,
      "Ġunqu": 6705,
      "Ġunable": 6706,
      "Ġunfa": 6707,
      "Ġuncl": 6708,
      "Ġunmer": 6709,
      "Ġuninter": 6710,
      "Ġunman": 6711,
      "Ġunhealth": 6712,
      "Ġunatte": 6713,
      "Ġunheard": 6714,
      "Ġunans": 6715,
      "Ġunstead": 6716,
      "Ġabusing": 6717,
      "Ġabhor": 6718,
      "Ġprope": 6719,
      "Ġprocl": 6720,
      "Ġprocess": 6721,
      "Ġprovo": 6722,
      "Ġprojected": 6723,
      "Ġcaps": 6724,
      "Ġpoet": 6725,
      "Ġpock": 6726,
      "Ġpoign": 6727,
      "Ġpoem": 6728,
      "Ġpoison": 6729,
      "Ġpondering": 6730,
      "Ġpolite": 6731,
      "Ġwhence": 6732,
      "veniences": 6733,
      "andum": 6734,
      "Ġrouse": 6735,
      "Ġrange": 6736,
      "elpiece": 6737,
      "ilos": 6738,
      "ifice": 6739,
      "ifted": 6740,
      "Ġacute": 6741,
      "Ġparts": 6742,
      "Ġpartake": 6743,
      "Ġpartially": 6744,
      "Ġcost": 6745,
      "Ġcoars": 6746,
      "Ġcoffe": 6747,
      "ushing": 6748,
      "usage": 6749,
      "ushed": 6750,
      "usions": 6751,
      "usively": 6752,
      "Ġfried": 6753,
      "Ġcompliance": 6754,
      "aneous": 6755,
      "Ġworsh": 6756,
      "fare": 6757,
      "unting": 6758,
      "Ġnowhere": 6759,
      "Ġshared": 6760,
      "Ġsharing": 6761,
      "Ġshabb": 6762,
      "Ġspark": 6763,
      "Ġadoration": 6764,
      "Ġjuly": 6765,
      "Ġobedience": 6766,
      "aciously": 6767,
      "ruction": 6768,
      "Ġgold": 6769,
      "Ġgoss": 6770,
      "Ġgoose": 6771,
      "oses": 6772,
      "ageable": 6773,
      "olved": 6774,
      "olerable": 6775,
      "Ġintolerable": 6776,
      "Ġushered": 6777,
      "Ġplague": 6778,
      "rences": 6779,
      "Ġresisted": 6780,
      "Ġresiding": 6781,
      "Ġrescue": 6782,
      "Ġlikelihood": 6783,
      "Ġhost": 6784,
      "Ġhoarse": 6785,
      "Ġdears": 6786,
      "Ġdearly": 6787,
      "Ġconsumption": 6788,
      "Ġchamber": 6789,
      "Ġindef": 6790,
      "Ġindelic": 6791,
      "think": 6792,
      "throw": 6793,
      "throat": 6794,
      "thirty": 6795,
      "Ġfathers": 6796,
      "arest": 6797,
      "Ġunderrated": 6798,
      "Ġundergo": 6799,
      "Ġjustly": 6800,
      "Ġjustify": 6801,
      "Ġyounger": 6802,
      "Ġimply": 6803,
      "Ġimpass": 6804,
      "Ġimposed": 6805,
      "Ġimpute": 6806,
      "Ġimparted": 6807,
      "Ġimputed": 6808,
      "Ġimperfect": 6809,
      "Ġoverchar": 6810,
      "Ġovertaken": 6811,
      "Ġsuppers": 6812,
      "Ġrepul": 6813,
      "Ġreprehe": 6814,
      "Ġrepressed": 6815,
      "Ġreplies": 6816,
      "Ġardent": 6817,
      "Ġarisen": 6818,
      "Ġhereabouts": 6819,
      "Ġbelief": 6820,
      "Ġsubord": 6821,
      "Ġsubmitting": 6822,
      "Ġsublim": 6823,
      "Ġpersist": 6824,
      "Ġoffences": 6825,
      "igning": 6826,
      "Ġassuring": 6827,
      "Ġappeal": 6828,
      "Ġappeased": 6829,
      "Ġappealed": 6830,
      "Ġdiffer": 6831,
      "Ġentang": 6832,
      "Ġapply": 6833,
      "Ġapplying": 6834,
      "Ġappreci": 6835,
      "Ġappetite": 6836,
      "Ġbranch": 6837,
      "Ġraising": 6838,
      "Ġrarely": 6839,
      "Ġpassable": 6840,
      "Ġdesires": 6841,
      "pline": 6842,
      "Ġpew": 6843,
      "Ġpearls": 6844,
      "Ġretreated": 6845,
      "Ġfarming": 6846,
      "ags": 6847,
      "Ġvisible": 6848,
      "Ġvisibly": 6849,
      "Ġlasts": 6850,
      "ixed": 6851,
      "Ġfelicities": 6852,
      "Ġindist": 6853,
      "Ġindescri": 6854,
      "Ġgroup": 6855,
      "Ġdistaste": 6856,
      "Ġpoorly": 6857,
      "Ġblunt": 6858,
      "Ġengra": 6859,
      "Ġpresents": 6860,
      "Ġpresenting": 6861,
      "Ġacquittal": 6862,
      "Ġdoubtingly": 6863,
      "Ġextract": 6864,
      "Ġconsiderations": 6865,
      "Ġscore": 6866,
      "Ġscale": 6867,
      "Ġscanty": 6868,
      "Ġnatured": 6869,
      "Ġsubjection": 6870,
      "istence": 6871,
      "behaved": 6872,
      "Ġtrunk": 6873,
      "Ġcler": 6874,
      "Ġclot": 6875,
      "Ġclown": 6876,
      "Ġclosing": 6877,
      "Ġclothed": 6878,
      "Ġgenius": 6879,
      "Ġsurrender": 6880,
      "Ġdelights": 6881,
      "Ġglory": 6882,
      "Ġglaring": 6883,
      "Ġglanced": 6884,
      "Ġallowance": 6885,
      "Ġchildhood": 6886,
      "returning": 6887,
      "Ġaccum": 6888,
      "Ġaccustom": 6889,
      "Ġgenerations": 6890,
      "Ġdealings": 6891,
      "Ġimagining": 6892,
      "Ġimaginations": 6893,
      "service": 6894,
      "Ġevidence": 6895,
      "Ġconfinement": 6896,
      "Ġconfidant": 6897,
      "Ġrecently": 6898,
      "Ġrecurrence": 6899,
      "Ġrecalled": 6900,
      "Ġgenteel": 6901,
      "Ġinterests": 6902,
      "Ġrandom": 6903,
      "Ġadmin": 6904,
      "Ġadmiss": 6905,
      "Ġadvances": 6906,
      "Ġadvising": 6907,
      "Ġadvisable": 6908,
      "incere": 6909,
      "Ġimmense": 6910,
      "Ġilliter": 6911,
      "Ġilleg": 6912,
      "Ġstray": 6913,
      "Ġbestow": 6914,
      "Ġbestowed": 6915,
      "Ġaffectation": 6916,
      "monial": 6917,
      "Ġrefine": 6918,
      "Ġrefres": 6919,
      "Ġrefusing": 6920,
      "Ġinvention": 6921,
      "Ġworlds": 6922,
      "Ġequalled": 6923,
      "Ġelsewhere": 6924,
      "Ġgentlewoman": 6925,
      "Ġexpert": 6926,
      "Ġrested": 6927,
      "Ġrestless": 6928,
      "Ġobserver": 6929,
      "Ġrespecting": 6930,
      "Ġrespected": 6931,
      "Ġrespectful": 6932,
      "Ġincap": 6933,
      "Ġincumb": 6934,
      "Ġincredible": 6935,
      "Ġincongru": 6936,
      "Ġreads": 6937,
      "Ġreadiness": 6938,
      "Ġlessened": 6939,
      "Ġinfli": 6940,
      "Ġinformed": 6941,
      "Ġinfatuation": 6942,
      "Ġgram": 6943,
      "Ġgraver": 6944,
      "Ġgraces": 6945,
      "Ġgravel": 6946,
      "Ġgravity": 6947,
      "Ġagreeableness": 6948,
      "Ġcomplains": 6949,
      "Ġwilful": 6950,
      "Ġdispens": 6951,
      "Ġdispense": 6952,
      "Ġminor": 6953,
      "Ġmotherly": 6954,
      "Ġsupersed": 6955,
      "Ġcheap": 6956,
      "Ġsuffic": 6957,
      "Ġkeen": 6958,
      "Ġanswers": 6959,
      "Ġcontinuance": 6960,
      "Ġsurprizes": 6961,
      "Ġguide": 6962,
      "Ġdetain": 6963,
      "Ġdetaining": 6964,
      "Ġobjected": 6965,
      "Ġreasons": 6966,
      "Ġprophe": 6967,
      "Ġproposing": 6968,
      "Ġproportions": 6969,
      "Ġapproval": 6970,
      "Ġcomplet": 6971,
      "Ġsatisfies": 6972,
      "Ġboarder": 6973,
      "ernal": 6974,
      "ernation": 6975,
      "Ġflown": 6976,
      "Ġflower": 6977,
      "Ġfloor": 6978,
      "Ġflock": 6979,
      "Ġflirt": 6980,
      "Ġflakes": 6981,
      "told": 6982,
      "Ġdiffidence": 6983,
      "Ġdiffident": 6984,
      "Ġbrotherly": 6985,
      "Ġexcusable": 6986,
      "iplied": 6987,
      "Ġmama": 6988,
      "Ġstoops": 6989,
      "igned": 6990,
      "ignedly": 6991,
      "Ġthankfully": 6992,
      "Ġprobabilities": 6993,
      "Ġenchan": 6994,
      "mingham": 6995,
      "Ġprice": 6996,
      "Ġinterview": 6997,
      "Ġpleasantness": 6998,
      "Ġeleven": 6999,
      "Ġdiscont": 7000,
      "Ġdiscourse": 7001,
      "Ġdiscouragement": 7002,
      "Ġgratific": 7003,
      "Ġexpressive": 7004,
      "Ġsilver": 7005,
      "Ġpreviously": 7006,
      "Ġregards": 7007,
      "Ġregardless": 7008,
      "Ġcheering": 7009,
      "Ġwavering": 7010,
      "Ġesp": 7011,
      "Ġconcert": 7012,
      "Ġconcise": 7013,
      "Ġneeds": 7014,
      "Ġneeded": 7015,
      "Ġexcepted": 7016,
      "Ġfavouring": 7017,
      "Ġcomplimentary": 7018,
      "Ġdinners": 7019,
      "Ġfullest": 7020,
      "Ġpiqu": 7021,
      "Ġawake": 7022,
      "Ġoppress": 7023,
      "Ġopposition": 7024,
      "Ġplayer": 7025,
      "Ġplayful": 7026,
      "Ġplayfully": 7027,
      "Ġtemporary": 7028,
      "Ġseriousness": 7029,
      "Ġremembering": 7030,
      "Ġpark": 7031,
      "Ġparley": 7032,
      "Ġparishes": 7033,
      "Ġfondness": 7034,
      "Ġeaster": 7035,
      "Ġhumane": 7036,
      "Ġcoloured": 7037,
      "Ġhelpless": 7038,
      "istency": 7039,
      "Ġreality": 7040,
      "Ġrealised": 7041,
      "Ġviewed": 7042,
      "Ġcharacters": 7043,
      "enses": 7044,
      "Ġelegantly": 7045,
      "Ġhuswife": 7046,
      "Ġcondem": 7047,
      "Ġconduce": 7048,
      "Ġswept": 7049,
      "Ġpatri": 7050,
      "Ġlamp": 7051,
      "Ġdecline": 7052,
      "Ġcommit": 7053,
      "Ġtriump": 7054,
      "Ġtribute": 7055,
      "Ġtrimming": 7056,
      "whom": 7057,
      "whisper": 7058,
      "Ġdangers": 7059,
      "Ġunchecked": 7060,
      "Ġincline": 7061,
      "Ġinclinations": 7062,
      "Ġplanned": 7063,
      "Ġmusician": 7064,
      "Ġrequiring": 7065,
      "Ġensure": 7066,
      "uries": 7067,
      "Ġinquired": 7068,
      "Ġacceptance": 7069,
      "Ġpersuadable": 7070,
      "Ġclaimed": 7071,
      "Ġsuspicious": 7072,
      "Ġsuspiciously": 7073,
      "Ġdreaded": 7074,
      "Ġsimply": 7075,
      "Ġintimates": 7076,
      "Ġsecondary": 7077,
      "Ġsweetly": 7078,
      "Ġsweetest": 7079,
      "Ġsweetbread": 7080,
      "Ġtenaciously": 7081,
      "Ġwindy": 7082,
      "Ġcounty": 7083,
      "Ġcouncil": 7084,
      "Ġcounsellor": 7085,
      "Ġcivilly": 7086,
      "Ġeyebrow": 7087,
      "Ġinspect": 7088,
      "Ġinsisted": 7089,
      "Ġinsolence": 7090,
      "Ġinsidious": 7091,
      "Ġinsinu": 7092,
      "Ġinsincere": 7093,
      "Ġslighting": 7094,
      "Ġmerc": 7095,
      "Ġmerry": 7096,
      "Ġmermaid": 7097,
      "Ġmerriment": 7098,
      "Ġconsequences": 7099,
      "Ġplaintive": 7100,
      "Ġgrandpapa": 7101,
      "Ġconstruction": 7102,
      "Ġconsternation": 7103,
      "Ġblushing": 7104,
      "Ġceases": 7105,
      "Ġexclusively": 7106,
      "Ġproceedings": 7107,
      "Ġmodes": 7108,
      "Ġworkb": 7109,
      "Ġworked": 7110,
      "Ġcommunicating": 7111,
      "Ġiron": 7112,
      "Ġirregular": 7113,
      "Ġgrows": 7114,
      "Ġrelating": 7115,
      "Ġrelates": 7116,
      "Ġrichly": 7117,
      "Ġdelicious": 7118,
      "morrows": 7119,
      "Ġemploying": 7120,
      "gges": 7121,
      "Ġsights": 7122,
      "Ġfourteen": 7123,
      "Ġforetell": 7124,
      "Ġforebod": 7125,
      "Ġpreventing": 7126,
      "enger": 7127,
      "Ġsuddenness": 7128,
      "Ġtroubles": 7129,
      "Ġinfluenced": 7130,
      "Ġearned": 7131,
      "Ġbelongs": 7132,
      "Ġdeepest": 7133,
      "Ġaffron": 7134,
      "Ġaffirm": 7135,
      "Ġaffliction": 7136,
      "Ġconcealed": 7137,
      "Ġrepeating": 7138,
      "Ġjoining": 7139,
      "Ġalarms": 7140,
      "Ġprofit": 7141,
      "Ġprofits": 7142,
      "Ġprofusion": 7143,
      "Ġindulgent": 7144,
      "Ġconfessed": 7145,
      "Ġconfesses": 7146,
      "Ġsecretly": 7147,
      "Ġobservant": 7148,
      "Ġobservance": 7149,
      "Ġescorted": 7150,
      "Ġdisappointing": 7151,
      "Ġpurposely": 7152,
      "Ġwelch": 7153,
      "Ġruns": 7154,
      "Ġcomprehended": 7155,
      "Ġpictures": 7156,
      "Ġserviceable": 7157,
      "Ġerr": 7158,
      "Ġsixp": 7159,
      "Ġdesiring": 7160,
      "Ġdesirous": 7161,
      "Ġdescribing": 7162,
      "Ġlikenesses": 7163,
      "Ġtreacher": 7164,
      "Ġtremble": 7165,
      "Ġsnowed": 7166,
      "Ġwretch": 7167,
      "Ġbordered": 7168,
      "Ġcalmer": 7169,
      "Ġdriven": 7170,
      "Ġleads": 7171,
      "Ġvariously": 7172,
      "Ġvariation": 7173,
      "Ġvarieties": 7174,
      "ificent": 7175,
      "Ġcontrition": 7176,
      "Ġtouches": 7177,
      "Ġwednes": 7178,
      "Ġunhappiness": 7179,
      "Ġrationally": 7180,
      "Ġopportunities": 7181,
      "Ġbehindhand": 7182,
      "Ġgrievous": 7183,
      "Ġgrievance": 7184,
      "nsible": 7185,
      "Ġdestination": 7186,
      "Ġexerting": 7187,
      "Ġfearfully": 7188,
      "Ġpreferable": 7189,
      "Ġreprobating": 7190,
      "Ġprivy": 7191,
      "Ġsimpleton": 7192,
      "Ġdisappointments": 7193,
      "Ġcongratulation": 7194,
      "Ġcongratulated": 7195,
      "Ġcongratulating": 7196,
      "Ġcongratulatory": 7197,
      "Ġinjure": 7198,
      "Ġinjurious": 7199,
      "Ġconvictions": 7200,
      "Ġordinary": 7201,
      "Ġprepare": 7202,
      "Ġpreposs": 7203,
      "Ġsentimentally": 7204,
      "Ġhesitations": 7205,
      "Ġeats": 7206,
      "Ġlightened": 7207,
      "Ġstrike": 7208,
      "Ġstriving": 7209,
      "Ġstrictly": 7210,
      "Ġcoxe": 7211,
      "Ġconsenting": 7212,
      "Ġcontriving": 7213,
      "Ġclearing": 7214,
      "Ġarrangements": 7215,
      "should": 7216,
      "Ġfasten": 7217,
      "Ġreceives": 7218,
      "Ġfrightful": 7219,
      "Ġcomparative": 7220,
      "Ġcomparatively": 7221,
      "Ġarms": 7222,
      "Ġcourtship": 7223,
      "Ġinconstancy": 7224,
      "Ġfootstep": 7225,
      "Ġaffording": 7226,
      "Ġsickness": 7227,
      "Ġbenefited": 7228,
      "Ġdepos": 7229,
      "Ġimpropriety": 7230,
      "Ġapologise": 7231,
      "Ġreplying": 7232,
      "Ġdreamer": 7233,
      "Ġfools": 7234,
      "Ġaccomplish": 7235,
      "mans": 7236,
      "Ġbeds": 7237,
      "Ġdrank": 7238,
      "Ġsuccessfully": 7239,
      "Ġmeasures": 7240,
      "Ġobjectionable": 7241,
      "Ġhumours": 7242,
      "Ġtrifles": 7243,
      "Ġtranspl": 7244,
      "Ġtransfer": 7245,
      "Ġtranscribed": 7246,
      "Ġtouching": 7247,
      "Ġsigned": 7248,
      "Ġsignified": 7249,
      "Ġmuttering": 7250,
      "Ġmessenger": 7251,
      "Ġdivide": 7252,
      "Ġpractising": 7253,
      "Ġurging": 7254,
      "Ġurgent": 7255,
      "Ġurgency": 7256,
      "Ġprotracted": 7257,
      "Ġcooled": 7258,
      "Ġartist": 7259,
      "Ġartifice": 7260,
      "Ġinterruption": 7261,
      "Ġsuggesting": 7262,
      "Ġsuggestion": 7263,
      "Ġsuggestions": 7264,
      "Ġeighth": 7265,
      "Ġhotter": 7266,
      "Ġyouthful": 7267,
      "Ġlanguor": 7268,
      "Ġseats": 7269,
      "Ġliberality": 7270,
      "Ġdisengage": 7271,
      "Ġcapabilities": 7272,
      "Ġindignant": 7273,
      "Ġindignantly": 7274,
      "Ġbetraying": 7275,
      "Ġbroader": 7276,
      "Ġbroadwood": 7277,
      "Ġabsenting": 7278,
      "Ġparlours": 7279,
      "Ġmoderation": 7280,
      "Ġgardeners": 7281,
      "grand": 7282,
      "judged": 7283,
      "Ġbasis": 7284,
      "Ġbargain": 7285,
      "Ġbirmingham": 7286,
      "Ġbragges": 7287,
      "Ġfetched": 7288,
      "Ġphili": 7289,
      "Ġphilos": 7290,
      "Ġembrocation": 7291,
      "Ġdisgusting": 7292,
      "Ġdisgusted": 7293,
      "Ġdisgustingly": 7294,
      "Ġchristian": 7295,
      "Ġcandid": 7296,
      "Ġcandlelight": 7297,
      "Ġconsoling": 7298,
      "Ġsmoothed": 7299,
      "Ġreports": 7300,
      "Ġindisc": 7301,
      "Ġdeservedly": 7302,
      "Ġprotested": 7303,
      "gression": 7304,
      "opment": 7305,
      "ophic": 7306,
      "Ġsleep": 7307,
      "Ġmeditated": 7308,
      "Ġweakness": 7309,
      "Ġdistinguish": 7310,
      "Ġchecking": 7311,
      "Ġirritate": 7312,
      "Ġfoolishly": 7313,
      "exam": 7314,
      "excuse": 7315,
      "party": 7316,
      "Ġchatty": 7317,
      "Ġpitch": 7318,
      "Ġpitied": 7319,
      "Ġpitiable": 7320,
      "Ġpitiful": 7321,
      "Ġfailure": 7322,
      "Ġqualified": 7323,
      "Ġvulgarity": 7324,
      "Ġgoverned": 7325,
      "Ġmarks": 7326,
      "Ġpreserving": 7327,
      "Ġpassionately": 7328,
      "Ġmatrimonial": 7329,
      "Ġrestrained": 7330,
      "Ġremembrances": 7331,
      "Ġhorrors": 7332,
      "Ġunequivoc": 7333,
      "Ġlamenting": 7334,
      "Ġlamented": 7335,
      "Ġaccommodate": 7336,
      "Ġaccommodations": 7337,
      "Ġaccompanying": 7338,
      "Ġprincipals": 7339,
      "Ġstrawberry": 7340,
      "Ġindisposition": 7341,
      "Ġindisputable": 7342,
      "Ġcrowded": 7343,
      "whenever": 7344,
      "Ġaugur": 7345,
      "Ġbuy": 7346,
      "Ġburied": 7347,
      "Ġbuilt": 7348,
      "Ġdarker": 7349,
      "Ġdefence": 7350,
      "Ġdefiance": 7351,
      "Ġdefinition": 7352,
      "Ġfemales": 7353,
      "Ġlearned": 7354,
      "Ġpartiality": 7355,
      "Ġattacked": 7356,
      "Ġinconsistency": 7357,
      "Ġgraciousness": 7358,
      "Ġsatisfactorily": 7359,
      "Ġceaseless": 7360,
      "Ġhenceforward": 7361,
      "humouredly": 7362,
      "Ġfetching": 7363,
      "Ġfatigue": 7364,
      "Ġfatigues": 7365,
      "Ġshrubs": 7366,
      "Ġauthorised": 7367,
      "board": 7368,
      "book": 7369,
      "Ġbreathing": 7370,
      "Ġcurt": 7371,
      "Ġnurse": 7372,
      "Ġdignified": 7373,
      "Ġpleading": 7374,
      "Ġlime": 7375,
      "Ġlatterly": 7376,
      "standing": 7377,
      "Ġrenewing": 7378,
      "Ġdeceit": 7379,
      "Ġdecease": 7380,
      "Ġmisunderstood": 7381,
      "Ġexamine": 7382,
      "Ġexamined": 7383,
      "Ġpersevering": 7384,
      "Ġpersevered": 7385,
      "Ġdissolved": 7386,
      "Ġdisplays": 7387,
      "Ġdisplayed": 7388,
      "Ġpopulous": 7389,
      "Ġrisks": 7390,
      "Ġcomposedly": 7391,
      "Ġobtru": 7392,
      "Ġrepentance": 7393,
      "Ġgipsy": 7394,
      "Ġglowing": 7395,
      "Ġparentage": 7396,
      "Ġprivileged": 7397,
      "Ġpursuing": 7398,
      "Ġpursuits": 7399,
      "Ġirresolute": 7400,
      "Ġcorrespondence": 7401,
      "Ġembarrassed": 7402,
      "Ġsoftening": 7403,
      "Ġstupidity": 7404,
      "Ġstupidest": 7405,
      "headed": 7406,
      "Ġdrop": 7407,
      "Ġdryly": 7408,
      "Ġpushing": 7409,
      "Ġyielded": 7410,
      "Ġlords": 7411,
      "Ġthirteen": 7412,
      "Ġthreatening": 7413,
      "Ġconveniently": 7414,
      "Ġstudied": 7415,
      "Ġfaithful": 7416,
      "Ġpointedly": 7417,
      "Ġriddles": 7418,
      "Ġrepetitions": 7419,
      "Ġarguments": 7420,
      "Ġdesigns": 7421,
      "Ġsurmised": 7422,
      "Ġexpedient": 7423,
      "Ġdraughts": 7424,
      "Ġcolouring": 7425,
      "Ġreminding": 7426,
      "Ġestimate": 7427,
      "Ġpuzzle": 7428,
      "Ġunsuspected": 7429,
      "Ġcordiality": 7430,
      "Ġtranquillised": 7431,
      "Ġlearnt": 7432,
      "Ġshrubberies": 7433,
      "?'\"": 7434,
      "Ġaverted": 7435,
      "Ġastray": 7436,
      "Ġswelling": 7437,
      "Ġmillion": 7438,
      "Ġfurnish": 7439,
      "Ġfurnished": 7440,
      "Ġfurniture": 7441,
      "Ġbends": 7442,
      "Ġincomp": 7443,
      "Ġoneself": 7444,
      "Ġweariness": 7445,
      "Ġsolace": 7446,
      "Ġmeals": 7447,
      "Ġdelivered": 7448,
      "Ġperpetually": 7449,
      "Ġalteration": 7450,
      "Ġviolent": 7451,
      "Ġunperceived": 7452,
      "Ġcaptious": 7453,
      "Ġsharp": 7454,
      "Ġfirmly": 7455,
      "Ġundertaking": 7456,
      "Ġundertakes": 7457,
      "Ġoverheard": 7458,
      "Ġapartment": 7459,
      "Ġpronounce": 7460,
      "Ġsubduing": 7461,
      "Ġassociates": 7462,
      "Ġaccidentally": 7463,
      "Ġrefreshment": 7464,
      "Ġintellects": 7465,
      "Ġbrighter": 7466,
      "Ġwelcoming": 7467,
      "Ġcalculate": 7468,
      "Ġdestroyed": 7469,
      "Ġinevitably": 7470,
      "Ġbenevolent": 7471,
      "Ġheavens": 7472,
      "Ġimproperly": 7473,
      "Ġamazingly": 7474,
      "Ġelderly": 7475,
      "Ġrejoined": 7476,
      "Ġdisturbance": 7477,
      "Ġbitterly": 7478,
      "Ġingenious": 7479,
      "Ġingenuity": 7480,
      "Ġhazarded": 7481,
      "Ġinconsiderable": 7482,
      "Ġinconsiderate": 7483,
      "horses": 7484,
      "Ġ28": 7485,
      "Ġavail": 7486,
      "Ġwidower": 7487,
      "Ġmagist": 7488,
      "Ġninth": 7489,
      "Ġninety": 7490,
      "Ġeggs": 7491,
      "Ġinherited": 7492,
      "Ġinfectious": 7493,
      "Ġheroism": 7494,
      "Ġlists": 7495,
      "maids": 7496,
      "Ġdeplore": 7497,
      "Ġemotions": 7498,
      "Ġconquest": 7499,
      "Ġconquered": 7500,
      "Ġstores": 7501,
      "Ġvirtues": 7502,
      "Ġdisgrace": 7503,
      "Ġprejudice": 7504,
      "Ġprejudiced": 7505,
      "Ġuntainted": 7506,
      "Ġuntoward": 7507,
      "Ġroused": 7508,
      "Ġjumped": 7509,
      "Ġsubside": 7510,
      "Ġdespatch": 7511,
      "Ġdeserted": 7512,
      "Ġengrossed": 7513,
      "Ġsurpass": 7514,
      "Ġelevate": 7515,
      "Ġmethodical": 7516,
      "Ġsummons": 7517,
      "Ġstruggle": 7518,
      "Ġstruggled": 7519,
      "Ġunprepared": 7520,
      "ĠĠĠĠĠĠĠĠĠĠĠĠĠĠĠĠĠĠĠĠĠĠĠĠĠĠĠ": 7521,
      "Ġsketches": 7522,
      "Ġreconcile": 7523,
      "Ġforeseeing": 7524,
      "Ġrestraints": 7525,
      "Ġpunctual": 7526,
      "Ġcontemplation": 7527,
      "000": 7528,
      "blushing": 7529,
      "from": 7530,
      "frank": 7531,
      "lengths": 7532,
      "preted": 7533,
      "uousness": 7534,
      "Ġwalnut": 7535,
      "Ġwaltz": 7536,
      "Ġmaintenance": 7537,
      "Ġmiliti": 7538,
      "Ġcreate": 7539,
      "Ġcousin": 7540,
      "Ġcousins": 7541,
      "Ġdiverted": 7542,
      "Ġgathering": 7543,
      "Ġshelter": 7544,
      "Ġsheltered": 7545,
      "Ġalleviation": 7546,
      "Ġalleviations": 7547,
      "quarters": 7548,
      "Ġcommanded": 7549,
      "Ġcommanding": 7550,
      "Ġcommendation": 7551,
      "Ġstables": 7552,
      "Ġstretch": 7553,
      "Ġstretching": 7554,
      "Ġvacant": 7555,
      "Ġdispersed": 7556,
      "Ġprecaut": 7557,
      "Ġpretension": 7558,
      "Ġpretensions": 7559,
      "Ġenvious": 7560,
      "Ġprotection": 7561,
      "Ġresigned": 7562,
      "Ġattractive": 7563,
      "Ġimpertin": 7564,
      "Ġimpertinent": 7565,
      "Ġasserted": 7566,
      "Ġbriskly": 7567,
      "Ġscrape": 7568,
      "Ġscramble": 7569,
      "Ġadventure": 7570,
      "Ġabsurdity": 7571,
      "Ġexchange": 7572,
      "Ġunconcerned": 7573,
      "Ġunconsciously": 7574,
      "Ġforestall": 7575,
      "Ġsignificant": 7576,
      "Ġsignificantly": 7577,
      "Ġdevoting": 7578,
      "Ġdevotion": 7579,
      "Ġcritical": 7580,
      "Ġdissipated": 7581,
      "Ġvouchsaf": 7582,
      "Ġvouchsafe": 7583,
      "Ġremonstrance": 7584,
      "Ġalphabets": 7585,
      "approbation": 7586,
      "colours": 7587,
      "desk": 7588,
      "pretty": 7589,
      "Ġadelaide": 7590,
      "Ġsneering": 7591,
      "Ġwarfare": 7592,
      "Ġwander": 7593,
      "Ġmourning": 7594,
      "Ġoxford": 7595,
      "Ġblended": 7596,
      "Ġculture": 7597,
      "Ġnarration": 7598,
      "Ġdialogue": 7599,
      "Ġpulse": 7600,
      "Ġportra": 7601,
      "Ġnovelty": 7602,
      "Ġlodged": 7603,
      "Ġmultiplied": 7604,
      "Ġknocked": 7605,
      "Ġmemorandum": 7606,
      "Ġdemands": 7607,
      "Ġstomach": 7608,
      "Ġexecution": 7609,
      "Ġpermanently": 7610,
      "Ġornament": 7611,
      "Ġvillage": 7612,
      "Ġenlivened": 7613,
      "Ġungen": 7614,
      "Ġprolong": 7615,
      "Ġromance": 7616,
      "Ġrush": 7617,
      "Ġrumour": 7618,
      "Ġrubber": 7619,
      "Ġshadow": 7620,
      "Ġsplendour": 7621,
      "Ġadapt": 7622,
      "Ġspecimens": 7623,
      "Ġattribut": 7624,
      "Ġimpede": 7625,
      "Ġimpartial": 7626,
      "Ġimpudent": 7627,
      "Ġprodigy": 7628,
      "Ġsubmissive": 7629,
      "Ġindustriously": 7630,
      "Ġacquirements": 7631,
      "Ġscolded": 7632,
      "Ġclosest": 7633,
      "Ġclouds": 7634,
      "Ġglasses": 7635,
      "Ġcomplaisance": 7636,
      "Ġdecorum": 7637,
      "Ġproprietor": 7638,
      "Ġappropriated": 7639,
      "Ġflourishes": 7640,
      "Ġflatterer": 7641,
      "Ġcondescension": 7642,
      "Ġpatroness": 7643,
      "Ġeffusion": 7644,
      "Ġinsensibility": 7645,
      "Ġtenderest": 7646,
      "Ġextravagance": 7647,
      "Ġborrowed": 7648,
      "Ġcourtesy": 7649,
      "Ġsacrifices": 7650,
      "Ġphysic": 7651,
      "Ġmedium": 7652,
      "Ġinvoluntarily": 7653,
      "Ġterribly": 7654,
      "Ġbuilding": 7655,
      "Ġdisinclination": 7656,
      "Ġbewitching": 7657,
      "Ġincommoded": 7658,
      "Ġdeliberately": 7659,
      "Ġmagnificent": 7660,
      "Ġsurprising": 7661,
      "Ġinexpressibly": 7662,
      "Ġachieved": 7663,
      "Ġinnocently": 7664,
      "Ġumbrellas": 7665,
      "Ġindividual": 7666,
      "bathing": 7667,
      "breeding": 7668,
      "cuits": 7669,
      "careful": 7670,
      "fashioned": 7671,
      "laughing": 7672,
      "something": 7673,
      "trimmed": 7674,
      "Ġverses": 7675,
      "Ġtacitly": 7676,
      "Ġtippet": 7677,
      "Ġaimed": 7678,
      "Ġstone": 7679,
      "Ġsighed": 7680,
      "Ġwittier": 7681,
      "Ġwarrant": 7682,
      "Ġwainscot": 7683,
      "Ġmental": 7684,
      "Ġmantelpiece": 7685,
      "Ġbiscuits": 7686,
      "Ġbanished": 7687,
      "Ġbountiful": 7688,
      "Ġflew": 7689,
      "Ġfarthest": 7690,
      "Ġflesh": 7691,
      "Ġfreshened": 7692,
      "Ġhautboy": 7693,
      "Ġhannah": 7694,
      "Ġdessert": 7695,
      "Ġdeduction": 7696,
      "Ġdimensions": 7697,
      "itimacy": 7698,
      "Ġpanic": 7699,
      "Ġpomp": 7700,
      "Ġpoultry": 7701,
      "Ġeccentric": 7702,
      "Ġeternal": 7703,
      "Ġinadequate": 7704,
      "Ġforcibly": 7705,
      "Ġatonement": 7706,
      "Ġkissed": 7707,
      "Ġkitchen": 7708,
      "Ġdevelopment": 7709,
      "Ġseizure": 7710,
      "Ġconcession": 7711,
      "Ġconjugal": 7712,
      "Ġmisinterpreted": 7713,
      "Ġexhausted": 7714,
      "Ġfairest": 7715,
      "Ġalternative": 7716,
      "Ġvivacity": 7717,
      "Ġdiscomposed": 7718,
      "Ġdiscipline": 7719,
      "Ġchicken": 7720,
      "Ġagricult": 7721,
      "Ġpremature": 7722,
      "Ġunfavourable": 7723,
      "Ġunmerited": 7724,
      "Ġuninterrupt": 7725,
      "Ġunmanageable": 7726,
      "Ġunhealthy": 7727,
      "Ġunattended": 7728,
      "Ġunsteadiness": 7729,
      "Ġproclaimed": 7730,
      "Ġpocket": 7731,
      "Ġpoignant": 7732,
      "Ġcoffee": 7733,
      "Ġshabby": 7734,
      "Ġsparkling": 7735,
      "Ġimpassable": 7736,
      "Ġimperfection": 7737,
      "Ġovercharged": 7738,
      "Ġpersisting": 7739,
      "Ġentangled": 7740,
      "Ġindistinct": 7741,
      "Ġindescribable": 7742,
      "Ġextracts": 7743,
      "Ġclownish": 7744,
      "Ġaccustomed": 7745,
      "Ġadmissible": 7746,
      "Ġilliterate": 7747,
      "Ġillegitimacy": 7748,
      "Ġrefreshing": 7749,
      "Ġincapable": 7750,
      "Ġincumbent": 7751,
      "Ġsuperseded": 7752,
      "Ġsufficed": 7753,
      "Ġflirtation": 7754,
      "Ġcondemn": 7755,
      "Ġtriumphant": 7756,
      "Ġeyebrows": 7757,
      "Ġaffronted": 7758,
      "Ġtreachery": 7759,
      "Ġwednesday": 7760,
      "Ġphilosophic": 7761,
      "Ġwalnuts": 7762,
      "Ġmilitia": 7763,
      "!)": 7764,
      "';": 7765,
      ");": 7766,
      ".]": 7767,
      ".,\"": 7768,
      ".,'": 7769,
      "?)": 7770,
      "_!": 7771,
      "_'": 7772,
      "_:": 7773,
      "_?": 7774,
      "_?\"": 7775,
      "ae": 7776,
      "ax": 7777,
      "avery": 7778,
      "air": 7779,
      "amp": 7780,
      "aus": 7781,
      "aps": 7782,
      "action": 7783,
      "afer": 7784,
      "aits": 7785,
      "avour": 7786,
      "avers": 7787,
      "avo": 7788,
      "aments": 7789,
      "aunted": 7790,
      "bi": 7791,
      "br": 7792,
      "bu": 7793,
      "bor": 7794,
      "bow": 7795,
      "bal": 7796,
      "bak": 7797,
      "bot": 7798,
      "best": 7799,
      "bus": 7800,
      "bol": 7801,
      "bade": 7802,
      "bare": 7803,
      "both": 7804,
      "bited": 7805,
      "braid": 7806,
      "bacy": 7807,
      "bband": 7808,
      "boured": 7809,
      "bbed": 7810,
      "banity": 7811,
      "bridge": 7812,
      "briety": 7813,
      "bleness": 7814,
      "bham": 7815,
      "bjection": 7816,
      "baits": 7817,
      "co": 7818,
      "cre": 7819,
      "cle": 7820,
      "cas": 7821,
      "cst": 7822,
      "could": 7823,
      "cill": 7824,
      "cur": 7825,
      "cra": 7826,
      "chan": 7827,
      "cred": 7828,
      "cour": 7829,
      "cry": 7830,
      "cand": 7831,
      "cast": 7832,
      "cond": 7833,
      "cried": 7834,
      "ciness": 7835,
      "cary": 7836,
      "cations": 7837,
      "came": 7838,
      "circ": 7839,
      "caut": 7840,
      "cern": 7841,
      "cons": 7842,
      "cision": 7843,
      "cises": 7844,
      "cilled": 7845,
      "cakes": 7846,
      "coat": 7847,
      "cusable": 7848,
      "couragement": 7849,
      "dis": 7850,
      "das": 7851,
      "dro": 7852,
      "dure": 7853,
      "dance": 7854,
      "dif": 7855,
      "dress": 7856,
      "dings": 7857,
      "dances": 7858,
      "dating": 7859,
      "dread": 7860,
      "dirty": 7861,
      "dleness": 7862,
      "ee": 7863,
      "eu": 7864,
      "eer": 7865,
      "eight": 7866,
      "equ": 7867,
      "even": 7868,
      "east": 7869,
      "eful": 7870,
      "eps": 7871,
      "eming": 7872,
      "eye": 7873,
      "epless": 7874,
      "fo": 7875,
      "fet": 7876,
      "fton": 7877,
      "find": 7878,
      "father": 7879,
      "furn": 7880,
      "fres": 7881,
      "fused": 7882,
      "fficient": 7883,
      "fold": 7884,
      "fron": 7885,
      "ffere": 7886,
      "flow": 7887,
      "great": 7888,
      "give": 7889,
      "gest": 7890,
      "gings": 7891,
      "girl": 7892,
      "gued": 7893,
      "gitation": 7894,
      "gressed": 7895,
      "gover": 7896,
      "glance": 7897,
      "gacity": 7898,
      "hon": 7899,
      "high": 7900,
      "hine": 7901,
      "humph": 7902,
      "ia": 7903,
      "ien": 7904,
      "ias": 7905,
      "iat": 7906,
      "iate": 7907,
      "ived": 7908,
      "iber": 7909,
      "iations": 7910,
      "iances": 7911,
      "iplicity": 7912,
      "iableness": 7913,
      "ienced": 7914,
      "ipping": 7915,
      "ilful": 7916,
      "jac": 7917,
      "july": 7918,
      "ky": 7919,
      "kin": 7920,
      "kind": 7921,
      "kingly": 7922,
      "ksome": 7923,
      "kitty": 7924,
      "lis": 7925,
      "lore": 7926,
      "lord": 7927,
      "lower": 7928,
      "lins": 7929,
      "love": 7930,
      "lcer": 7931,
      "lamed": 7932,
      "lacing": 7933,
      "mid": 7934,
      "mal": 7935,
      "mour": 7936,
      "mate": 7937,
      "more": 7938,
      "mous": 7939,
      "mity": 7940,
      "mane": 7941,
      "mine": 7942,
      "miling": 7943,
      "minary": 7944,
      "mency": 7945,
      "mulous": 7946,
      "mosp": 7947,
      "marian": 7948,
      "nu": 7949,
      "nal": 7950,
      "nation": 7951,
      "nance": 7952,
      "nel": 7953,
      "none": 7954,
      "nine": 7955,
      "nip": 7956,
      "nons": 7957,
      "nnight": 7958,
      "ole": 7959,
      "ope": 7960,
      "oak": 7961,
      "oose": 7962,
      "oper": 7963,
      "oated": 7964,
      "oft": 7965,
      "oiling": 7966,
      "objection": 7967,
      "oeu": 7968,
      "pit": 7969,
      "phat": 7970,
      "pse": 7971,
      "pher": 7972,
      "pur": 7973,
      "pro": 7974,
      "phan": 7975,
      "priet": 7976,
      "pok": 7977,
      "pite": 7978,
      "pies": 7979,
      "pace": 7980,
      "pens": 7981,
      "position": 7982,
      "pressed": 7983,
      "poc": 7984,
      "present": 7985,
      "pening": 7986,
      "ported": 7987,
      "pieces": 7988,
      "rd": 7989,
      "rou": 7990,
      "rment": 7991,
      "run": 7992,
      "rast": 7993,
      "rang": 7994,
      "rating": 7995,
      "rised": 7996,
      "risten": 7997,
      "rines": 7998,
      "rates": 7999,
      "risy": 8000,
      "sy": 8001,
      "son": 8002,
      "sis": 8003,
      "say": 8004,
      "sir": 8005,
      "sive": 8006,
      "swe": 8007,
      "six": 8008,
      "since": 8009,
      "small": 8010,
      "sitting": 8011,
      "solute": 8012,
      "school": 8013,
      "smith": 8014,
      "satis": 8015,
      "smiling": 8016,
      "spok": 8017,
      "tt": 8018,
      "tar": 8019,
      "tain": 8020,
      "thing": 8021,
      "ties": 8022,
      "tied": 8023,
      "tship": 8024,
      "trees": 8025,
      "tesse": 8026,
      "tattle": 8027,
      "tentive": 8028,
      "upe": 8029,
      "uck": 8030,
      "uently": 8031,
      "ugg": 8032,
      "uously": 8033,
      "ufferable": 8034,
      "vill": 8035,
      "vad": 8036,
      "vant": 8037,
      "vive": 8038,
      "vass": 8039,
      "vided": 8040,
      "vished": 8041,
      "vring": 8042,
      "vidently": 8043,
      "vatory": 8044,
      "viti": 8045,
      "varying": 8046,
      "vinced": 8047,
      "ws": 8048,
      "wing": 8049,
      "wes": 8050,
      "wic": 8051,
      "wink": 8052,
      "wind": 8053,
      "walk": 8054,
      "ware": 8055,
      "warted": 8056,
      "wdling": 8057,
      "yst": 8058,
      "yel": 8059,
      "yran": 8060,
      "york": 8061,
      "yards": 8062,
      "zy": 8063,
      "zard": 8064,
      "zig": 8065,
      "zags": 8066,
      "Ġ'": 8067,
      "Ġ7": 8068,
      "Ġ8": 8069,
      "Ġ:": 8070,
      "Ġed": 8071,
      "Ġvel": 8072,
      "Ġverse": 8073,
      "Ġzig": 8074,
      "Ġtha": 8075,
      "Ġted": 8076,
      "Ġtan": 8077,
      "Ġtur": 8078,
      "Ġtro": 8079,
      "Ġtart": 8080,
      "Ġtitt": 8081,
      "Ġtun": 8082,
      "Ġtie": 8083,
      "Ġties": 8084,
      "Ġtaut": 8085,
      "Ġtens": 8086,
      "Ġters": 8087,
      "Ġtune": 8088,
      "Ġtumb": 8089,
      "Ġtax": 8090,
      "Ġtyran": 8091,
      "Ġald": 8092,
      "Ġaus": 8093,
      "Ġawe": 8094,
      "Ġaust": 8095,
      "Ġaright": 8096,
      "Ġahead": 8097,
      "hel": 8098,
      "held": 8099,
      "heum": 8100,
      "heres": 8101,
      "herence": 8102,
      "hemat": 8103,
      "hets": 8104,
      "hecary": 8105,
      "inst": 8106,
      "inet": 8107,
      "inqu": 8108,
      "incl": 8109,
      "inction": 8110,
      "inist": 8111,
      "inating": 8112,
      "inished": 8113,
      "inarily": 8114,
      "intend": 8115,
      "inuing": 8116,
      "interest": 8117,
      "inacity": 8118,
      "intell": 8119,
      "inarian": 8120,
      "incre": 8121,
      "Ġsed": 8122,
      "Ġsar": 8123,
      "Ġsch": 8124,
      "Ġshan": 8125,
      "Ġsway": 8126,
      "Ġscept": 8127,
      "Ġsedu": 8128,
      "Ġsash": 8129,
      "Ġwreat": 8130,
      "Ġwake": 8131,
      "Ġwide": 8132,
      "Ġwins": 8133,
      "Ġwaking": 8134,
      "Ġwilt": 8135,
      "Ġwounded": 8136,
      "Ġwaded": 8137,
      "Ġmim": 8138,
      "Ġmal": 8139,
      "Ġmic": 8140,
      "Ġmick": 8141,
      "Ġmute": 8142,
      "Ġmitche": 8143,
      "Ġmounted": 8144,
      "Ġmirth": 8145,
      "rel": 8146,
      "rear": 8147,
      "requ": 8148,
      "rection": 8149,
      "rempt": 8150,
      "remonious": 8151,
      "refused": 8152,
      "Ġoli": 8153,
      "Ġoath": 8154,
      "Ġomit": 8155,
      "Ġomitting": 8156,
      "Ġoyst": 8157,
      "hast": 8158,
      "hael": 8159,
      "having": 8160,
      "habited": 8161,
      "ouched": 8162,
      "ourers": 8163,
      "Ġben": 8164,
      "Ġbal": 8165,
      "Ġbul": 8166,
      "Ġbone": 8167,
      "Ġbake": 8168,
      "Ġbos": 8169,
      "Ġbound": 8170,
      "Ġbury": 8171,
      "Ġbars": 8172,
      "Ġbase": 8173,
      "Ġbord": 8174,
      "Ġbang": 8175,
      "Ġbrown": 8176,
      "Ġbash": 8177,
      "Ġbows": 8178,
      "Ġbounded": 8179,
      "Ġbounds": 8180,
      "Ġbodies": 8181,
      "Ġbias": 8182,
      "Ġice": 8183,
      "Ġido": 8184,
      "Ġidleness": 8185,
      "eral": 8186,
      "eration": 8187,
      "erate": 8188,
      "erning": 8189,
      "erget": 8190,
      "ervour": 8191,
      "erial": 8192,
      "erney": 8193,
      "erates": 8194,
      "eriously": 8195,
      "eroom": 8196,
      "errant": 8197,
      "ervatory": 8198,
      "Ġtheod": 8199,
      "ndages": 8200,
      "ndwic": 8201,
      "Ġcod": 8202,
      "Ġcli": 8203,
      "Ġcry": 8204,
      "Ġcather": 8205,
      "Ġcell": 8206,
      "Ġcert": 8207,
      "Ġcree": 8208,
      "Ġcip": 8209,
      "Ġcust": 8210,
      "Ġcows": 8211,
      "Ġciti": 8212,
      "Ġcattle": 8213,
      "Ġtom": 8214,
      "Ġtoss": 8215,
      "Ġtotter": 8216,
      "Ġtooth": 8217,
      "Ġtoken": 8218,
      "Ġtones": 8219,
      "Ġtorment": 8220,
      "onist": 8221,
      "onne": 8222,
      "onceived": 8223,
      "Ġfed": 8224,
      "Ġfur": 8225,
      "Ġfight": 8226,
      "Ġfest": 8227,
      "Ġfun": 8228,
      "Ġfence": 8229,
      "Ġfren": 8230,
      "Ġfiness": 8231,
      "Ġfits": 8232,
      "Ġfalls": 8233,
      "Ġfitted": 8234,
      "Ġfath": 8235,
      "Ġfuss": 8236,
      "Ġfenced": 8237,
      "Ġflying": 8238,
      "Ġfervour": 8239,
      "Ġheed": 8240,
      "Ġheire": 8241,
      "Ġhealed": 8242,
      "Ġhems": 8243,
      "inging": 8244,
      "ingering": 8245,
      "enes": 8246,
      "enness": 8247,
      "enient": 8248,
      "encer": 8249,
      "enza": 8250,
      "encouragement": 8251,
      "eded": 8252,
      "edal": 8253,
      "ederates": 8254,
      "Ġnon": 8255,
      "Ġnour": 8256,
      "Ġnest": 8257,
      "Ġnought": 8258,
      "Ġnons": 8259,
      "Ġnicer": 8260,
      "Ġhay": 8261,
      "Ġhated": 8262,
      "Ġhaber": 8263,
      "Ġhaunt": 8264,
      "Ġhapha": 8265,
      "Ġhaunted": 8266,
      "Ġhaunting": 8267,
      "Ġdit": 8268,
      "Ġdas": 8269,
      "Ġdur": 8270,
      "Ġdart": 8271,
      "Ġdil": 8272,
      "Ġdus": 8273,
      "Ġdru": 8274,
      "Ġdated": 8275,
      "Ġdint": 8276,
      "Ġdup": 8277,
      "Ġdiet": 8278,
      "Ġdili": 8279,
      "Ġdork": 8280,
      "Ġdying": 8281,
      "Ġdrud": 8282,
      "Ġdaring": 8283,
      "Ġdirt": 8284,
      "Ġduly": 8285,
      "Ġdupe": 8286,
      "Ġbeet": 8287,
      "Ġbending": 8288,
      "Ġbeaming": 8289,
      "Ġbeavers": 8290,
      "Ġbeheld": 8291,
      "lle": 8292,
      "llent": 8293,
      "llation": 8294,
      "llards": 8295,
      "llenness": 8296,
      "isition": 8297,
      "isabella": 8298,
      "isons": 8299,
      "isking": 8300,
      "istered": 8301,
      "iscerned": 8302,
      "iten": 8303,
      "itance": 8304,
      "itence": 8305,
      "itage": 8306,
      "itious": 8307,
      "itary": 8308,
      "iters": 8309,
      "Ġpent": 8310,
      "Ġpill": 8311,
      "Ġpall": 8312,
      "Ġpic": 8313,
      "Ġpant": 8314,
      "Ġpour": 8315,
      "Ġpink": 8316,
      "Ġpull": 8317,
      "Ġpars": 8318,
      "Ġpick": 8319,
      "Ġpup": 8320,
      "Ġpens": 8321,
      "Ġpacing": 8322,
      "Ġpedal": 8323,
      "Ġecl": 8324,
      "Ġecst": 8325,
      "Ġejac": 8326,
      "Ġepit": 8327,
      "Ġeyel": 8328,
      "Ġerection": 8329,
      "lee": 8330,
      "leful": 8331,
      "leham": 8332,
      "lemen": 8333,
      "lework": 8334,
      "legance": 8335,
      "asies": 8336,
      "asively": 8337,
      "ashamed": 8338,
      "asket": 8339,
      "assembled": 8340,
      "asked": 8341,
      "Ġhid": 8342,
      "Ġhood": 8343,
      "Ġhous": 8344,
      "Ġhired": 8345,
      "Ġhym": 8346,
      "Ġhinde": 8347,
      "Ġhunting": 8348,
      "orous": 8349,
      "oried": 8350,
      "orney": 8351,
      "ordered": 8352,
      "orbing": 8353,
      "ornful": 8354,
      "oratives": 8355,
      "Ġinat": 8356,
      "Ġinse": 8357,
      "Ġinad": 8358,
      "Ġinfa": 8359,
      "Ġinward": 8360,
      "Ġinference": 8361,
      "Ġinability": 8362,
      "Ġinroad": 8363,
      "Ġinhabited": 8364,
      "Ġnodd": 8365,
      "Ġnodding": 8366,
      "Ġnobility": 8367,
      "Ġnomin": 8368,
      "Ġnoviti": 8369,
      "aned": 8370,
      "anim": 8371,
      "anry": 8372,
      "anged": 8373,
      "anza": 8374,
      "ese": 8375,
      "essel": 8376,
      "ara": 8377,
      "arat": 8378,
      "aries": 8379,
      "arried": 8380,
      "ariable": 8381,
      "arran": 8382,
      "arrick": 8383,
      "ator": 8384,
      "atic": 8385,
      "ature": 8386,
      "atable": 8387,
      "atig": 8388,
      "atched": 8389,
      "ativen": 8390,
      "omanry": 8391,
      "Ġheritage": 8392,
      "verb": 8393,
      "verings": 8394,
      "Ġital": 8395,
      "Ġgal": 8396,
      "Ġgli": 8397,
      "Ġgout": 8398,
      "Ġgate": 8399,
      "Ġgang": 8400,
      "Ġgames": 8401,
      "Ġgrud": 8402,
      "Ġgreet": 8403,
      "Ġgains": 8404,
      "Ġgarter": 8405,
      "Ġgift": 8406,
      "Ġginger": 8407,
      "Ġgifted": 8408,
      "Ġglee": 8409,
      "Ġgarrick": 8410,
      "Ġlur": 8411,
      "Ġlain": 8412,
      "Ġlic": 8413,
      "Ġlone": 8414,
      "Ġlined": 8415,
      "Ġlam": 8416,
      "Ġlang": 8417,
      "Ġlimes": 8418,
      "Ġlonel": 8419,
      "Ġleng": 8420,
      "Ġlingu": 8421,
      "Ġlung": 8422,
      "Ġlacing": 8423,
      "Ġlingering": 8424,
      "Ġlenient": 8425,
      "Ġnotes": 8426,
      "Ġnotch": 8427,
      "Ġnoticed": 8428,
      "verest": 8429,
      "veying": 8430,
      "Ġsheep": 8431,
      "Ġshells": 8432,
      "Ġshedding": 8433,
      "Ġsheeps": 8434,
      "Ġshepher": 8435,
      "Ġwashing": 8436,
      "Ġwashed": 8437,
      "Ġwasted": 8438,
      "lyhead": 8439,
      "stic": 8440,
      "stone": 8441,
      "stained": 8442,
      "strick": 8443,
      "Ġthread": 8444,
      "Ġthwarted": 8445,
      "utal": 8446,
      "utation": 8447,
      "uteness": 8448,
      "church": 8449,
      "christ": 8450,
      "see": 8451,
      "seven": 8452,
      "seers": 8453,
      "seemed": 8454,
      "seys": 8455,
      "semble": 8456,
      "second": 8457,
      "Ġ\"'": 8458,
      "ioned": 8459,
      "ionage": 8460,
      "ionably": 8461,
      "ceremonious": 8462,
      "Ġred": 8463,
      "Ġrede": 8464,
      "Ġremed": 8465,
      "Ġrender": 8466,
      "Ġrelic": 8467,
      "Ġrendering": 8468,
      "Ġrejection": 8469,
      "Ġreigning": 8470,
      "Ġreinst": 8471,
      "Ġreassembled": 8472,
      "Ġreanim": 8473,
      "Ġresemble": 8474,
      "rid": 8475,
      "ridden": 8476,
      "ricted": 8477,
      "rille": 8478,
      "ents": 8479,
      "enting": 8480,
      "entation": 8481,
      "entment": 8482,
      "entious": 8483,
      "entiment": 8484,
      "entient": 8485,
      "entiet": 8486,
      "entimes": 8487,
      "entiful": 8488,
      "entrated": 8489,
      "entatious": 8490,
      "ayton": 8491,
      "Ġaspect": 8492,
      "Ġascending": 8493,
      "owedly": 8494,
      "Ġforcing": 8495,
      "Ġforbade": 8496,
      "Ġforswe": 8497,
      "ets": 8498,
      "eteen": 8499,
      "ithwa": 8500,
      "imen": 8501,
      "imate": 8502,
      "imney": 8503,
      "Ġsup": 8504,
      "Ġsuns": 8505,
      "Ġsullenness": 8506,
      "Ġanal": 8507,
      "Ġanci": 8508,
      "Ġanec": 8509,
      "idance": 8510,
      "idering": 8511,
      "idote": 8512,
      "Ġwept": 8513,
      "Ġweary": 8514,
      "Ġwearying": 8515,
      "ira": 8516,
      "irable": 8517,
      "irted": 8518,
      "irons": 8519,
      "ctive": 8520,
      "Ġbutton": 8521,
      "Ġsoli": 8522,
      "hers": 8523,
      "Ġult": 8524,
      "Ġulcer": 8525,
      "Ġatmosp": 8526,
      "Ġissued": 8527,
      "odied": 8528,
      "alis": 8529,
      "alence": 8530,
      "almost": 8531,
      "alified": 8532,
      "alier": 8533,
      "almane": 8534,
      "Ġwhim": 8535,
      "Ġwhirl": 8536,
      "Ġwhiten": 8537,
      "Ġkite": 8538,
      "Ġmud": 8539,
      "Ġmum": 8540,
      "Ġmule": 8541,
      "Ġmuff": 8542,
      "urred": 8543,
      "urry": 8544,
      "urance": 8545,
      "urged": 8546,
      "uratively": 8547,
      "adings": 8548,
      "adorned": 8549,
      "advant": 8550,
      "adrille": 8551,
      "Ġallay": 8552,
      "Ġallies": 8553,
      "Ġallied": 8554,
      "Ġallusions": 8555,
      "Ġalliances": 8556,
      "Ġknit": 8557,
      "Ġknight": 8558,
      "Ġknack": 8559,
      "Ġknives": 8560,
      "Ġknife": 8561,
      "Ġknee": 8562,
      "rot": 8563,
      "roved": 8564,
      "roach": 8565,
      "ropriety": 8566,
      "rospect": 8567,
      "robor": 8568,
      "rovided": 8569,
      "rostic": 8570,
      "pel": 8571,
      "peare": 8572,
      "people": 8573,
      "Ġmend": 8574,
      "Ġmerest": 8575,
      "Ġmechan": 8576,
      "ters": 8577,
      "terings": 8578,
      "Ġdefect": 8579,
      "Ġdeci": 8580,
      "Ġdepri": 8581,
      "Ġdevi": 8582,
      "Ġdemer": 8583,
      "Ġdeleg": 8584,
      "Ġdejection": 8585,
      "Ġdeceptions": 8586,
      "Ġdeafer": 8587,
      "Ġdews": 8588,
      "quy": 8589,
      "quor": 8590,
      "quel": 8591,
      "quited": 8592,
      "Ġempt": 8593,
      "Ġempha": 8594,
      "Ġeminent": 8595,
      "Ġemulate": 8596,
      "Ġemphat": 8597,
      "Ġsell": 8598,
      "Ġseren": 8599,
      "Ġsept": 8600,
      "Ġselect": 8601,
      "Ġsealed": 8602,
      "Ġseminary": 8603,
      "Ġsequel": 8604,
      "Ġconci": 8605,
      "Ġcontend": 8606,
      "Ġconverse": 8607,
      "Ġconceptions": 8608,
      "Ġconveniences": 8609,
      "Ġconveying": 8610,
      "tonness": 8611,
      "Ġdog": 8612,
      "Ġdoer": 8613,
      "Ġdoat": 8614,
      "Ġdoom": 8615,
      "Ġdoth": 8616,
      "Ġdoings": 8617,
      "Ġdoci": 8618,
      "Ġdoomed": 8619,
      "Ġdoleful": 8620,
      "Ġmock": 8621,
      "Ġcomment": 8622,
      "Ġcomments": 8623,
      "Ġcomtesse": 8624,
      "bless": 8625,
      "bleached": 8626,
      "Ġsaun": 8627,
      "Ġsaves": 8628,
      "Ġsaunder": 8629,
      "Ġsample": 8630,
      "Ġsails": 8631,
      "Ġsacred": 8632,
      "Ġsagacity": 8633,
      "Ġsandwic": 8634,
      "ainable": 8635,
      "Ġjew": 8636,
      "Ġjokes": 8637,
      "Ġnept": 8638,
      "Ġnearest": 8639,
      "Ġharry": 8640,
      "Ġharmon": 8641,
      "Ġharbour": 8642,
      "Ġharboured": 8643,
      "Ġfrau": 8644,
      "Ġfrag": 8645,
      "lfully": 8646,
      "lfering": 8647,
      "pposing": 8648,
      "ppics": 8649,
      "ational": 8650,
      "Ġsting": 8651,
      "Ġstil": 8652,
      "Ġstol": 8653,
      "Ġstab": 8654,
      "Ġstare": 8655,
      "Ġstared": 8656,
      "Ġstars": 8657,
      "Ġstating": 8658,
      "Ġstream": 8659,
      "Ġstroke": 8660,
      "Ġstuck": 8661,
      "Ġstanza": 8662,
      "akened": 8663,
      "Ġmisbe": 8664,
      "Ġmisapp": 8665,
      "essing": 8666,
      "Ġexag": 8667,
      "Ġextend": 8668,
      "Ġexisted": 8669,
      "Ġexhib": 8670,
      "Ġextended": 8671,
      "Ġwhiche": 8672,
      "allop": 8673,
      "rage": 8674,
      "races": 8675,
      "raising": 8676,
      "rapped": 8677,
      "raph": 8678,
      "Ġanything": 8679,
      "icate": 8680,
      "icine": 8681,
      "icising": 8682,
      "icament": 8683,
      "iciating": 8684,
      "ulse": 8685,
      "ulity": 8686,
      "ulations": 8687,
      "ulative": 8688,
      "fever": 8689,
      "feeling": 8690,
      "ferers": 8691,
      "Ġfeet": 8692,
      "Ġfemin": 8693,
      "Ġfeigning": 8694,
      "Ġleather": 8695,
      "Ġlending": 8696,
      "Ġlevity": 8697,
      "Ġleague": 8698,
      "Ġleaned": 8699,
      "geon": 8700,
      "gered": 8701,
      "Ġlot": 8702,
      "Ġloth": 8703,
      "Ġlock": 8704,
      "Ġloser": 8705,
      "Ġlocked": 8706,
      "selfish": 8707,
      "hange": 8708,
      "hanged": 8709,
      "hanced": 8710,
      "Ġmisses": 8711,
      "Ġmisspent": 8712,
      "antic": 8713,
      "antile": 8714,
      "Ġthereabouts": 8715,
      "arto": 8716,
      "artened": 8717,
      "Ġamor": 8718,
      "Ġamounted": 8719,
      "Ġamiableness": 8720,
      "Ġfare": 8721,
      "Ġfacing": 8722,
      "Ġmustered": 8723,
      "orting": 8724,
      "ortant": 8725,
      "ortening": 8726,
      "Ġwheat": 8727,
      "Ġpermission": 8728,
      "Ġperusal": 8729,
      "Ġpermit": 8730,
      "Ġpervert": 8731,
      "Ġalthough": 8732,
      "Ġaladd": 8733,
      "Ġaltar": 8734,
      "Ġshy": 8735,
      "Ġshod": 8736,
      "Ġshine": 8737,
      "Ġship": 8738,
      "Ġshows": 8739,
      "Ġshivering": 8740,
      "Ġshifted": 8741,
      "Ġorphan": 8742,
      "lio": 8743,
      "lived": 8744,
      "liating": 8745,
      "lized": 8746,
      "liked": 8747,
      "libacy": 8748,
      "outed": 8749,
      "Ġmanaged": 8750,
      "Ġmanchest": 8751,
      "Ġmansion": 8752,
      "Ġmania": 8753,
      "Ġmanoeu": 8754,
      "Ġlifted": 8755,
      "Ġlibr": 8756,
      "Ġliquor": 8757,
      "Ġquits": 8758,
      "Ġquaint": 8759,
      "Ġqueen": 8760,
      "Ġqueer": 8761,
      "Ġquadrille": 8762,
      "Ġquarto": 8763,
      "arding": 8764,
      "decl": 8765,
      "deceived": 8766,
      "dearer": 8767,
      "inking": 8768,
      "inkling": 8769,
      "Ġseeking": 8770,
      "Ġelms": 8771,
      "Ġelbow": 8772,
      "urels": 8773,
      "Ġhows": 8774,
      "inder": 8775,
      "indif": 8776,
      "indled": 8777,
      "indicated": 8778,
      "Ġwest": 8779,
      "Ġwestern": 8780,
      "Ġvag": 8781,
      "Ġvoted": 8782,
      "Ġvoc": 8783,
      "Ġvict": 8784,
      "Ġvowed": 8785,
      "Ġvarying": 8786,
      "Ġvessel": 8787,
      "Ġvindicated": 8788,
      "temp": 8789,
      "telling": 8790,
      "teacher": 8791,
      "Ġdish": 8792,
      "Ġdisres": 8793,
      "Ġdishes": 8794,
      "Ġdismay": 8795,
      "Ġdisingen": 8796,
      "Ġdispelled": 8797,
      "Ġdisservice": 8798,
      "Ġdismal": 8799,
      "Ġdisordered": 8800,
      "Ġdisadvant": 8801,
      "Ġdispel": 8802,
      "Ġdisliked": 8803,
      "Ġchil": 8804,
      "Ġchili": 8805,
      "Ġchoose": 8806,
      "Ġchristen": 8807,
      "Ġchimney": 8808,
      "Ġagitate": 8809,
      "Ġagitating": 8810,
      "Ġaggrand": 8811,
      "Ġaggression": 8812,
      "Ġaghast": 8813,
      "mpers": 8814,
      "Ġprefa": 8815,
      "Ġprecl": 8816,
      "Ġpreached": 8817,
      "Ġpretended": 8818,
      "oting": 8819,
      "otes": 8820,
      "otting": 8821,
      "otland": 8822,
      "otism": 8823,
      "othecary": 8824,
      "Ġenab": 8825,
      "Ġenum": 8826,
      "Ġencl": 8827,
      "Ġenig": 8828,
      "Ġenvi": 8829,
      "Ġenem": 8830,
      "Ġenorm": 8831,
      "Ġenlight": 8832,
      "Ġenmity": 8833,
      "Ġennu": 8834,
      "Ġenerget": 8835,
      "Ġenhanced": 8836,
      "Ġcanvass": 8837,
      "Ġwhoever": 8838,
      "Ġwholes": 8839,
      "mentioned": 8840,
      "Ġunab": 8841,
      "Ġunci": 8842,
      "Ġunbe": 8843,
      "Ġunison": 8844,
      "Ġunmod": 8845,
      "Ġunfast": 8846,
      "Ġunimp": 8847,
      "Ġunbid": 8848,
      "Ġunost": 8849,
      "Ġunste": 8850,
      "Ġunbro": 8851,
      "Ġunavo": 8852,
      "Ġunbi": 8853,
      "Ġunkind": 8854,
      "Ġunobjection": 8855,
      "Ġunvarying": 8856,
      "Ġunintell": 8857,
      "Ġunasked": 8858,
      "Ġunceremonious": 8859,
      "Ġunadorned": 8860,
      "Ġunbleached": 8861,
      "Ġunselfish": 8862,
      "Ġunmentioned": 8863,
      "Ġabol": 8864,
      "Ġabide": 8865,
      "Ġabused": 8866,
      "Ġabode": 8867,
      "Ġabdy": 8868,
      "Ġabbot": 8869,
      "Ġabstained": 8870,
      "Ġaffa": 8871,
      "Ġaflo": 8872,
      "Ġproves": 8873,
      "Ġprohib": 8874,
      "Ġproverb": 8875,
      "Ġcaress": 8876,
      "Ġcabb": 8877,
      "Ġcabin": 8878,
      "Ġcavil": 8879,
      "Ġcavill": 8880,
      "Ġpore": 8881,
      "Ġpoore": 8882,
      "Ġpool": 8883,
      "Ġpopl": 8884,
      "Ġpolish": 8885,
      "Ġponds": 8886,
      "Ġpollards": 8887,
      "Ġshoulder": 8888,
      "venness": 8889,
      "Ġgoodly": 8890,
      "Ġgoodhumoured": 8891,
      "Ġgoodnatured": 8892,
      "Ġring": 8893,
      "Ġrow": 8894,
      "Ġrued": 8895,
      "Ġrud": 8896,
      "Ġrained": 8897,
      "Ġrarity": 8898,
      "Ġrises": 8899,
      "Ġrows": 8900,
      "Ġrheum": 8901,
      "Ġrisking": 8902,
      "els": 8903,
      "elingly": 8904,
      "ilight": 8905,
      "ilty": 8906,
      "keys": 8907,
      "ifies": 8908,
      "ifull": 8909,
      "Ġupstairs": 8910,
      "Ġupbraid": 8911,
[...]
