{
  "version": "1.0",
  "truncation": null,
  "padding": null,
  "added_tokens": [
    {
      "id": 0,
      "content": "<pad>",
      "single_word": false,
      "lstrip": false,
      "rstrip": false,
      "normalized": false,
      "special": true
    },
    {
      "id": 1,
      "content": "<s>",
      "single_word": false,
      "lstrip": false,
      "rstrip": false,
      "normalized": false,
      "special": true
    },
    {
      "id": 2,
      "content": "</s>",
      "single_word": false,
      "lstrip": false,
      "rstrip": false,
      "normalized": false,
      "special": true
    },
    {
      "id": 3,
      "content": "<unk>",
      "single_word": false,
      "lstrip": false,
      "rstrip": false,
      "normalized": false,
      "special": true
    },
    {
      "id": 4,
      "content": "<mask>",
      "single_word": false,
      "lstrip": false,
      "rstrip": false,
      "normalized": false,
      "special": true
    }
  ],
  "normalizer": {
    "type": "Sequence",
    "normalizers": [
      {
        "type": "Lowercase"
      }
    ]
  },
  "pre_tokenizer": {
    "type": "ByteLevel",
    "add_prefix_space": true,
    "trim_offsets": true,
    "use_regex": true
  },
  "post_processor": null,
  "decoder": {
    "type": "ByteLevel",
    "add_prefix_space": true,
    "trim_offsets": true,
    "use_regex": true
  },
  "model": {
    "type": "BPE",
    "dropout": null,
    "unk_token": null,
    "continuing_subword_prefix": null,
    "end_of_word_suffix": null,
    "fuse_unk": false,
    "byte_fallback": false,
    "ignore_merges": false,
    "vocab": {
      "<pad>": 0,
      "<s>": 1,
      "</s>": 2,
      "<unk>": 3,
      "<mask>": 4,
      "!": 5,
      "\"": 6,
      "#": 7,
      "$": 8,
      "%": 9,
      "&": 10,
      "'": 11,
      "(": 12,
      ")": 13,
      "*": 14,
      "+": 15,
      ",": 16,
      "-": 17,
      ".": 18,
      "/": 19,
      "0": 20,
      "1": 21,
      "2": 22,
      "3": 23,
      "4": 24,
      "5": 25,
      "6": 26,
      "7": 27,
      "8": 28,
      "9": 29,
      ":": 30,
      ";": 31,
      "<": 32,
      "=": 33,
      ">": 34,
      "?": 35,
      "@": 36,
      "A": 37,
      "B": 38,
      "C": 39,
      "D": 40,
      "E": 41,
      "F": 42,
      "G": 43,
      "H": 44,
      "I": 45,
      "J": 46,
      "K": 47,
      "L": 48,
      "M": 49,
      "N": 50,
      "O": 51,
      "P": 52,
      "Q": 53,
      "R": 54,
      "S": 55,
      "T": 56,
      "U": 57,
      "V": 58,
      "W": 59,
      "X": 60,
      "Y": 61,
      "Z": 62,
      "[": 63,
      "\\": 64,
      "]": 65,
      "^": 66,
      "_": 67,
      "`": 68,
      "a": 69,
      "b": 70,
      "c": 71,
      "d": 72,
      "e": 73,
      "f": 74,
      "g": 75,
      "h": 76,
      "i": 77,
      "j": 78,
      "k": 79,
      "l": 80,
      "m": 81,
      "n": 82,
      "o": 83,
      "p": 84,
      "q": 85,
      "r": 86,
      "s": 87,
      "t": 88,
      "u": 89,
      "v": 90,
      "w": 91,
      "x": 92,
      "y": 93,
      "z": 94,
      "{": 95,
      "|": 96,
      "}": 97,
      "~": 98,
      "¡": 99,
      "¢": 100,
      "£": 101,
      "¤": 102,
      "¥": 103,
      "¦": 104,
      "§": 105,
      "¨": 106,
      "©": 107,
      "ª": 108,
      "«": 109,
      "¬": 110,
      "®": 111,
      "¯": 112,
      "°": 113,
      "±": 114,
      "²": 115,
      "³": 116,
      "´": 117,
      "µ": 118,
      "¶": 119,
      "·": 120,
      "¸": 121,
      "¹": 122,
      "º": 123,
      "»": 124,
      "¼": 125,
      "½": 126,
      "¾": 127,
      "¿": 128,
      "À": 129,
      "Á": 130,
      "Â": 131,
      "Ã": 132,
      "Ä": 133,
      "Å": 134,
      "Æ": 135,
      "Ç": 136,
      "È": 137,
      "É": 138,
      "Ê": 139,
      "Ë": 140,
      "Ì": 141,
      "Í": 142,
      "Î": 143,
      "Ï": 144,
      "Ð": 145,
      "Ñ": 146,
      "Ò": 147,
      "Ó": 148,
      "Ô": 149,
      "Õ": 150,
      "Ö": 151,
      "×": 152,
      "Ø": 153,
      "Ù": 154,
      "Ú": 155,
      "Û": 156,
      "Ü": 157,
      "Ý": 158,
      "Þ": 159,
      "ß": 160,
      "à": 161,
      "á": 162,
      "â": 163,
      "ã": 164,
      "ä": 165,
      "å": 166,
      "æ": 167,
      "ç": 168,
      "è": 169,
      "é": 170,
      "ê": 171,
      "ë": 172,
      "ì": 173,
      "í": 174,
      "î": 175,
      "ï": 176,
      "ð": 177,
      "ñ": 178,
      "ò": 179,
      "ó": 180,
      "ô": 181,
      "õ": 182,
      "ö": 183,
      "÷": 184,
      "ø": 185,
      "ù": 186,
      "ú": 187,
      "û": 188,
      "ü": 189,
      "ý": 190,
      "þ": 191,
      "ÿ": 192,
      "Ā": 193,
      "ā": 194,
      "Ă": 195,
      "ă": 196,
      "Ą": 197,
      "ą": 198,
      "Ć": 199,
      "ć": 200,
      "Ĉ": 201,
      "ĉ": 202,
      "Ċ": 203,
      "ċ": 204,
      "Č": 205,
      "č": 206,
      "Ď": 207,
      "ď": 208,
      "Đ": 209,
      "đ": 210,
      "Ē": 211,
      "ē": 212,
      "Ĕ": 213,
      "ĕ": 214,
      "Ė": 215,
      "ė": 216,
      "Ę": 217,
      "ę": 218,
      "Ě": 219,
      "ě": 220,
      "Ĝ": 221,
      "ĝ": 222,
      "Ğ": 223,
      "ğ": 224,
      "Ġ": 225,
      "ġ": 226,
      "Ģ": 227,
      "ģ": 228,
      "Ĥ": 229,
      "ĥ": 230,
      "Ħ": 231,
      "ħ": 232,
      "Ĩ": 233,
      "ĩ": 234,
      "Ī": 235,
      "ī": 236,
      "Ĭ": 237,
      "ĭ": 238,
      "Į": 239,
      "į": 240,
      "İ": 241,
      "ı": 242,
      "Ĳ": 243,
      "ĳ": 244,
      "Ĵ": 245,
      "ĵ": 246,
      "Ķ": 247,
      "ķ": 248,
      "ĸ": 249,
      "Ĺ": 250,
      "ĺ": 251,
      "Ļ": 252,
      "ļ": 253,
      "Ľ": 254,
      "ľ": 255,
      "Ŀ": 256,
      "ŀ": 257,
      "Ł": 258,
      "ł": 259,
      "Ń": 260,
      "Ġt": 261,
      "he": 262,
      "Ġa": 263,
      "in": 264,
      "Ġs": 265,
      "Ġw": 266,
      "re": 267,
      "Ġo": 268,
      "Ġm": 269,
      "ha": 270,
      "Ġthe": 271,
      "Ġb": 272,
      "ou": 273,
      "er": 274,
      "Ġi": 275,
      "nd": 276,
      "Ġto": 277,
      "Ġc": 278,
      "Ġf": 279,
      "en": 280,
      "ed": 281,
      "on": 282,
      "Ġhe": 283,
      "ing": 284,
      "Ġand": 285,
      "Ġof": 286,
      "Ġd": 287,
      "Ġn": 288,
      "is": 289,
      "or": 290,
      "Ġha": 291,
      "ll": 292,
      "it": 293,
      "Ġbe": 294,
      "Ġp": 295,
      "as": 296,
      "Ġin": 297,
      "Ġh": 298,
      "ar": 299,
      "le": 300,
      "an": 301,
      "Ġe": 302,
      "at": 303,
      "Ġno": 304,
      "Ġher": 305,
      "om": 306,
      "es": 307,
      "Ġl": 308,
      "Ġy": 309,
      "Ġg": 310,
      "hat": 311,
      "ld": 312,
      "ly": 313,
      "ve": 314,
      "ver": 315,
      "Ġyou": 316,
      "Ġwas": 317,
      "Ġit": 318,
      "st": 319,
      "ĠĊ": 320,
      "Ġnot": 321,
      "Ġshe": 322,
      "Ġth": 323,
      "ce": 324,
      "se": 325,
      "ut": 326,
      "Ġre": 327,
      "ch": 328,
      "ent": 329,
      "ion": 330,
      "gh": 331,
      "Ġfor": 332,
      "Ġthat": 333,
      "Ġas": 334,
      "ould": 335,
      "ay": 336,
      "Ġon": 337,
      "ow": 338,
      "ith": 339,
      "im": 340,
      "Ġhad": 341,
      "et": 342,
      "Ġwe": 343,
      "Ġwith": 344,
      "id": 345,
      "ir": 346,
      "Ġan": 347,
      "her": 348,
      "ct": 349,
      "Ġwh": 350,
      "âĢ": 351,
      "Ġsu": 352,
      "ri": 353,
      "Ġu": 354,
      "ght": 355,
      "Ġat": 356,
      "al": 357,
      "Ġmr": 358,
      "very": 359,
      "Ġhis": 360,
      "Ġso": 361,
      "Ġbut": 362,
      "ro": 363,
      "Ġis": 364,
      "Ġhave": 365,
      "ter": 366,
      "ad": 367,
      "Ġ\"": 368,
      "ill": 369,
      "Ġk": 370,
      "li": 371,
      "oo": 372,
      "ur": 373,
      "Ġmo": 374,
      "ain": 375,
      "pe": 376,
      "Ġcon": 377,
      "Ġmu": 378,
      "Ġall": 379,
      "'s": 380,
      "Ġhim": 381,
      "Ġse": 382,
      "Ġme": 383,
      "ab": 384,
      "Ġde": 385,
      "am": 386,
      "Ġmy": 387,
      "qu": 388,
      "Ġvery": 389,
      "Ġst": 390,
      "ther": 391,
      "Ġwhi": 392,
      "pp": 393,
      "Ġne": 394,
      "lf": 395,
      "Ġcom": 396,
      "Ġdo": 397,
      "ation": 398,
      "Ġcould": 399,
      "Ġby": 400,
      "ra": 401,
      "ss": 402,
      "Ġfr": 403,
      "ak": 404,
      "ess": 405,
      "Ġex": 406,
      "ĠâĢ": 407,
      "ĠâĢľ": 408,
      "Ġj": 409,
      "âĢĿ": 410,
      "Ġwould": 411,
      "Ġle": 412,
      "Ġbeen": 413,
      "red": 414,
      "Ġkn": 415,
      "Ġwhich": 416,
      "all": 417,
      "Ġwill": 418,
      "Ġfe": 419,
      "ort": 420,
      "Ġwere": 421,
      "fe": 422,
      "art": 423,
      "Ġfrom": 424,
      "Ġsa": 425,
      "ge": 426,
      "our": 427,
      "Ġthey": 428,
      "Ġwhe": 429,
      "ul": 430,
      "self": 431,
      "ic": 432,
      "ight": 433,
      "Ġmis": 434,
      "ant": 435,
      "Ġany": 436,
      "han": 437,
      "Ġmrs": 438,
      "ome": 439,
      ".\"": 440,
      "Ġam": 441,
      "Ġsh": 442,
      "ard": 443,
      "ood": 444,
      "Ġthere": 445,
      "Ġthis": 446,
      "ot": 447,
      "est": 448,
      "Ġli": 449,
      "Ġwhat": 450,
      "hing": 451,
      "Ġor": 452,
      "ann": 453,
      "Ġthem": 454,
      "Ġal": 455,
      "ind": 456,
      "Ġyour": 457,
      "Ġun": 458,
      "able": 459,
      "Ġmore": 460,
      "ough": 461,
      "out": 462,
      "Ġaf": 463,
      "Ġsee": 464,
      "Ġwho": 465,
      "Ġdis": 466,
      "itt": 467,
      "Ġmiss": 468,
      "ure": 469,
      "ate": 470,
      "Ġper": 471,
      "te": 472,
      "ous": 473,
      "Ġab": 474,
      "Ġmust": 475,
      "Ġknow": 476,
      "Ġthan": 477,
      "Ġv": 478,
      "Ġone": 479,
      "and": 480,
      "Ġsuch": 481,
      "il": 482,
      "Ġpre": 483,
      "Ġtheir": 484,
      "ment": 485,
      "Ġag": 486,
      "Ġmuch": 487,
      "Ġwhen": 488,
      "Ġpro": 489,
      "mp": 490,
      "Ġare": 491,
      "Ġsaid": 492,
      "Ġr": 493,
      "Ġhow": 494,
      "ong": 495,
      "Ġen": 496,
      "Ġqu": 497,
      "ink": 498,
      "reat": 499,
      "ather": 500,
      "ance": 501,
      "Ġif": 502,
      "one": 503,
      "ven": 504,
      "ore": 505,
      "ry": 506,
      ".âĢĿ": 507,
      "Ġevery": 508,
      "us": 509,
      "Ġthink": 510,
      "nt": 511,
      "ord": 512,
      "ved": 513,
      "Ġman": 514,
      "ive": 515,
      "wn": 516,
      "ity": 517,
      "ke": 518,
      "mm": 519,
      "Ġac": 520,
      "ite": 521,
      "de": 522,
      "Ġmar": 523,
      "Ġpo": 524,
      "ast": 525,
      "ert": 526,
      "Ġpart": 527,
      "Ġonly": 528,
      "if": 529,
      "ving": 530,
      "Ġad": 531,
      "Ġshould": 532,
      "end": 533,
      "Ġhar": 534,
      "ond": 535,
      "ake": 536,
      "ame": 537,
      "ook": 538,
      "fore": 539,
      "way": 540,
      "Ġtim": 541,
      "ine": 542,
      "ence": 543,
      "Ġup": 544,
      "ady": 545,
      "Ġgo": 546,
      "ction": 547,
      "ally": 548,
      "el": 549,
      "ol": 550,
      "Ġdid": 551,
      "ne": 552,
      "Ġsp": 553,
      "Ġsome": 554,
      "Ġgood": 555,
      "ac": 556,
      "Ġother": 557,
      "Ġbeing": 558,
      "are": 559,
      "Ġnow": 560,
      "Ġgreat": 561,
      "ought": 562,
      "Ġsay": 563,
      "tter": 564,
      "Ġel": 565,
      "Ġwell": 566,
      "alk": 567,
      "Ġtime": 568,
      "Ġtoo": 569,
      "age": 570,
      "Ġown": 571,
      "Ġnever": 572,
      "Ġcomp": 573,
      "pt": 574,
      "Ġint": 575,
      "Ġfa": 576,
      "ings": 577,
      "Ġlitt": 578,
      "Ġhas": 579,
      "Ġlittle": 580,
      "Ġmight": 581,
      "Ġpl": 582,
      ",\"": 583,
      "Ġsha": 584,
      "ness": 585,
      "ell": 586,
      "leas": 587,
      "ust": 588,
      "os": 589,
      "Ġfri": 590,
      "Ġherself": 591,
      "Ġcan": 592,
      "Ġch": 593,
      "ose": 594,
      "au": 595,
      "Ġagain": 596,
      "Ġob": 597,
      "Ġlook": 598,
      "Ġhapp": 599,
      "Ġafter": 600,
      "pect": 601,
      "Ġbefore": 602,
      "ble": 603,
      "ire": 604,
      "ouse": 605,
      "ag": 606,
      "Ġfriend": 607,
      "Ġus": 608,
      "Ġho": 609,
      "Ġcha": 610,
      "mma": 611,
      "ward": 612,
      "Ġtw": 613,
      "urn": 614,
      "hed": 615,
      "Ġfeel": 616,
      "ound": 617,
      "Ġpleas": 618,
      "Ġlo": 619,
      "Ġemma": 620,
      "ley": 621,
      "ish": 622,
      "Ġlong": 623,
      "ie": 624,
      "ress": 625,
      "th": 626,
      "Ġeven": 627,
      "ree": 628,
      "ng": 629,
      "Ġday": 630,
      "cy": 631,
      "ru": 632,
      "Ġnothing": 633,
      "Ġlike": 634,
      "Ġthought": 635,
      "Ġimp": 636,
      "ect": 637,
      "ful": 638,
      "ade": 639,
      "ily": 640,
      "Ġsoon": 641,
      "Ġmost": 642,
      "Ġmay": 643,
      "Ġabout": 644,
      "Ġout": 645,
      "ies": 646,
      "Ġcons": 647,
      "Ġro": 648,
      "Ġres": 649,
      "ice": 650,
      "ious": 651,
      "Ġfir": 652,
      "od": 653,
      "Ġlady": 654,
      "Ġthough": 655,
      "med": 656,
      "ister": 657,
      "Ġquite": 658,
      "Ġfirst": 659,
      "Ġwithout": 660,
      "Ġshall": 661,
      "Ġsister": 662,
      "ever": 663,
      "Ġthing": 664,
      "ers": 665,
      "Ġspe": 666,
      "Ġatt": 667,
      "Ġtwo": 668,
      "ise": 669,
      "Ġund": 670,
      "Ġrem": 671,
      "Ġsm": 672,
      "cl": 673,
      "Ġrep": 674,
      "um": 675,
      "ton": 676,
      "Ġyoung": 677,
      "Ġeli": 678,
      "Ġmade": 679,
      "raw": 680,
      "Ġdear": 681,
      "we": 682,
      "eth": 683,
      "Ġinto": 684,
      "ach": 685,
      "ars": 686,
      "ass": 687,
      "ford": 688,
      "ible": 689,
      "Ġever": 690,
      "Ġeliz": 691,
      "Ġar": 692,
      "Ġwor": 693,
      "Ġover": 694,
      "ject": 695,
      "Ġgr": 696,
      "un": 697,
      "ten": 698,
      "ple": 699,
      "riet": 700,
      "Ġsupp": 701,
      "per": 702,
      "Ġjust": 703,
      "Ġco": 704,
      "ways": 705,
      "ig": 706,
      "Ġdes": 707,
      "lie": 708,
      "abeth": 709,
      "Ġalways": 710,
      "ck": 711,
      "Ġpr": 712,
      "Ġelizabeth": 713,
      "Ġap": 714,
      "ide": 715,
      "own": 716,
      "Ġmake": 717,
      "ried": 718,
      "ount": 719,
      "ody": 720,
      "Ġent": 721,
      "Ġthen": 722,
      "ertain": 723,
      "fort": 724,
      "ning": 725,
      "Ġunder": 726,
      "Ġsure": 727,
      "Ġbeg": 728,
      "Ġinde": 729,
      "ane": 730,
      "Ġoff": 731,
      "Ġret": 732,
      "Ġwant": 733,
      "Ġour": 734,
      "Ġacc": 735,
      "anny": 736,
      "Ġcont": 737,
      "ged": 738,
      "iness": 739,
      "Ġtalk": 740,
      "ention": 741,
      "Ġlast": 742,
      "Ġmor": 743,
      "Ġletter": 744,
      "ps": 745,
      "icul": 746,
      "int": 747,
      "Ġhouse": 748,
      "Ġfanny": 749,
      "Ġway": 750,
      "Ġpres": 751,
      "ced": 752,
      "Ġop": 753,
      "Ġed": 754,
      "led": 755,
      "Ġfather": 756,
      "fa": 757,
      "Ġsom": 758,
      "Ġbelie": 759,
      "Ġsc": 760,
      "Ġexp": 761,
      "Ġaway": 762,
      "Ġhimself": 763,
      "mb": 764,
      "Ġjo": 765,
      "fect": 766,
      "Ġsir": 767,
      "Ġgive": 768,
      "Ġkind": 769,
      "ty": 770,
      "Ġcome": 771,
      "Ġhope": 772,
      ",âĢĿ": 773,
      "ci": 774,
      "Ġsomet": 775,
      "Ġbetter": 776,
      "Ġhaving": 777,
      "ves": 778,
      "?\"": 779,
      "Ġinte": 780,
      "Ġhowever": 781,
      "Ġharriet": 782,
      "Ġmother": 783,
      "Ġpers": 784,
      "ace": 785,
      "Ġsat": 786,
      "ated": 787,
      "Ġass": 788,
      "Ġhere": 789,
      "Ġjane": 790,
      "Ġbr": 791,
      "fere": 792,
      "cc": 793,
      "get": 794,
      "Ġmom": 795,
      "Ġmoment": 796,
      "ary": 797,
      "Ġsub": 798,
      "igh": 799,
      "Ġbro": 800,
      "Ġpe": 801,
      "Ġwalk": 802,
      "Ġrec": 803,
      "Ġdif": 804,
      "Ġreturn": 805,
      "Ġmany": 806,
      "Ġappe": 807,
      "Ġmean": 808,
      "annot": 809,
      "light": 810,
      "Ġindeed": 811,
      "Ġcannot": 812,
      "Ġroom": 813,
      "ave": 814,
      "Ġwest": 815,
      "ared": 816,
      "lt": 817,
      "Ġits": 818,
      "orth": 819,
      "Ġtr": 820,
      "aint": 821,
      "ud": 822,
      "Ġfam": 823,
      "Ġchar": 824,
      "Ġgi": 825,
      "Ġupon": 826,
      "Ġknight": 827,
      "Ġhand": 828,
      "ied": 829,
      "Ġreg": 830,
      "Ġmind": 831,
      "Ġlove": 832,
      "ined": 833,
      "Ġweston": 834,
      "Ġknightley": 835,
      "rawford": 836,
      "Ġcrawford": 837,
      "Ġhear": 838,
      "Ġwish": 839,
      "Ġcl": 840,
      "Ġwr": 841,
      "ull": 842,
      "Ġhome": 843,
      "Ġenough": 844,
      "Ġmann": 845,
      "Ġdar": 846,
      "Ġfar": 847,
      "yes": 848,
      "Ġspeak": 849,
      "Ġgl": 850,
      "Ġeng": 851,
      "Ġend": 852,
      "oll": 853,
      "Ġgen": 854,
      "Ġri": 855,
      "ions": 856,
      "Ġfelt": 857,
      "Ġcertain": 858,
      "les": 859,
      "Ġvis": 860,
      "ild": 861,
      "ither": 862,
      "Ġapp": 863,
      "ations": 864,
      "Ġdist": 865,
      "Ġca": 866,
      "Ġposs": 867,
      "Ġwhile": 868,
      "Ġwom": 869,
      "Ġset": 870,
      "Ġmat": 871,
      "ist": 872,
      "ack": 873,
      "thing": 874,
      "ately": 875,
      "mo": 876,
      "arly": 877,
      "Ġdone": 878,
      "Ġpass": 879,
      "Ġexpect": 880,
      "Ġpresent": 881,
      "Ġseemed": 882,
      "Ġelton": 883,
      "Ġvisit": 884,
      "ens": 885,
      "Ġword": 886,
      "Ġfew": 887,
      "Ġheart": 888,
      "Ġgener": 889,
      "itu": 890,
      "Ġstill": 891,
      "Ġacqu": 892,
      "Ġgoing": 893,
      "ian": 894,
      "ished": 895,
      "Ġind": 896,
      "Ġreally": 897,
      "Ġpleasure": 898,
      "aught": 899,
      "enn": 900,
      "Ġtell": 901,
      "Ġnor": 902,
      "ick": 903,
      "atherine": 904,
      "wards": 905,
      "ft": 906,
      "Ġcame": 907,
      "Ġbrother": 908,
      "Ġocc": 909,
      "Ġte": 910,
      "Ġadm": 911,
      "iam": 912,
      "Ġfamily": 913,
      "most": 914,
      "Ġcatherine": 915,
      "Ġbec": 916,
      "Ġsame": 917,
      "Ġsomething": 918,
      "ince": 919,
      "Ġdarcy": 920,
      "bt": 921,
      "Ġadd": 922,
      "day": 923,
      "Ġyet": 924,
      "Ġwent": 925,
      "Ġhappy": 926,
      "oy": 927,
      "Ġdoes": 928,
      "Ġheard": 929,
      "ces": 930,
      "sh": 931,
      "Ġrather": 932,
      "Ġfound": 933,
      "haps": 934,
      "Ġinf": 935,
      "ably": 936,
      "Ġinc": 937,
      "Ġmari": 938,
      "gether": 939,
      "Ġcall": 940,
      "Ġser": 941,
      "Ġcomfort": 942,
      "cept": 943,
      "Ġtake": 944,
      "Ġhalf": 945,
      "osed": 946,
      "Ġwhere": 947,
      "Ġmorning": 948,
      "less": 949,
      "Ġye": 950,
      "ep": 951,
      "lied": 952,
      "Ġfeelings": 953,
      "Ġhour": 954,
      "Ġcomm": 955,
      "Ġwood": 956,
      "cei": 957,
      "Ġsur": 958,
      "Ġplace": 959,
      "Ġfair": 960,
      "other": 961,
      "Ġsubject": 962,
      "Ġsaw": 963,
      "Ġmyself": 964,
      "Ġconf": 965,
      "Ġfind": 966,
      "Ġdown": 967,
      "ret": 968,
      "Ġcar": 969,
      "inor": 970,
      "oubt": 971,
      "ield": 972,
      "und": 973,
      "Ġask": 974,
      "Ġtill": 975,
      "Ġbat": 976,
      "lic": 977,
      "rest": 978,
      "Ġanother": 979,
      "Ġthr": 980,
      "Ġbl": 981,
      "Ġbelieve": 982,
      "me": 983,
      "Ġelinor": 984,
      "ider": 985,
      "Ġparticul": 986,
      "Ġev": 987,
      "ause": 988,
      "Ġwoman": 989,
      "fection": 990,
      "Ġinst": 991,
      "its": 992,
      "Ġunderst": 993,
      "Ġacquaint": 994,
      "Ġbet": 995,
      "ason": 996,
      "house": 997,
      "Ġless": 998,
      "Ġsince": 999,
      "Ġalmost": 1000,
      "Ġperhaps": 1001,
      "unt": 1002,
      "Ġevening": 1003,
      "Ġge": 1004,
      "ract": 1005,
      "Ġnat": 1006,
      "Ġget": 1007,
      "riage": 1008,
      "Ġdelight": 1009,
      "Ġgeor": 1010,
      "body": 1011,
      "Ġhard": 1012,
      "Ġcour": 1013,
      "ank": 1014,
      "Ġans": 1015,
      "Ġcol": 1016,
      "Ġconsider": 1017,
      "Ġgent": 1018,
      "edi": 1019,
      "Ġsus": 1020,
      "Ġpoor": 1021,
      "Ġobli": 1022,
      "Ġadv": 1023,
      "?âĢĿ": 1024,
      "but": 1025,
      "oth": 1026,
      "ix": 1027,
      "Ġsec": 1028,
      "Ġsatis": 1029,
      "Ġchan": 1030,
      "Ġtak": 1031,
      "you": 1032,
      "Ġimm": 1033,
      "Ġspir": 1034,
      "Ġdoubt": 1035,
      "Ġwoodhouse": 1036,
      "Ġnew": 1037,
      "Ġturn": 1038,
      "field": 1039,
      "Ġthose": 1040,
      "Ġpri": 1041,
      "Ġstr": 1042,
      "ened": 1043,
      "cess": 1044,
      "ople": 1045,
      "ser": 1046,
      "Ġboth": 1047,
      "vour": 1048,
      "Ġworld": 1049,
      "inu": 1050,
      "Ġide": 1051,
      "Ġwhom": 1052,
      "Ġleft": 1053,
      "ew": 1054,
      "ase": 1055,
      "Ġhen": 1056,
      "Ġfort": 1057,
      "Ġaffection": 1058,
      "Ġinterest": 1059,
      "Ġpeople": 1060,
      "Ġref": 1061,
      "ctly": 1062,
      "Ġtogether": 1063,
      "Ġ(": 1064,
      "Ġbest": 1065,
      "iana": 1066,
      "Ġrest": 1067,
      "giana": 1068,
      "Ġdisp": 1069,
      "Ġread": 1070,
      "Ġgeorgiana": 1071,
      "Ġunc": 1072,
      "Ġimmedi": 1073,
      "anne": 1074,
      "Ġdaught": 1075,
      "Ġinv": 1076,
      "Ġhigh": 1077,
      "Ġperson": 1078,
      "arm": 1079,
      "worth": 1080,
      "ang": 1081,
      "urch": 1082,
      "Ġcontinu": 1083,
      "Ġknew": 1084,
      "Ġparty": 1085,
      "ition": 1086,
      "Ġdet": 1087,
      "Ġleast": 1088,
      "Ġra": 1089,
      "Ġmarianne": 1090,
      "ired": 1091,
      "Ġcertainly": 1092,
      "Ġill": 1093,
      "Ġthree": 1094,
      "Ġreplied": 1095,
      "owed": 1096,
      "Ġlooked": 1097,
      "iet": 1098,
      "the": 1099,
      "Ġonce": 1100,
      "Ġchurch": 1101,
      "ff": 1102,
      "Ġright": 1103,
      "ip": 1104,
      "Ġext": 1105,
      "Ġperfect": 1106,
      "ween": 1107,
      "Ġgeneral": 1108,
      "nce": 1109,
      "ek": 1110,
      "land": 1111,
      "Ġanne": 1112,
      "Ġchild": 1113,
      "oh": 1114,
      "Ġatte": 1115,
      "Ġgentle": 1116,
      "irl": 1117,
      "Ġwhole": 1118,
      "Ġoften": 1119,
      "vers": 1120,
      "Ġke": 1121,
      "Ġmanner": 1122,
      "Ġbetween": 1123,
      "irc": 1124,
      "Ġattention": 1125,
      "Ġsurp": 1126,
      "Ġtold": 1127,
      "Ġshort": 1128,
      "Ġact": 1129,
      "Ġdiffere": 1130,
      "Ġback": 1131,
      "Ġreason": 1132,
      "ained": 1133,
      "Ġcount": 1134,
      "Ġfoll": 1135,
      "Ġgirl": 1136,
      "Ġseen": 1137,
      "Ġopin": 1138,
      "Ġcare": 1139,
      "onel": 1140,
      "Ġthese": 1141,
      "ense": 1142,
      "Ġlife": 1143,
      "Ġappear": 1144,
      "Ġunderstand": 1145,
      "Ġim": 1146,
      "Ġyes": 1147,
      "row": 1148,
      "ting": 1149,
      "mber": 1150,
      "use": 1151,
      "ught": 1152,
      "Ġgone": 1153,
      "Ġspo": 1154,
      "Ġfriends": 1155,
      "Ġable": 1156,
      "Ġsuppose": 1157,
      "ility": 1158,
      "well": 1159,
      "erm": 1160,
      "Ġhappiness": 1161,
      "iv": 1162,
      "ceed": 1163,
      "Ġaunt": 1164,
      "ceived": 1165,
      "Ġcolonel": 1166,
      "xt": 1167,
      "Ġold": 1168,
      "no": 1169,
      "ured": 1170,
      "Ġmeet": 1171,
      "nded": 1172,
      "Ġcirc": 1173,
      "Ġdisc": 1174,
      "Ġlu": 1175,
      "ised": 1176,
      "du": 1177,
      "ered": 1178,
      "Ġequ": 1179,
      "Ġdeal": 1180,
      "Ġbody": 1181,
      "will": 1182,
      "Ġcompan": 1183,
      "Ġaccount": 1184,
      "Ġmin": 1185,
      "ign": 1186,
      "ins": 1187,
      "Ġobser": 1188,
      "Ġnext": 1189,
      "Ġagree": 1190,
      "Ġidea": 1191,
      "ner": 1192,
      "Ġought": 1193,
      "Ġweek": 1194,
      "Ġform": 1195,
      "man": 1196,
      "Ġtherefore": 1197,
      "!\"": 1198,
      "ingley": 1199,
      "Ġlet": 1200,
      "Ġhop": 1201,
      "Ġbingley": 1202,
      "Ġseem": 1203,
      "Ġimag": 1204,
      "Ġfrank": 1205,
      "ue": 1206,
      "Ġcried": 1207,
      "ited": 1208,
      "vi": 1209,
      "Ġput": 1210,
      "sel": 1211,
      "ual": 1212,
      "Ġgiven": 1213,
      "Ġdire": 1214,
      "Ġpossible": 1215,
      "Ġstay": 1216,
      "Ġminut": 1217,
      "Ġglad": 1218,
      "Ġprom": 1219,
      "Ġwond": 1220,
      "Ġcourse": 1221,
      "ney": 1222,
      "rove": 1223,
      "Ġgu": 1224,
      "itty": 1225,
      "fax": 1226,
      "Ġthrough": 1227,
      "Ġside": 1228,
      "Ġfairfax": 1229,
      "Ġimmediately": 1230,
      "dd": 1231,
      "Ġgra": 1232,
      "Ġhands": 1233,
      "Ġche": 1234,
      "mpt": 1235,
      "Ġmary": 1236,
      "Ġelse": 1237,
      "Ġinter": 1238,
      "Ġexpress": 1239,
      "hes": 1240,
      "Ġwilliam": 1241,
      "Ġhardly": 1242,
      "Ġchurchill": 1243,
      "Ġtowards": 1244,
      "ances": 1245,
      "Ġprev": 1246,
      "Ġbegan": 1247,
      "hn": 1248,
      "ram": 1249,
      "ark": 1250,
      "Ġjohn": 1251,
      "wer": 1252,
      "Ġwi": 1253,
      "Ġacquaintance": 1254,
      "Ġopinion": 1255,
      "Ġeach": 1256,
      "iment": 1257,
      "Ġleave": 1258,
      "Ġabs": 1259,
      "ern": 1260,
      "Ġpa": 1261,
      "oice": 1262,
      "Ġkitty": 1263,
      "Ġrespect": 1264,
      "ently": 1265,
      "Ġanything": 1266,
      "Ġdin": 1267,
      "Ġpret": 1268,
      "Ġprop": 1269,
      "Ġhenry": 1270,
      "Ġcoming": 1271,
      "Ġedward": 1272,
      "Ġobliged": 1273,
      "Ġpoint": 1274,
      "Ġsor": 1275,
      "Ġopp": 1276,
      "Ġcapt": 1277,
      "selves": 1278,
      "Ġsort": 1279,
      "Ġbenn": 1280,
      "Ġothers": 1281,
      "Ġanswer": 1282,
      "Ġbert": 1283,
      "Ġspirits": 1284,
      "Ġfull": 1285,
      "Ġcharact": 1286,
      "Ġcous": 1287,
      "ower": 1288,
      "ial": 1289,
      "Ġmarry": 1290,
      "Ġbertram": 1291,
      "Ġfl": 1292,
      "ash": 1293,
      "Ġknown": 1294,
      "asion": 1295,
      "Ġsent": 1296,
      "Ġsil": 1297,
      "Ġwife": 1298,
      "Ġbennet": 1299,
      "be": 1300,
      "Ġdaughter": 1301,
      "ib": 1302,
      "Ġbus": 1303,
      "Ġanx": 1304,
      "Ġwonder": 1305,
      "Ġwhether": 1306,
      "Ġresol": 1307,
      "Ġeither": 1308,
      "Ġmus": 1309,
      "Ġjud": 1310,
      "Ġeyes": 1311,
      "ile": 1312,
      "Ġmak": 1313,
      "Ġgave": 1314,
      "ingly": 1315,
      "ided": 1316,
      "Ġstre": 1317,
      "Ġseeing": 1318,
      "ult": 1319,
      "Ġfavour": 1320,
      "Ġcompl": 1321,
      "Ġdays": 1322,
      "Ġarri": 1323,
      "Ġcaptain": 1324,
      "aut": 1325,
      "Ġyears": 1326,
      "Ġdre": 1327,
      "Ġdec": 1328,
      "Ġlonger": 1329,
      "mund": 1330,
      "Ġcle": 1331,
      "ory": 1332,
      "Ġrel": 1333,
      "ors": 1334,
      "Ġbrought": 1335,
      "Ġtru": 1336,
      "Ġsens": 1337,
      "Ġconc": 1338,
      "Ġpassed": 1339,
      "aim": 1340,
      "Ġste": 1341,
      "Ġedmund": 1342,
      "Ġsmall": 1343,
      "Ġcircum": 1344,
      "ondon": 1345,
      "Ġwa": 1346,
      "Ġlondon": 1347,
      "iting": 1348,
      "Ġprob": 1349,
      "Ġsitu": 1350,
      "Ġconvers": 1351,
      "Ġdiff": 1352,
      "ren": 1353,
      "itation": 1354,
      "Ġagainst": 1355,
      "Ġcircumst": 1356,
      "Ġsuff": 1357,
      "Ġtook": 1358,
      "Ġhel": 1359,
      "Ġname": 1360,
      "Ġuse": 1361,
      "Ġrus": 1362,
      "orm": 1363,
      "Ġnecess": 1364,
      "ments": 1365,
      "app": 1366,
      "Ġpur": 1367,
      "Ġreme": 1368,
      "Ġmatter": 1369,
      "Ġbeaut": 1370,
      "Ġbecause": 1371,
      "Ġdeterm": 1372,
      "err": 1373,
      "Ġperfectly": 1374,
      "Ġsurpr": 1375,
      "Ġcharacter": 1376,
      "val": 1377,
      "Ġfit": 1378,
      "Ġhon": 1379,
      "Ġeas": 1380,
      "Ġopen": 1381,
      "Ġwis": 1382,
      "Ġplay": 1383,
      "Ġstrong": 1384,
      "pend": 1385,
      "Ġsett": 1386,
      "Ġwarm": 1387,
      "Ġpretty": 1388,
      "isten": 1389,
      "Ġexc": 1390,
      "Ġ'": 1391,
      "Ġpain": 1392,
      "itude": 1393,
      "Ġcond": 1394,
      "Ġpersu": 1395,
      "lli": 1396,
      "Ġele": 1397,
      "Ġquest": 1398,
      "ons": 1399,
      "Ġthings": 1400,
      "Ġnatur": 1401,
      "oint": 1402,
      "owing": 1403,
      "Ġengage": 1404,
      "omm": 1405,
      "Ġhelp": 1406,
      "Ġbegin": 1407,
      "Ġfre": 1408,
      "Ġfan": 1409,
      "Ġdisapp": 1410,
      "Ġoccasion": 1411,
      "Ġdifferent": 1412,
      "Ġmention": 1413,
      "Ġins": 1414,
      "Ġbath": 1415,
      "Ġhus": 1416,
      "Ġprice": 1417,
      "Ġaw": 1418,
      "Ġmon": 1419,
      "Ġsorry": 1420,
      "by": 1421,
      "to": 1422,
      "ached": 1423,
      "Ġobject": 1424,
      "Ġmeans": 1425,
      "Ġsatisf": 1426,
      "ock": 1427,
      "Ġhead": 1428,
      "Ġtaken": 1429,
      "Ġreceived": 1430,
      "Ġreturned": 1431,
      "une": 1432,
      "Ġes": 1433,
      "Ġdraw": 1434,
      "arn": 1435,
      "Ġyourself": 1436,
      "Ġregard": 1437,
      "Ġminutes": 1438,
      "room": 1439,
      "ury": 1440,
      "Ġcarriage": 1441,
      "Ġlisten": 1442,
      "Ġhur": 1443,
      "Ġagreeable": 1444,
      "ber": 1445,
      "Ġtown": 1446,
      "Ġlad": 1447,
      "bour": 1448,
      "up": 1449,
      "Ġfeeling": 1450,
      "cri": 1451,
      "joy": 1452,
      "yond": 1453,
      "Ġtalked": 1454,
      "Ġwished": 1455,
      "Ġeverything": 1456,
      "Ġwanted": 1457,
      "Ġserv": 1458,
      "Ġbeyond": 1459,
      "Ġelli": 1460,
      "Ġthom": 1461,
      "Ġelliot": 1462,
      "band": 1463,
      "Ġthor": 1464,
      "Ġconversation": 1465,
      "Ġladies": 1466,
      "Ġsituation": 1467,
      "Ġthomas": 1468,
      "ior": 1469,
      "Ġenjoy": 1470,
      "iew": 1471,
      "cious": 1472,
      "Ġnight": 1473,
      "Ġest": 1474,
      "Ġmist": 1475,
      "Ġhusband": 1476,
      "Ġbre": 1477,
      "Ġdecl": 1478,
      "Ġadmir": 1479,
      "my": 1480,
      "oss": 1481,
      "uth": 1482,
      "Ġwhose": 1483,
      "ken": 1484,
      "ination": 1485,
      "Ġwhy": 1486,
      "Ġwords": 1487,
      "ection": 1488,
      "now": 1489,
      "Ġstate": 1490,
      "Ġlooking": 1491,
      "Ġreal": 1492,
      "Ġamong": 1493,
      "Ġentire": 1494,
      "Ġcalled": 1495,
      "Ġbeha": 1496,
      "Ġconv": 1497,
      "Ġneed": 1498,
      "Ġcoll": 1499,
      "Ġdare": 1500,
      "Ġdifficul": 1501,
      "!âĢĿ": 1502,
      "Ġcomple": 1503,
      "that": 1504,
      "iss": 1505,
      "Ġready": 1506,
      "Ġdoor": 1507,
      "Ġwalked": 1508,
      "Ġdinner": 1509,
      "ready": 1510,
      "oura": 1511,
      "Ġexpected": 1512,
      "ging": 1513,
      "ating": 1514,
      "Ġalready": 1515,
      "Ġbusiness": 1516,
      "aged": 1517,
      "Ġchildren": 1518,
      "Ġpower": 1519,
      "Ġattach": 1520,
      "ze": 1521,
      "raid": 1522,
      "iled": 1523,
      "Ġdisappoint": 1524,
      "Ġthank": 1525,
      "ager": 1526,
      "Ġcousin": 1527,
      "Ġball": 1528,
      "itting": 1529,
      "cing": 1530,
      "nding": 1531,
      "Ġwithin": 1532,
      "Ġafraid": 1533,
      "Ġmarried": 1534,
      "sequ": 1535,
      "Ġexa": 1536,
      "used": 1537,
      "Ġhart": 1538,
      "Ġgrat": 1539,
      "ship": 1540,
      "Ġbring": 1541,
      "Ġmet": 1542,
      "Ġcold": 1543,
      "Ġadded": 1544,
      "Ġcontinued": 1545,
      "ham": 1546,
      "Ġnear": 1547,
      "Ġincl": 1548,
      "Ġmanners": 1549,
      "Ġpleasant": 1550,
      "Ġappro": 1551,
      "Ġextre": 1552,
      "Ġhartfield": 1553,
      "ering": 1554,
      "Ġfine": 1555,
      "Ġthemselves": 1556,
      "Ġsaying": 1557,
      "Ġkeep": 1558,
      "Ġmonth": 1559,
      "Ġoh": 1560,
      "Ġaccept": 1561,
      "full": 1562,
      "ually": 1563,
      "wood": 1564,
      "Ġentirely": 1565,
      "ient": 1566,
      "Ġma": 1567,
      "Ġconne": 1568,
      "Ġchange": 1569,
      "uct": 1570,
      "Ġdoing": 1571,
      "ath": 1572,
      "Ġimposs": 1573,
      "Ġhum": 1574,
      "Ġjenn": 1575,
      "Ġspoke": 1576,
      "ove": 1577,
      "Ġtri": 1578,
      "Ġenc": 1579,
      "Ġextreme": 1580,
      "ience": 1581,
      "Ġbad": 1582,
      "arce": 1583,
      "Ġthinking": 1584,
      "Ġsense": 1585,
      "abell": 1586,
      "Ġdetermined": 1587,
      "Ġjennings": 1588,
      "abella": 1589,
      "ross": 1590,
      "Ġtrue": 1591,
      "uring": 1592,
      "Ġgrant": 1593,
      "Ġconcern": 1594,
      "Ġworth": 1595,
      "ute": 1596,
      "Ġallow": 1597,
      "Ġbates": 1598,
      "Ġef": 1599,
      "Ġmaking": 1600,
      "Ġlive": 1601,
      "Ġvoice": 1602,
      "Ġmarriage": 1603,
      "Ġwentworth": 1604,
      "Ġasked": 1605,
      "Ġequal": 1606,
      "Ġfitz": 1607,
      "Ġconsequ": 1608,
      "Ġview": 1609,
      "Ġlikely": 1610,
      "ledge": 1611,
      "william": 1612,
      "Ġisabella": 1613,
      "Ġdistress": 1614,
      "ched": 1615,
      "par": 1616,
      "Ġearly": 1617,
      "Ġrequ": 1618,
      "Ġappeared": 1619,
      "Ġdeg": 1620,
      "Ġfour": 1621,
      "Ġtalking": 1622,
      "Ġgentleman": 1623,
      "ling": 1624,
      "Ġson": 1625,
      "Ġgot": 1626,
      "Ġserious": 1627,
      "Ġfitzwilliam": 1628,
      "res": 1629,
      "Ġdash": 1630,
      "Ġeager": 1631,
      "Ġlau": 1632,
      "Ġuncle": 1633,
      "Ġproper": 1634,
      "Ġwork": 1635,
      "Ġcountry": 1636,
      "atter": 1637,
      "Ġusual": 1638,
      "Ġlar": 1639,
      "cted": 1640,
      "Ġexpl": 1641,
      "Ġassure": 1642,
      "fully": 1643,
      "Ġdashwood": 1644,
      "so": 1645,
      "Ġrecoll": 1646,
      "Ġexactly": 1647,
      "Ġimpossible": 1648,
      "Ġair": 1649,
      "ames": 1650,
      "Ġpleased": 1651,
      "Ġsmith": 1652,
      "Ġgiving": 1653,
      "Ġforg": 1654,
      "alth": 1655,
      "bury": 1656,
      "Ġmen": 1657,
      "Ġbear": 1658,
      "Ġneither": 1659,
      "bert": 1660,
      "what": 1661,
      "ery": 1662,
      "ution": 1663,
      "Ġself": 1664,
      "Ġregret": 1665,
      "Ġyear": 1666,
      "Ġtry": 1667,
      "ference": 1668,
      "lu": 1669,
      "Ġquiet": 1670,
      "Ġadvant": 1671,
      "Ġanxious": 1672,
      "Ġafterwards": 1673,
      "Ġtil": 1674,
      "like": 1675,
      "Ġkindness": 1676,
      "rehe": 1677,
      "Ġmart": 1678,
      "Ġune": 1679,
      "Ġwat": 1680,
      "Ġparticular": 1681,
      "Ġsettled": 1682,
      "Ġsatisfied": 1683,
      "ange": 1684,
      "ety": 1685,
      "Ġsuper": 1686,
      "Ġparticularly": 1687,
      "mor": 1688,
      "vo": 1689,
      "Ġswe": 1690,
      "Ġforward": 1691,
      "rely": 1692,
      "itted": 1693,
      "Ġquestion": 1694,
      "osition": 1695,
      "Ġcharm": 1696,
      "Ġfortune": 1697,
      "Ġimagine": 1698,
      "Ġhandsome": 1699,
      "ia": 1700,
      "Ġten": 1701,
      "ston": 1702,
      "antly": 1703,
      "Ġcharles": 1704,
      "Ġciv": 1705,
      "Ġhor": 1706,
      "Ġnobody": 1707,
      "ceive": 1708,
      "ented": 1709,
      "Ġbreak": 1710,
      "Ġinqu": 1711,
      "ities": 1712,
      "Ġly": 1713,
      "Ġsatisfa": 1714,
      "ures": 1715,
      "anger": 1716,
      "Ġengaged": 1717,
      "Ġfancy": 1718,
      "Ġmid": 1719,
      "Ġfin": 1720,
      "acy": 1721,
      "Ġwrite": 1722,
      "Ġdread": 1723,
      "Ġcreat": 1724,
      "ool": 1725,
      "imes": 1726,
      "Ġdirectly": 1727,
      "Ġconvin": 1728,
      "Ġround": 1729,
      "Ġturned": 1730,
      "Ġplan": 1731,
      "Ġnatural": 1732,
      "Ġattachment": 1733,
      "Ġimport": 1734,
      "ris": 1735,
      "ye": 1736,
      "Ġfive": 1737,
      "Ġexcept": 1738,
      "Ġused": 1739,
      "Ġnature": 1740,
      "Ġstreet": 1741,
      "Ġengagement": 1742,
      "come": 1743,
      "Ġalone": 1744,
      "Ġscarce": 1745,
      "Ġhonour": 1746,
      "ident": 1747,
      "alm": 1748,
      "omp": 1749,
      "Ġstand": 1750,
      "Ġfear": 1751,
      "Ġremember": 1752,
      "Ġla": 1753,
      "Ġsisters": 1754,
      "Ġhours": 1755,
      "Ġhoped": 1756,
      "Ġtilney": 1757,
      "dle": 1758,
      "of": 1759,
      "Ġsmile": 1760,
      "Ġcommon": 1761,
      "Ġyester": 1762,
      "rodu": 1763,
      "Ġbelieved": 1764,
      "Ġevent": 1765,
      "Ġformer": 1766,
      "Ġyesterday": 1767,
      "iable": 1768,
      "uli": 1769,
      "Ġsecond": 1770,
      "Ġnecessary": 1771,
      "uri": 1772,
      "Ġsoci": 1773,
      "Ġneigh": 1774,
      "Ġintrodu": 1775,
      "Ġfarther": 1776,
      "Ġcompliment": 1777,
      "Ġscarcely": 1778,
      "Ġcheer": 1779,
      "ler": 1780,
      "eness": 1781,
      "usion": 1782,
      "Ġmorland": 1783,
      "Ġsometimes": 1784,
      "Ġcompany": 1785,
      "Ġprobably": 1786,
      "Ġtend": 1787,
      "Ġwind": 1788,
      "Ġfix": 1789,
      "Ġface": 1790,
      "Ġhighbury": 1791,
      "Ġappearance": 1792,
      "Ġdegree": 1793,
      "morrow": 1794,
      "Ġconvinced": 1795,
      "ked": 1796,
      "Ġbo": 1797,
      "Ġgard": 1798,
      "Ġspeaking": 1799,
      "Ġtemp": 1800,
      "Ġnews": 1801,
      "whe": 1802,
      "Ġsto": 1803,
      "Ġextremely": 1804,
      "pic": 1805,
      "gg": 1806,
      "know": 1807,
      "Ġthoughts": 1808,
      "Ġremain": 1809,
      "Ġconduct": 1810,
      "wh": 1811,
      "ouble": 1812,
      "ified": 1813,
      "ctions": 1814,
      "Ġencoura": 1815,
      "Ġcase": 1816,
      "Ġtruth": 1817,
      "Ġneighbour": 1818,
      "Ġexcl": 1819,
      "Ġincre": 1820,
      "iety": 1821,
      "Ġopport": 1822,
      "Ġsuperior": 1823,
      "Ġsweet": 1824,
      "Ġrepe": 1825,
      "Ġdepend": 1826,
      "Ġfond": 1827,
      "cell": 1828,
      "irs": 1829,
      "iece": 1830,
      "Ġseems": 1831,
      "for": 1832,
      "ict": 1833,
      "Ġsim": 1834,
      "Ġlarge": 1835,
      "Ġopportun": 1836,
      "Ġdan": 1837,
      "Ġbel": 1838,
      "Ġgreater": 1839,
      "Ġende": 1840,
      "errars": 1841,
      "su": 1842,
      "Ġferrars": 1843,
      "Ġentered": 1844,
      "oud": 1845,
      "amp": 1846,
      "mpl": 1847,
      "Ġacknow": 1848,
      "Ġaddress": 1849,
      "ap": 1850,
      "Ġconst": 1851,
      "Ġjames": 1852,
      "Ġmeeting": 1853,
      "Ġrush": 1854,
      "Ġadvantage": 1855,
      "Ġsitting": 1856,
      "Ġpu": 1857,
      "Ġquick": 1858,
      "Ġtas": 1859,
      "Ġrefle": 1860,
      "Ġdrawing": 1861,
      "Ġcomplete": 1862,
      "lay": 1863,
      "wise": 1864,
      "ene": 1865,
      "Ġexcell": 1866,
      "Ġintim": 1867,
      "Ġdelightful": 1868,
      "ili": 1869,
      "Ġaston": 1870,
      "Ġeleg": 1871,
      "Ġ.": 1872,
      "enty": 1873,
      "Ġremark": 1874,
      "Ġlate": 1875,
      "Ġsupposed": 1876,
      "Ġrecomm": 1877,
      "oured": 1878,
      "Ġmeant": 1879,
      "Ġcircumstances": 1880,
      "Ġeffect": 1881,
      "Ġsociety": 1882,
      "Ġrushworth": 1883,
      "oun": 1884,
      "eng": 1885,
      "Ġpar": 1886,
      "Ġang": 1887,
      "Ġallowed": 1888,
      "Ġquar": 1889,
      "ively": 1890,
      "Ġletters": 1891,
      "Ġhearing": 1892,
      "Ġevil": 1893,
      "Ġendea": 1894,
      "ted": 1895,
      "Ġweather": 1896,
      "alls": 1897,
      "Ġord": 1898,
      "oughby": 1899,
      "Ġsurprise": 1900,
      "Ġbehavi": 1901,
      "_,": 1902,
      "Ġwilloughby": 1903,
      "Ġarr": 1904,
      "Ġlucy": 1905,
      "Ġbeginning": 1906,
      "Ġrecommend": 1907,
      "Ġdanger": 1908,
      "Ġpra": 1909,
      "Ġmonths": 1910,
      "Ġce": 1911,
      "Ġhealth": 1912,
      "Ġdress": 1913,
      "Ġmans": 1914,
      "Ġconsequence": 1915,
      "how": 1916,
      "Ġearn": 1917,
      "ates": 1918,
      "Ġdeser": 1919,
      "dden": 1920,
      "Ġbehaviour": 1921,
      "Ġshew": 1922,
      "aded": 1923,
      "Ġknowledge": 1924,
      "Ġprof": 1925,
      "Ġoccur": 1926,
      "Ġdelighted": 1927,
      "Ġtaking": 1928,
      "Ġtaste": 1929,
      "rie": 1930,
      "Ġdep": 1931,
      "Ġplac": 1932,
      "Ġwalking": 1933,
      "Ġsatisfaction": 1934,
      "Ġamiable": 1935,
      "Ġhappened": 1936,
      "over": 1937,
      "Ġdon": 1938,
      "Ġdri": 1939,
      "Ġann": 1940,
      "Ġdescri": 1941,
      "Ġassist": 1942,
      "ibility": 1943,
      "Ġslight": 1944,
      "ounds": 1945,
      "zed": 1946,
      "Ġmer": 1947,
      "Ġsudden": 1948,
      "Ġgreatest": 1949,
      "Ġdecided": 1950,
      "Ġcuri": 1951,
      "Ġstru": 1952,
      "iling": 1953,
      "Ġindif": 1954,
      "Ġopportunity": 1955,
      "idence": 1956,
      "Ġlea": 1957,
      "Ġwishes": 1958,
      "iles": 1959,
      "enance": 1960,
      "Ġdr": 1961,
      "Ġforget": 1962,
      "Ġlooks": 1963,
      "Ġnorris": 1964,
      "Ġinform": 1965,
      "Ġtable": 1966,
      "Ġtrouble": 1967,
      "Ġcomfortable": 1968,
      "ying": 1969,
      "Ġbook": 1970,
      "Ġcor": 1971,
      "Ġval": 1972,
      "osity": 1973,
      "shire": 1974,
      "gment": 1975,
      "king": 1976,
      "night": 1977,
      "inci": 1978,
      "Ġunp": 1979,
      "Ġbeauty": 1980,
      "men": 1981,
      "Ġfell": 1982,
      "Ġsuspect": 1983,
      "Ġservant": 1984,
      "Ġwal": 1985,
      "Ġpay": 1986,
      "Ġnotice": 1987,
      "Ġattempt": 1988,
      "Ġhopes": 1989,
      "Ġsend": 1990,
      "Ġwhatever": 1991,
      "arest": 1992,
      "gr": 1993,
      "ising": 1994,
      "outh": 1995,
      "Ġwrong": 1996,
      "Ġearnest": 1997,
      "Ġbra": 1998,
      "Ġdut": 1999,
      "Ġproceed": 2000,
      "Ġprodu": 2001,
      "ishment": 2002,
      "Ġaccomp": 2003,
      "Ġsche": 2004,
      "Ġsix": 2005,
      "Ġtoler": 2006,
      "Ġago": 2007,
      "Ġfollowed": 2008,
      "Ġpurp": 2009,
      "ĠĠ": 2010,
      "Ġsy": 2011,
      "Ġpat": 2012,
      "Ġeye": 2013,
      "Ġconcl": 2014,
      "ns": 2015,
      "Ġsit": 2016,
      "Ġhast": 2017,
      "fered": 2018,
      "ession": 2019,
      "Ġpros": 2020,
      "Ġspite": 2021,
      "wered": 2022,
      "Ġworse": 2023,
      "Ġprinci": 2024,
      "Ġmansfield": 2025,
      "miss": 2026,
      "ides": 2027,
      "ages": 2028,
      "Ġduring": 2029,
      "ased": 2030,
      "itten": 2031,
      "Ġclaim": 2032,
      "Ġinflu": 2033,
      "'t": 2034,
      "do": 2035,
      "og": 2036,
      "Ġconce": 2037,
      "Ġjour": 2038,
      "Ġalso": 2039,
      "rupt": 2040,
      "Ġsensible": 2041,
      "Ġtemper": 2042,
      "fast": 2043,
      "la": 2044,
      "Ġsafe": 2045,
      "Ġmentioned": 2046,
      "Ġcreature": 2047,
      "Ġcheerful": 2048,
      "Ġgre": 2049,
      "Ġremo": 2050,
      "Ġtrust": 2051,
      "Ġcap": 2052,
      "ott": 2053,
      "Ġacquainted": 2054,
      "Ġsusan": 2055,
      "Ġcollins": 2056,
      "Ġmiddle": 2057,
      "jection": 2058,
      "pa": 2059,
      "Ġfore": 2060,
      "Ġcompanion": 2061,
      "Ġlaugh": 2062,
      "Ġtender": 2063,
      "Ġve": 2064,
      "Ġsight": 2065,
      "Ġconscious": 2066,
      "idered": 2067,
      "Ġcountenance": 2068,
      "Ġgirls": 2069,
      "Ġmusg": 2070,
      "mploy": 2071,
      "Ġwalter": 2072,
      "ead": 2073,
      "fer": 2074,
      "Ġwick": 2075,
      "iful": 2076,
      "Ġwritten": 2077,
      "Ġrand": 2078,
      "Ġbeh": 2079,
      "aken": 2080,
      "Ġtimes": 2081,
      "Ġconsidered": 2082,
      "Ġanswered": 2083,
      "Ġmusic": 2084,
      "Ġdifficult": 2085,
      "Ġfall": 2086,
      "unate": 2087,
      "Ġsilence": 2088,
      "Ġarrival": 2089,
      "Ġexcellent": 2090,
      "Ġjourney": 2091,
      "Ġbu": 2092,
      "Ġlight": 2093,
      "tered": 2094,
      "olute": 2095,
      "Ġspent": 2096,
      "Ġweeks": 2097,
      "Ġeasy": 2098,
      "she": 2099,
      "Ġpark": 2100,
      "Ġdeep": 2101,
      "pped": 2102,
      "Ġamuse": 2103,
      "Ġfact": 2104,
      "ief": 2105,
      "Ġequally": 2106,
      "Ġaware": 2107,
      "Ġmartin": 2108,
      "Ġemploy": 2109,
      "Ġalarm": 2110,
      "Ġut": 2111,
      "Ġpast": 2112,
      "Ġliving": 2113,
      "Ġimpro": 2114,
      "Ġintell": 2115,
      "Ġarrived": 2116,
      "Ġpurpose": 2117,
      "hood": 2118,
      "Ġavo": 2119,
      "erc": 2120,
      "isa": 2121,
      "Ġbes": 2122,
      "unic": 2123,
      "Ġcommunic": 2124,
      "Ġinstead": 2125,
      "Ġrecollect": 2126,
      "Ġexclaim": 2127,
      "mr": 2128,
      "ĠĠĊ": 2129,
      "Ġreply": 2130,
      "Ġcontr": 2131,
      "Ġclose": 2132,
      "Ġtea": 2133,
      "Ġdifference": 2134,
      "Ġpersuaded": 2135,
      "Ġpraise": 2136,
      "Ġrandalls": 2137,
      "right": 2138,
      "Ġknowing": 2139,
      "osing": 2140,
      "Ġinvitation": 2141,
      "Ġbreakfast": 2142,
      "Ġcuriosity": 2143,
      "inary": 2144,
      "Ġsake": 2145,
      "Ġhea": 2146,
      "Ġmod": 2147,
      "Ġlost": 2148,
      "Ġtra": 2149,
      "Ġsing": 2150,
      "Ġir": 2151,
      "Ġexceed": 2152,
      "Ġtran": 2153,
      "Ġsilent": 2154,
      "Ġtried": 2155,
      "Ġdance": 2156,
      "Ġmerely": 2157,
      "Ġjoy": 2158,
      "Ġsays": 2159,
      "Ġabsolute": 2160,
      "Ġhab": 2161,
      "Ġfault": 2162,
      "Ġinstantly": 2163,
      "Ġspoken": 2164,
      "dia": 2165,
      "Ġthous": 2166,
      "Ġwel": 2167,
      "ific": 2168,
      "Ġesc": 2169,
      "Ġleaving": 2170,
      "Ġthousand": 2171,
      "Ġhint": 2172,
      "Ġdelic": 2173,
      "Ġloved": 2174,
      "Ġremained": 2175,
      "Ġmatch": 2176,
      "Ġcircumstance": 2177,
      "Ġadmiration": 2178,
      "Ġbed": 2179,
      "Ġport": 2180,
      "peci": 2181,
      "oney": 2182,
      "Ġinquir": 2183,
      "Ġnone": 2184,
      "Ġstri": 2185,
      "Ġaffa": 2186,
      "Ġru": 2187,
      "Ġmaria": 2188,
      "Ġspirit": 2189,
      "Ġcharming": 2190,
      "Ġrepeated": 2191,
      "Ġgrie": 2192,
      "rud": 2193,
      "Ġlydia": 2194,
      "Ġvar": 2195,
      "Ġprep": 2196,
      "Ġbecame": 2197,
      "Ġchance": 2198,
      "Ġluck": 2199,
      "where": 2200,
      "pecially": 2201,
      "rance": 2202,
      "happ": 2203,
      "Ġeld": 2204,
      "Ġsumm": 2205,
      "Ġdelay": 2206,
      "Ġdearest": 2207,
      "Ġplain": 2208,
      "Ġjoin": 2209,
      "Ġdisposition": 2210,
      "Ġresolved": 2211,
      "Ġforgot": 2212,
      "sit": 2213,
      "Ġcamp": 2214,
      "Ġmot": 2215,
      "Ġspee": 2216,
      "Ġguess": 2217,
      "Ġjudgment": 2218,
      "Ġwait": 2219,
      "Ġfixed": 2220,
      "bell": 2221,
      "mon": 2222,
      "Ġmine": 2223,
      "Ġlou": 2224,
      "Ġindul": 2225,
      "zz": 2226,
      "Ġmort": 2227,
      "Ġrelie": 2228,
      "ows": 2229,
      "Ġrepro": 2230,
      "Ġgrand": 2231,
      "Ġespecially": 2232,
      "Ġtre": 2233,
      "sell": 2234,
      "Ġsty": 2235,
      "Ġperry": 2236,
      "Ġsuspic": 2237,
      "Ġinfluence": 2238,
      ".'": 2239,
      "Ġaffect": 2240,
      "Ġrobert": 2241,
      "angu": 2242,
      "Ġfrequ": 2243,
      "Ġintellig": 2244,
      "redit": 2245,
      "Ġfriendship": 2246,
      "Ġdesire": 2247,
      "Ġthorough": 2248,
      "Ġwickham": 2249,
      "com": 2250,
      "Ġcr": 2251,
      "arr": 2252,
      "ching": 2253,
      "ceiving": 2254,
      "Ġunderstanding": 2255,
      "Ġobserv": 2256,
      "Ġobserved": 2257,
      "Ġprevent": 2258,
      "Ġdisappointment": 2259,
      "Ġgratitude": 2260,
      "Ġage": 2261,
      "Ġfut": 2262,
      "Ġreached": 2263,
      "abl": 2264,
      "arent": 2265,
      "Ġoffer": 2266,
      "Ġinteresting": 2267,
      "Ġeasily": 2268,
      "Ġinformation": 2269,
      "Ġbehind": 2270,
      "Ġcampbell": 2271,
      "Ġpict": 2272,
      "Ġallen": 2273,
      "Ġunhapp": 2274,
      "Ġeverybody": 2275,
      "not": 2276,
      "Ġled": 2277,
      "Ġlow": 2278,
      "vel": 2279,
      "Ġrid": 2280,
      "Ġobjection": 2281,
      "Ġimpat": 2282,
      "Ġextra": 2283,
      "Ġkept": 2284,
      "Ġstyle": 2285,
      "Ġfuture": 2286,
      "Ġwin": 2287,
      "Ġpity": 2288,
      "Ġvain": 2289,
      "Ġrun": 2290,
      "Ġmeaning": 2291,
      "Ġoccup": 2292,
      "Ġdaughters": 2293,
      "Ġattentions": 2294,
      "Ġdifficulty": 2295,
      "Ġlouisa": 2296,
      "Ġsad": 2297,
      "Ġsta": 2298,
      "arted": 2299,
      "Ġgentlemen": 2300,
      "Ġmoney": 2301,
      "Ġinj": 2302,
      "Ġdesir": 2303,
      "Ġwomen": 2304,
      "Ġtreat": 2305,
      "edly": 2306,
      "Ġwriting": 2307,
      "Ġabsence": 2308,
      "Ġthorpe": 2309,
      "Ġdancing": 2310,
      "Ġendeavour": 2311,
      "Ġstruck": 2312,
      "Ġduty": 2313,
      "em": 2314,
      "Ġcalm": 2315,
      "Ġlatter": 2316,
      "Ġjuli": 2317,
      "Ġlived": 2318,
      "Ġloss": 2319,
      "Ġsupport": 2320,
      "Ġpray": 2321,
      "Ġpride": 2322,
      "Ġentertain": 2323,
      "Ġintended": 2324,
      "Ġpriv": 2325,
      "Ġhighly": 2326,
      "Ġfollowing": 2327,
      "Ġacknowled": 2328,
      "ndon": 2329,
      "Ġafford": 2330,
      "Ġfinding": 2331,
      "there": 2332,
      "Ġrussell": 2333,
      "Ġhurry": 2334,
      "Ġenjoyment": 2335,
      "Ġmistaken": 2336,
      "Ġconceal": 2337,
      "Ġbesides": 2338,
      "Ġmad": 2339,
      "Ġcredit": 2340,
      "Ġwhenever": 2341,
      "Ġpost": 2342,
      "Ġassured": 2343,
      "Ġsurpri": 2344,
      "Ġactually": 2345,
      "cceed": 2346,
      "ma": 2347,
      "Ġwro": 2348,
      "Ġsucceed": 2349,
      "Ġcomprehe": 2350,
      "ccess": 2351,
      "Ġtrying": 2352,
      "Ġscheme": 2353,
      "lor": 2354,
      "ug": 2355,
      "Ġemb": 2356,
      "Ġsurprised": 2357,
      "Ġavoid": 2358,
      "old": 2359,
      "hamed": 2360,
      "Ġbless": 2361,
      "Ġproof": 2362,
      "Ġresolution": 2363,
      "together": 2364,
      "Ġbrandon": 2365,
      "tic": 2366,
      "Ġcause": 2367,
      "esday": 2368,
      "Ġleng": 2369,
      "Ġthus": 2370,
      "Ġdev": 2371,
      "Ġdisag": 2372,
      "Ġagre": 2373,
      "Ġshare": 2374,
      "Ġplease": 2375,
      "Ġdistance": 2376,
      "Ġblus": 2377,
      "Ġattend": 2378,
      "Ġpromised": 2379,
      "Ġinclination": 2380,
      "Ġprospect": 2381,
      "Ġmusgrove": 2382,
      "look": 2383,
      "ring": 2384,
      "Ġdef": 2385,
      "Ġexert": 2386,
      "Ġaltogether": 2387,
      "Ġrich": 2388,
      "Ġconsideration": 2389,
      "lot": 2390,
      "Ġfire": 2391,
      "itable": 2392,
      "Ġashamed": 2393,
      "Ġgenerally": 2394,
      "Ġwrote": 2395,
      "Ġboy": 2396,
      "Ġtone": 2397,
      "Ġsolic": 2398,
      "Ġlistened": 2399,
      "aring": 2400,
      "Ġdeath": 2401,
      "Ġwanting": 2402,
      "Ġcharlot": 2403,
      "Ġjudge": 2404,
      "Ġbeautiful": 2405,
      "Ġencourage": 2406,
      "Ġcharlotte": 2407,
      "Ġwret": 2408,
      "Ġcott": 2409,
      "Ġease": 2410,
      "Ġcomes": 2411,
      "Ġshock": 2412,
      "Ġsecret": 2413,
      "Ġpromise": 2414,
      "Ġcivil": 2415,
      "Ġquarter": 2416,
      "bed": 2417,
      "cha": 2418,
      "xion": 2419,
      "nday": 2420,
      "Ġsepar": 2421,
      "Ġliked": 2422,
      "Ġotherwise": 2423,
      "Ġpleasing": 2424,
      "Ġdisposed": 2425,
      "Ġfavourite": 2426,
      "Ġvex": 2427,
      "Ġexceedingly": 2428,
      "Ġjulia": 2429,
      "uc": 2430,
      "ont": 2431,
      "Ġknows": 2432,
      "Ġvent": 2433,
      "Ġincon": 2434,
      "Ġsuffic": 2435,
      "Ġabsolutely": 2436,
      "ah": 2437,
      "nat": 2438,
      "vy": 2439,
      "Ġcur": 2440,
      "Ġden": 2441,
      "Ġneg": 2442,
      "Ġpress": 2443,
      "Ġentreat": 2444,
      "Ġmarrying": 2445,
      "Ġsentiment": 2446,
      "ibly": 2447,
      "Ġrememb": 2448,
      "Ġexcuse": 2449,
      "Ġbelong": 2450,
      "Ġangry": 2451,
      "Ġnum": 2452,
      "Ġsever": 2453,
      "Ġdisg": 2454,
      "Ġabove": 2455,
      "Ġfortnight": 2456,
      "Ġanxiety": 2457,
      "Ġexclaimed": 2458,
      "Ġdisagree": 2459,
      "Ġmiles": 2460,
      "reder": 2461,
      "Ġtwenty": 2462,
      "Ġear": 2463,
      "Ġyates": 2464,
      "Ġanybody": 2465,
      "Ġimprove": 2466,
      "Ġjoined": 2467,
      "Ġhorse": 2468,
      "Ġhers": 2469,
      "Ġgall": 2470,
      "Ġthir": 2471,
      "Ġpol": 2472,
      "Ġintention": 2473,
      "Ġsmiling": 2474,
      "Ġcommand": 2475,
      "Ġinterrupt": 2476,
      "op": 2477,
      "ray": 2478,
      "Ġwed": 2479,
      "erable": 2480,
      "Ġlately": 2481,
      "Ġreceive": 2482,
      "Ġchief": 2483,
      "uded": 2484,
      "Ġunderstood": 2485,
      "Ġtom": 2486,
      "aster": 2487,
      "Ġsugg": 2488,
      "ability": 2489,
      "Ġspend": 2490,
      "Ġjustice": 2491,
      "Ġindu": 2492,
      "Ġparticulars": 2493,
      "Ġsmallest": 2494,
      "Ġsuggest": 2495,
      "che": 2496,
      "ier": 2497,
      "Ġbar": 2498,
      "Ġfreder": 2499,
      "ency": 2500,
      "vey": 2501,
      "Ġitself": 2502,
      "Ġyours": 2503,
      "Ġreading": 2504,
      "Ġpub": 2505,
      "Ġoccurred": 2506,
      "bation": 2507,
      "ta": 2508,
      "Ġph": 2509,
      "Ġsuf": 2510,
      "Ġsuccess": 2511,
      "Ġexam": 2512,
      "Ġunt": 2513,
      "Ġadmire": 2514,
      "Ġgetting": 2515,
      "orses": 2516,
      "Ġsuffer": 2517,
      "Ġservice": 2518,
      "Ġunhappy": 2519,
      "Ġwretched": 2520,
      "Ġwit": 2521,
      "arer": 2522,
      "Ġhold": 2523,
      "licity": 2524,
      "Ġwaiting": 2525,
      "Ġarrange": 2526,
      "Ġodd": 2527,
      "Ġniece": 2528,
      "Ġrej": 2529,
      "Ġlead": 2530,
      "iced": 2531,
      "Ġprefer": 2532,
      "Ġattached": 2533,
      "Ġcontri": 2534,
      "Ġwishing": 2535,
      "Ġspeech": 2536,
      "Ġdiv": 2537,
      "Ġformed": 2538,
      "Ġur": 2539,
      "Ġconvi": 2540,
      "Ġnearly": 2541,
      "Ġaff": 2542,
      "Ġconfess": 2543,
      "Ġturning": 2544,
      "Ġuseful": 2545,
      "Ġlength": 2546,
      "ina": 2547,
      "lly": 2548,
      "Ġlord": 2549,
      "Ġnote": 2550,
      "Ġseat": 2551,
      "Ġarm": 2552,
      "Ġconfidence": 2553,
      "Ġstaying": 2554,
      "Ġdisappointed": 2555,
      "Ġimportance": 2556,
      "Ġsl": 2557,
      "Ġcaught": 2558,
      "Ġroad": 2559,
      "Ġindepend": 2560,
      "Ġmiddleton": 2561,
      "Ġdue": 2562,
      "vern": 2563,
      "aining": 2564,
      "Ġfright": 2565,
      "Ġrooms": 2566,
      "Ġinstru": 2567,
      "mouth": 2568,
      "Ġcat": 2569,
      "Ġhorses": 2570,
      "anity": 2571,
      "Ġoffic": 2572,
      "Ġexpressed": 2573,
      "Ġmakes": 2574,
      "Ġstreng": 2575,
      "Ġclear": 2576,
      "Ġstanding": 2577,
      "Ġneighbourhood": 2578,
      "Ġamusement": 2579,
      "ump": 2580,
      "vill": 2581,
      "ines": 2582,
      "Ġbene": 2583,
      "Ġhill": 2584,
      "ster": 2585,
      "Ġagitation": 2586,
      "Ġresent": 2587,
      "Ġcole": 2588,
      "ception": 2589,
      "Ġadmiral": 2590,
      "overed": 2591,
      "Ġdreadful": 2592,
      "Ġimportant": 2593,
      "Ġwelcome": 2594,
      "Ġbor": 2595,
      "Ġcou": 2596,
      "Ġeight": 2597,
      "atul": 2598,
      "Ġlangu": 2599,
      "olog": 2600,
      "this": 2601,
      "Ġpember": 2602,
      "Ġaffectionate": 2603,
      "gratul": 2604,
      "Ġpemberley": 2605,
      "Ġtot": 2606,
      "Ġem": 2607,
      "Ġforced": 2608,
      "ourse": 2609,
      "ateful": 2610,
      "Ġproved": 2611,
      "ify": 2612,
      "Ġgodd": 2613,
      "Ġbecome": 2614,
      "Ġcompletely": 2615,
      "Ġagreed": 2616,
      "Ġcottage": 2617,
      "nor": 2618,
      "Ġpause": 2619,
      "Ġanim": 2620,
      "Ġcongratul": 2621,
      "Ġexcess": 2622,
      "Ġlearn": 2623,
      "Ġvol": 2624,
      "Ġourselves": 2625,
      "Ġextraord": 2626,
      "Ġseveral": 2627,
      "Ġgoddard": 2628,
      ",'": 2629,
      "ize": 2630,
      "Ġtired": 2631,
      "Ġcard": 2632,
      "Ġfool": 2633,
      "Ġnice": 2634,
      "semb": 2635,
      "Ġmisery": 2636,
      "Ġprepar": 2637,
      "Ġcompar": 2638,
      "Ġhappen": 2639,
      "Ġopened": 2640,
      "Ġexpectation": 2641,
      "Ġexplan": 2642,
      "Ġgardin": 2643,
      "law": 2644,
      "Ġthoroughly": 2645,
      "Ġconviction": 2646,
      "Ġfat": 2647,
      "irt": 2648,
      "Ġseve": 2649,
      "Ġprov": 2650,
      "Ġeduc": 2651,
      "Ġregul": 2652,
      "Ġtears": 2653,
      "Ġstrange": 2654,
      "Ġcousins": 2655,
      "Ġnaturally": 2656,
      "Ġtrif": 2657,
      "Ġextraordinary": 2658,
      "_.": 2659,
      "anch": 2660,
      "Ġstood": 2661,
      "venience": 2662,
      "Ġreturning": 2663,
      "undred": 2664,
      "Ġpaid": 2665,
      "Ġelegant": 2666,
      "Ġeldest": 2667,
      "Ġpicture": 2668,
      "Ġpublic": 2669,
      "iod": 2670,
      "ph": 2671,
      "phe": 2672,
      "Ġterm": 2673,
      "ining": 2674,
      "ative": 2675,
      "Ġperiod": 2676,
      "iously": 2677,
      "Ġapolog": 2678,
      "Ġscru": 2679,
      "Ġcalling": 2680,
      "Ġminute": 2681,
      "Ġwindow": 2682,
      "Ġsuffered": 2683,
      "Ġmess": 2684,
      "Ġhundred": 2685,
      "Ġunfort": 2686,
      "Ġvi": 2687,
      "Ġinfer": 2688,
      "Ġattended": 2689,
      "Ġuneas": 2690,
      "Ġplaced": 2691,
      "Ġfellow": 2692,
      "Ġprincip": 2693,
      "son": 2694,
      "Ġupp": 2695,
      "Ġconvey": 2696,
      "Ġrain": 2697,
      "Ġgreatly": 2698,
      "Ġbright": 2699,
      "Ġdra": 2700,
      "ament": 2701,
      "otion": 2702,
      "Ġassur": 2703,
      "Ġmater": 2704,
      "Ġtempt": 2705,
      "Ġstee": 2706,
      "Ġcivility": 2707,
      "Ġvalue": 2708,
      "Ġcouple": 2709,
      "Ġig": 2710,
      "ingu": 2711,
      "Ġhist": 2712,
      "urs": 2713,
      "Ġconsol": 2714,
      "aching": 2715,
      "Ġaccord": 2716,
      "Ġmoments": 2717,
      "Ġgrave": 2718,
      "Ġprevented": 2719,
      "Ġclever": 2720,
      "Ġsimple": 2721,
      "Ġaffair": 2722,
      "ches": 2723,
      "Ġhig": 2724,
      "Ġsol": 2725,
      "oot": 2726,
      "Ġconte": 2727,
      "Ġdislike": 2728,
      "elve": 2729,
      "Ġtwelve": 2730,
      "Ġfamili": 2731,
      "Ġadvice": 2732,
      "Ġorder": 2733,
      "Ġaccompl": 2734,
      "pond": 2735,
      "Ġsign": 2736,
      "Ġcross": 2737,
      "Ġdest": 2738,
      "Ġdine": 2739,
      "Ġpen": 2740,
      "Ġine": 2741,
      "ardon": 2742,
      "using": 2743,
      "ferent": 2744,
      "Ġimmediate": 2745,
      "Ġrelations": 2746,
      "Ġrecollection": 2747,
      "rehens": 2748,
      "Ġgardiner": 2749,
      "Ġmove": 2750,
      "Ġstory": 2751,
      "Ġunwill": 2752,
      "Ġground": 2753,
      "Ġpec": 2754,
      "Ġfortunate": 2755,
      "Ġfully": 2756,
      "Ġflatter": 2757,
      "bey": 2758,
      "Ġwarmly": 2759,
      "Ġpersuade": 2760,
      "Ġlively": 2761,
      "Ġastonishment": 2762,
      "Ġproduced": 2763,
      "Ġdifficulties": 2764,
      "Ġprepared": 2765,
      "Ġignor": 2766,
      "Ġauth": 2767,
      "Ġsle": 2768,
      "ison": 2769,
      "Ġama": 2770,
      "teen": 2771,
      "Ġthinks": 2772,
      "Ġcompass": 2773,
      "osal": 2774,
      "Ġchoice": 2775,
      "Ġintimacy": 2776,
      "Ġconsciousness": 2777,
      "Ġforgotten": 2778,
      "Ġreceiving": 2779,
      "Ġfears": 2780,
      "ously": 2781,
      "Ġabbey": 2782,
      "Ġreser": 2783,
      "Ġconcerned": 2784,
      "Ġindifferent": 2785,
      "Ġprivate": 2786,
      "Ġtay": 2787,
      "Ġobliging": 2788,
      "then": 2789,
      "Ġfresh": 2790,
      "Ġintroduced": 2791,
      "Ġindifference": 2792,
      "form": 2793,
      "ger": 2794,
      "Ġ1": 2795,
      "Ġhall": 2796,
      "arily": 2797,
      "Ġlose": 2798,
      "Ġmel": 2799,
      "Ġmeas": 2800,
      "Ġconsent": 2801,
      "Ġscene": 2802,
      "Ġtelling": 2803,
      "Ġinvited": 2804,
      "Ġnecessity": 2805,
      "Ġunex": 2806,
      "Ġtolerably": 2807,
      "Ġsummer": 2808,
      "arrass": 2809,
      "Ġencouragement": 2810,
      "Ġviol": 2811,
      "po": 2812,
      "Ġbur": 2813,
      "Ġcru": 2814,
      "itated": 2815,
      "Ġsuit": 2816,
      "Ġalter": 2817,
      "Ġvanity": 2818,
      "Ġparties": 2819,
      "Ġobserve": 2820,
      "Ġsuffering": 2821,
      "Ġreflection": 2822,
      "Ġdisagreeable": 2823,
      "Ġcompassion": 2824,
      "Ġtaylor": 2825,
      "oly": 2826,
      "wick": 2827,
      "Ġcut": 2828,
      "ision": 2829,
      "isure": 2830,
      "Ġpounds": 2831,
      "Ġleisure": 2832,
      "Ġimpress": 2833,
      "riety": 2834,
      "rietta": 2835,
      "Ġpassing": 2836,
      "Ġincome": 2837,
      "Ġconsidering": 2838,
      "Ġconsiderable": 2839,
      "Ġhenrietta": 2840,
      "Ġexpression": 2841,
      "Ġpainful": 2842,
      "Ġobservation": 2843,
      "ville": 2844,
      "ancholy": 2845,
      "Ġauthor": 2846,
      "Ġmelancholy": 2847,
      "af": 2848,
      "ding": 2849,
      "kes": 2850,
      "uss": 2851,
      "inite": 2852,
      "Ġsound": 2853,
      "Ġsigh": 2854,
      "Ġmut": 2855,
      "onage": 2856,
      "Ġner": 2857,
      "Ġpalm": 2858,
      "Ġga": 2859,
      "vell": 2860,
      "Ġexerc": 2861,
      "inde": 2862,
      "Ġdistin": 2863,
      "Ġaddition": 2864,
      "Ġcarry": 2865,
      "Ġacting": 2866,
      "Ġrespectable": 2867,
      "Ġmatters": 2868,
      "Ġestabl": 2869,
      "Ġdeclared": 2870,
      "Ġsingle": 2871,
      "Ġintelligence": 2872,
      "ized": 2873,
      "Ġtou": 2874,
      "Ġsole": 2875,
      "Ġreasonable": 2876,
      "Ġdeclare": 2877,
      "zzy": 2878,
      "Ġembarrass": 2879,
      "Ġpeculi": 2880,
      "Ġsick": 2881,
      "Ġmaster": 2882,
      "Ġdix": 2883,
      "Ġsun": 2884,
      "Ġperform": 2885,
      "Ġens": 2886,
      "Ġideas": 2887,
      "Ġpreva": 2888,
      "Ġcollect": 2889,
      "Ġrequest": 2890,
      "Ġincreased": 2891,
      "Ġexplanation": 2892,
      "Ġeducation": 2893,
      "indeed": 2894,
      "een": 2895,
      "Ġben": 2896,
      "Ġpars": 2897,
      "Ġexist": 2898,
      "osure": 2899,
      "Ġsooner": 2900,
      "Ġkindly": 2901,
      "Ġdistingu": 2902,
      "Ġthrown": 2903,
      "Ġfolly": 2904,
      "Ġpapa": 2905,
      "Ġviews": 2906,
      "Ġdonwell": 2907,
      "Ġdrive": 2908,
      "Ġfatig": 2909,
      "phew": 2910,
      "Ġhistory": 2911,
      "iest": 2912,
      "rid": 2913,
      "Ġda": 2914,
      "ises": 2915,
      "idently": 2916,
      "alous": 2917,
      "ality": 2918,
      "Ġnephew": 2919,
      "Ġsmiled": 2920,
      "Ġrepres": 2921,
      "Ġinterested": 2922,
      "Ġrequired": 2923,
      "Ġdescript": 2924,
      "Ġservants": 2925,
      "Ġsuspicion": 2926,
      "Ġwinter": 2927,
      ".,": 2928,
      "iently": 2929,
      "Ġsk": 2930,
      "Ġcro": 2931,
      "Ġcass": 2932,
      "Ġfurn": 2933,
      "owers": 2934,
      "Ġwhis": 2935,
      "Ġgod": 2936,
      "Ġdesign": 2937,
      "Ġengland": 2938,
      "Ġbecom": 2939,
      "Ġblind": 2940,
      "Ġdining": 2941,
      "Ġhumour": 2942,
      "Ġcapable": 2943,
      "Ġinferior": 2944,
      "cul": 2945,
      "gy": 2946,
      "some": 2947,
      "Ġbit": 2948,
      "asing": 2949,
      "Ġration": 2950,
      "Ġladyship": 2951,
      "ume": 2952,
      "Ġpossibly": 2953,
      "Ġmistake": 2954,
      "Ġunpleas": 2955,
      "Ġclaims": 2956,
      "Ġdelicacy": 2957,
      "Ġrelief": 2958,
      "Ġacknowledged": 2959,
      "hum": 2960,
      "Ġbart": 2961,
      "Ġfur": 2962,
      "Ġlat": 2963,
      "Ġlibert": 2964,
      "Ġunre": 2965,
      "Ġprot": 2966,
      "Ġpartner": 2967,
      "Ġchair": 2968,
      "Ġart": 2969,
      "Ġconfusion": 2970,
      "Ġsecure": 2971,
      "Ġrap": 2972,
      "Ġgarden": 2973,
      "Ġproceeded": 2974,
      "Ġtranqu": 2975,
      "looking": 2976,
      "Ġunwilling": 2977,
      "ges": 2978,
      "ishing": 2979,
      "Ġlines": 2980,
      "Ġgown": 2981,
      "Ġweak": 2982,
      "rig": 2983,
      "Ġpartial": 2984,
      "Ġshame": 2985,
      "Ġgrateful": 2986,
      "Ġseriously": 2987,
      "Ġterms": 2988,
      "),": 2989,
      "cas": 2990,
      "den": 2991,
      "ghed": 2992,
      "ony": 2993,
      "Ġlay": 2994,
      "Ġyouth": 2995,
      "Ġfeared": 2996,
      "ples": 2997,
      "Ġcoach": 2998,
      "ashion": 2999,
      "Ġpursu": 3000,
      "Ġlaughed": 3001,
      "Ġstopped": 3002,
      "Ġtravell": 3003,
      "Ġdesirable": 3004,
      "Ġuntil": 3005,
      "Ġstrength": 3006,
      "Ġexercise": 3007,
      "certain": 3008,
      "Ġfast": 3009,
      "Ġline": 3010,
      "Ġenqu": 3011,
      "Ġchr": 3012,
      "Ġbegun": 3013,
      "Ġglance": 3014,
      "Ġpossess": 3015,
      "Ġblame": 3016,
      "Ġproposed": 3017,
      "Ġdrew": 3018,
      "Ġwarmth": 3019,
      "Ġelegance": 3020,
      "Ġdeserve": 3021,
      "Ġvalu": 3022,
      "Ġaccompan": 3023,
      "Ġheaven": 3024,
      "Ġearli": 3025,
      "Ġdixon": 3026,
      "eper": 3027,
      "Ġfig": 3028,
      "anor": 3029,
      "ents": 3030,
      "Ġking": 3031,
      "Ġwholly": 3032,
      "Ġprete": 3033,
      "Ġparted": 3034,
      "clock": 3035,
      "Ġadmired": 3036,
      "under": 3037,
      "Ġevidently": 3038,
      "Ġdiscuss": 3039,
      "Ġcompliments": 3040,
      "Ġprofess": 3041,
      "Ġinstrument": 3042,
      "Ġparsonage": 3043,
      "ape": 3044,
      "Ġvern": 3045,
      "enced": 3046,
      "Ġdro": 3047,
      "Ġnet": 3048,
      "Ġconject": 3049,
      "Ġsacri": 3050,
      "Ġlizzy": 3051,
      "Ġunless": 3052,
      "ilt": 3053,
      "Ġwants": 3054,
      "ourage": 3055,
      "Ġeagerly": 3056,
      "Ġselfish": 3057,
      "Ġmerit": 3058,
      "Ġremoved": 3059,
      "Ġaffected": 3060,
      "Ġsolicitude": 3061,
      "Ġnumber": 3062,
      "Ġtotally": 3063,
      "Ġsevere": 3064,
      "Ġbarton": 3065,
      "Ġfurther": 3066,
      "Ġsacrif": 3067,
      "gence": 3068,
      "Ġsch": 3069,
      "Ġwhite": 3070,
      "Ġdem": 3071,
      "Ġstart": 3072,
      "ica": 3073,
      "Ġharm": 3074,
      "Ġspring": 3075,
      "elly": 3076,
      "Ġpresently": 3077,
      "Ġasking": 3078,
      "Ġcircle": 3079,
      "Ġproposal": 3080,
      "Ġfavourable": 3081,
      "Ġquestions": 3082,
      "onsense": 3083,
      "Ġestate": 3084,
      "Ġbooks": 3085,
      "Ġbuild": 3086,
      "ification": 3087,
      "read": 3088,
      "Ġcord": 3089,
      "omest": 3090,
      "Ġparting": 3091,
      "Ġchuse": 3092,
      "Ġpeace": 3093,
      "Ġgives": 3094,
      "Ġadmitted": 3095,
      "Ġinfinite": 3096,
      "Ġconfir": 3097,
      "Ġevident": 3098,
      "Ġinstant": 3099,
      "Ġopening": 3100,
      "Ġeleanor": 3101,
      "Ġbringing": 3102,
      "Ġdepart": 3103,
      "Ġutmost": 3104,
      "Ġpalmer": 3105,
      "jud": 3106,
      "kward": 3107,
      "oom": 3108,
      "Ġcoun": 3109,
      "Ġoffe": 3110,
      "Ġseven": 3111,
      "Ġje": 3112,
      "Ġlear": 3113,
      "Ġunk": 3114,
      "Ġspare": 3115,
      "Ġreport": 3116,
      "Ġworst": 3117,
      "Ġenter": 3118,
      "Ġsorrow": 3119,
      "Ġawkward": 3120,
      "bourn": 3121,
      "Ġapprobation": 3122,
      "Ġaccepted": 3123,
      "Ġproperly": 3124,
      "Ġbox": 3125,
      "Ġconstant": 3126,
      "Ġmadam": 3127,
      "Ġprotest": 3128,
      "Ġ_": 3129,
      "ergy": 3130,
      "Ġfif": 3131,
      "isp": 3132,
      "ork": 3133,
      "Ġmiserable": 3134,
      "Ġposit": 3135,
      "Ġfriendly": 3136,
      "ounded": 3137,
      "Ġlongbourn": 3138,
      "Ġsubm": 3139,
      "Ġpossibility": 3140,
      "Ġcolour": 3141,
      "Ġpersons": 3142,
      "Ġeste": 3143,
      "Ġmistress": 3144,
      "Ġconnected": 3145,
      "Ġevents": 3146,
      "Ġgallant": 3147,
      "Ġdrawn": 3148,
      "Ġvernon": 3149,
      "br": 3150,
      "Ġpun": 3151,
      "anged": 3152,
      "ldom": 3153,
      "Ġmere": 3154,
      "Ġexper": 3155,
      "Ġdesired": 3156,
      "Ġapart": 3157,
      "Ġadmit": 3158,
      "Ġdispleas": 3159,
      "Ġlucas": 3160,
      "Ġescape": 3161,
      "Ġoccupied": 3162,
      "Ġnegle": 3163,
      "Ġliberty": 3164,
      "lour": 3165,
      "rim": 3166,
      "uesday": 3167,
      "wed": 3168,
      "Ġsou": 3169,
      "ences": 3170,
      "Ġdign": 3171,
      "Ġseldom": 3172,
      "Ġdiss": 3173,
      "uses": 3174,
      "Ġchap": 3175,
      "Ġtwice": 3176,
      "Ġlikewise": 3177,
      "Ġsubjects": 3178,
      "Ġcourt": 3179,
      "Ġfinished": 3180,
      "Ġearnestly": 3181,
      "Ġcontrary": 3182,
      "Ġtrans": 3183,
      "Ġhabit": 3184,
      "Ġlanguage": 3185,
      "Ġmessage": 3186,
      "Ġburst": 3187,
      "Ġdescription": 3188,
      "Ġcroft": 3189,
      "Ġrapid": 3190,
      "Ġchrist": 3191,
      ",)": 3192,
      "bor": 3193,
      "vent": 3194,
      "Ġfree": 3195,
      "Ġhot": 3196,
      "Ġperceived": 3197,
      "ifying": 3198,
      "Ġspot": 3199,
      "Ġhappily": 3200,
      "Ġproud": 3201,
      "Ġindign": 3202,
      "Ġinvol": 3203,
      "Ġopinions": 3204,
      "Ġimagined": 3205,
      "Ġimagination": 3206,
      "Ġbusy": 3207,
      "Ġintimate": 3208,
      "Ġquarre": 3209,
      "Ġsuddenly": 3210,
      "Ġimpatient": 3211,
      "Ġunpleasant": 3212,
      "Ġder": 3213,
      "Ġpian": 3214,
      "Ġpract": 3215,
      "Ġhero": 3216,
      "Ġamused": 3217,
      "ilities": 3218,
      "Ġrate": 3219,
      "ressed": 3220,
      "Ġpresence": 3221,
      "Ġabsent": 3222,
      "Ġacknowledge": 3223,
      "Ġastonished": 3224,
      "Ġassistance": 3225,
      "Ġsuspected": 3226,
      "Ġdeeply": 3227,
      "Ġsucceeded": 3228,
      "Ġfrederica": 3229,
      "Ġarrangement": 3230,
      "Ġjealous": 3231,
      "Ġpiano": 3232,
      "ives": 3233,
      "Ġhesit": 3234,
      "Ġpiece": 3235,
      "Ġparent": 3236,
      "Ġfeat": 3237,
      "Ġfelicity": 3238,
      "ical": 3239,
      "Ġanyone": 3240,
      "Ġalong": 3241,
      "Ġunf": 3242,
      "Ġvill": 3243,
      "Ġprog": 3244,
      "Ġaround": 3245,
      "Ġrecon": 3246,
      "Ġregina": 3247,
      "Ġillness": 3248,
      "Ġguest": 3249,
      "Ġprobability": 3250,
      "Ġinclined": 3251,
      "Ġtenderness": 3252,
      "Ġfrequently": 3253,
      "Ġpolit": 3254,
      "Ġmaterial": 3255,
      "Ġreginald": 3256,
      "vous": 3257,
      "Ġerr": 3258,
      "Ġtuesday": 3259,
      "Ġaug": 3260,
      "Ġorig": 3261,
      "Ġfoot": 3262,
      "Ġfashion": 3263,
      "Ġpardon": 3264,
      "Ġsea": 3265,
      "Ġseated": 3266,
      "Ġwilling": 3267,
      "ices": 3268,
      "Ġfail": 3269,
      "Ġgrowing": 3270,
      "Ġrecover": 3271,
      "Ġobserving": 3272,
      "Ġcheck": 3273,
      "Ġeffort": 3274,
      "Ġplans": 3275,
      "Ġblush": 3276,
      "Ġrejo": 3277,
      "Ġfoolish": 3278,
      "Ġorigin": 3279,
      "mas": 3280,
      "your": 3281,
      "Ġcourage": 3282,
      "Ġpowers": 3283,
      "Ġeat": 3284,
      "Ġgained": 3285,
      "ric": 3286,
      "urday": 3287,
      "Ġstup": 3288,
      "Ġsomebody": 3289,
      "Ġobt": 3290,
      "Ġlod": 3291,
      "Ġconsult": 3292,
      "Ġattent": 3293,
      "Ġgrad": 3294,
      "Ġsupply": 3295,
      "Ġsupposing": 3296,
      "perhaps": 3297,
      "forte": 3298,
      "Ġaccident": 3299,
      "Ġcharge": 3300,
      "Ġapprehens": 3301,
      "Ġattending": 3302,
      "Ġfollow": 3303,
      "Ġsettle": 3304,
      "Ġquietly": 3305,
      "why": 3306,
      "Ġincrease": 3307,
      "Ġlaughing": 3308,
      "Ġcomprehend": 3309,
      "Ġinterrupted": 3310,
      "Ġprincipal": 3311,
      "Ġconsolation": 3312,
      "Ġcruel": 3313,
      "nch": 3314,
      "overy": 3315,
      "Ġtal": 3316,
      "Ġhair": 3317,
      "arity": 3318,
      "illy": 3319,
      "Ġdoors": 3320,
      "ants": 3321,
      "Ġperceive": 3322,
      "osen": 3323,
      "Ġended": 3324,
      "Ġcarried": 3325,
      "Ġrefuse": 3326,
      "Ġworthy": 3327,
      "respond": 3328,
      "Ġcorrespond": 3329,
      "Ġtolerable": 3330,
      "ercross": 3331,
      "Ġsurprize": 3332,
      "Ġsufficient": 3333,
      "Ġimprovement": 3334,
      "Ġsteele": 3335,
      "gu": 3336,
      "Ġwild": 3337,
      "Ġdared": 3338,
      "let": 3339,
      "Ġrend": 3340,
      "Ġrene": 3341,
      "iday": 3342,
      "Ġresult": 3343,
      "Ġsaturday": 3344,
      "Ġrecovered": 3345,
      "they": 3346,
      "Ġcompanions": 3347,
      "Ġpaper": 3348,
      "Ġsatisfy": 3349,
      "Ġgratified": 3350,
      "Ġsafely": 3351,
      "Ġreproach": 3352,
      "Ġfrequent": 3353,
      "Ġthird": 3354,
      "Ġuppercross": 3355,
      "Ġfet": 3356,
      "Ġoffered": 3357,
      "Ġgrove": 3358,
      "sta": 3359,
      "Ġmoved": 3360,
      "Ġuns": 3361,
      "Ġproc": 3362,
      "Ġran": 3363,
      "Ġharville": 3364,
      "Ġcomposure": 3365,
      "Ġchosen": 3366,
      "Ġimprud": 3367,
      "Ġyounger": 3368,
      "Ġapparent": 3369,
      "Ġvisits": 3370,
      "Ġheartily": 3371,
      "Ġinterc": 3372,
      "Ġhonest": 3373,
      "Ġmaid": 3374,
      "Ġstop": 3375,
      "Ġprofession": 3376,
      "Ġheavy": 3377,
      "Ġresentment": 3378,
      "Ġunfortunate": 3379,
      "Ġrational": 3380,
      "Ġfigure": 3381,
      "Ġstupid": 3382,
      "with": 3383,
      "Ġmed": 3384,
      "Ġmam": 3385,
      "Ġsof": 3386,
      "Ġkelly": 3387,
      "pended": 3388,
      "amed": 3389,
      "Ġdark": 3390,
      "Ġexpecting": 3391,
      "Ġblack": 3392,
      "Ġrestr": 3393,
      "Ġtruly": 3394,
      "Ġlistening": 3395,
      "Ġwatch": 3396,
      "Ġsymp": 3397,
      "Ġpatience": 3398,
      "Ġconclusion": 3399,
      "Ġremoval": 3400,
      "Ġmodest": 3401,
      "Ġinquiry": 3402,
      "Ġinquiries": 3403,
      "combe": 3404,
      "Ġbecoming": 3405,
      "Ġmix": 3406,
      "ctory": 3407,
      "Ġstep": 3408,
      "Ġprove": 3409,
      "Ġros": 3410,
      "Ġspeed": 3411,
      "Ġundoubt": 3412,
      "Ġlovely": 3413,
      "Ġclosed": 3414,
      "Ġdistur": 3415,
      "Ġwonderful": 3416,
      "Ġhurried": 3417,
      "Ġcomplexion": 3418,
      "ounced": 3419,
      "Ġarranged": 3420,
      "Ġgrew": 3421,
      "Ġmotive": 3422,
      "Ġstairs": 3423,
      "Ġkellynch": 3424,
      "cies": 3425,
      "wel": 3426,
      "Ġter": 3427,
      "Ġfill": 3428,
      "Ġnonsense": 3429,
      "isk": 3430,
      "ĠâĢĿ": 3431,
      "Ġshut": 3432,
      "Ġprovo": 3433,
      "Ġcontinue": 3434,
      "Ġdirect": 3435,
      "Ġgrace": 3436,
      "Ġhurst": 3437,
      "Ġhuman": 3438,
      "Ġsentiments": 3439,
      "Ġenscombe": 3440,
      "Ġrepresent": 3441,
      "pl": 3442,
      "hearted": 3443,
      "Ġsour": 3444,
      "Ġfal": 3445,
      "Ġnoble": 3446,
      "Ġsunday": 3447,
      "pping": 3448,
      "oted": 3449,
      "Ġconsci": 3450,
      "Ġbetray": 3451,
      "Ġguard": 3452,
      "Ġpropriety": 3453,
      "Ġsensations": 3454,
      "Ġeagerness": 3455,
      "Ġports": 3456,
      "Ġinconvenience": 3457,
      "Ġwitness": 3458,
      "Ġfrightened": 3459,
      "Ġcomparison": 3460,
      "Ġbitter": 3461,
      "Ġnether": 3462,
      "Ġdeparture": 3463,
      "ail": 3464,
      "ially": 3465,
      "leness": 3466,
      "Ġcand": 3467,
      "Ġheight": 3468,
      "Ġreach": 3469,
      "pered": 3470,
      "Ġsending": 3471,
      "Ġdeli": 3472,
      "Ġunable": 3473,
      "Ġperse": 3474,
      "unately": 3475,
      "Ġhouseke": 3476,
      "Ġclay": 3477,
      "Ġraised": 3478,
      "Ġdirection": 3479,
      "Ġthanks": 3480,
      "Ġtriump": 3481,
      "Ġexcessively": 3482,
      "Ġassurance": 3483,
      "Ġbenwick": 3484,
      "Ġaugust": 3485,
      "Ġportsmouth": 3486,
      "Ġnetherfield": 3487,
      "Ġtheat": 3488,
      "Ġnort": 3489,
      "Ġmonday": 3490,
      "Ġqual": 3491,
      "dear": 3492,
      "Ġrose": 3493,
      "Ġsmiles": 3494,
      "Ġovercome": 3495,
      "Ġentrance": 3496,
      "Ġwrit": 3497,
      "Ġvisitor": 3498,
      "Ġgeorge": 3499,
      "Ġinterval": 3500,
      "Ġpropert": 3501,
      "Ġsensibility": 3502,
      "Ġsteady": 3503,
      "ommod": 3504,
      "Ġendeav": 3505,
      "Ġirr": 3506,
      "Ġwedding": 3507,
      "Ġfamilies": 3508,
      "Ġschool": 3509,
      "Ġsoul": 3510,
      "Ġprogress": 3511,
      "Ġintercourse": 3512,
      "..": 3513,
      "con": 3514,
      "Ġtall": 3515,
      "Ġmain": 3516,
      "Ġcrow": 3517,
      "anced": 3518,
      "Ġnovel": 3519,
      "ime": 3520,
      "Ġunne": 3521,
      "Ġresist": 3522,
      "Ġsincerely": 3523,
      "Ġmartha": 3524,
      "Ġlyme": 3525,
      "Ġindulgence": 3526,
      "Ġsurprized": 3527,
      "Ġboys": 3528,
      "Ġinfinitely": 3529,
      "Ġproperty": 3530,
      "Ġunnecess": 3531,
      "mn": 3532,
      "umed": 3533,
      "ening": 3534,
      "Ġheld": 3535,
      "ancy": 3536,
      "omfort": 3537,
      "Ġgay": 3538,
      "Ġwear": 3539,
      "Ġstud": 3540,
      "aking": 3541,
      "Ġmisfort": 3542,
      "Ġunlike": 3543,
      "Ġchose": 3544,
      "cied": 3545,
      "Ġcaution": 3546,
      "Ġfreind": 3547,
      "Ġfancied": 3548,
      "Ġconnection": 3549,
      "Ġconnexion": 3550,
      "Ġwatching": 3551,
      "Ġneighbours": 3552,
      "Ġanger": 3553,
      "Ġshewed": 3554,
      "Ġcommunication": 3555,
      "Ġexertion": 3556,
      "Ġventure": 3557,
      "Ġcatch": 3558,
      "Ġsolemn": 3559,
      "Ġcordial": 3560,
      "Ġpianoforte": 3561,
      "cer": 3562,
      "Ġsink": 3563,
      "Ġbreat": 3564,
      "Ġdrove": 3565,
      "Ġpit": 3566,
      "Ġshru": 3567,
      "Ġliber": 3568,
      "andra": 3569,
      "Ġrank": 3570,
      "Ġattack": 3571,
      "Ġways": 3572,
      "Ġpassage": 3573,
      "Ġindisp": 3574,
      "Ġchanged": 3575,
      "Ġreadily": 3576,
      "Ġuncertain": 3577,
      "Ġshortly": 3578,
      "Ġdifferently": 3579,
      "Ġdistressed": 3580,
      "Ġdrink": 3581,
      "mission": 3582,
      "Ġemployment": 3583,
      "Ġhabits": 3584,
      "Ġlucky": 3585,
      "Ġremembrance": 3586,
      "Ġemotion": 3587,
      "Ġregular": 3588,
      "Ġimpression": 3589,
      "Ġchapter": 3590,
      "stairs": 3591,
      "Ġsoften": 3592,
      "Ġcrowd": 3593,
      "gent": 3594,
      "mory": 3595,
      "vol": 3596,
      "Ġsqu": 3597,
      "remon": 3598,
      "Ġdu": 3599,
      "Ġdomest": 3600,
      "Ġnur": 3601,
      "Ġprud": 3602,
      "Ġlament": 3603,
      "Ġforth": 3604,
      "Ġmemory": 3605,
      "Ġunited": 3606,
      "ouses": 3607,
      "venient": 3608,
      "fulness": 3609,
      "Ġfirm": 3610,
      "tens": 3611,
      "Ġbegged": 3612,
      "Ġfarm": 3613,
      "Ġcomplaint": 3614,
      "Ġrelated": 3615,
      "Ġconvince": 3616,
      "luck": 3617,
      "Ġlaur": 3618,
      "Ġdeserved": 3619,
      "Ġcrown": 3620,
      "Ġslow": 3621,
      "Ġmutual": 3622,
      "Ġcassandra": 3623,
      "Ġpoliteness": 3624,
      "Ġsympath": 3625,
      "Ġdomestic": 3626,
      "bly": 3627,
      "sa": 3628,
      "tw": 3629,
      "Ġ2": 3630,
      "hest": 3631,
      "inte": 3632,
      "verse": 3633,
      "Ġshow": 3634,
      "Ġagitated": 3635,
      "though": 3636,
      "Ġundert": 3637,
      "Ġclergy": 3638,
      "Ġwaited": 3639,
      "Ġmaple": 3640,
      "Ġrequire": 3641,
      "Ġlaid": 3642,
      "Ġsimp": 3643,
      "Ġremarkably": 3644,
      "Ġparlour": 3645,
      "Ġconcluded": 3646,
      "Ġimproved": 3647,
      "Ġbenef": 3648,
      "Ġdemand": 3649,
      "Ġesteem": 3650,
      "Ġundoubtedly": 3651,
      "ex": 3652,
      "nesday": 3653,
      "Ġav": 3654,
      "Ġwall": 3655,
      "rew": 3656,
      "have": 3657,
      "Ġtor": 3658,
      "itations": 3659,
      "Ġhither": 3660,
      "Ġantic": 3661,
      "Ġexpense": 3662,
      "Ġbroken": 3663,
      "Ġpossession": 3664,
      "Ġaffections": 3665,
      "Ġuncomfort": 3666,
      "Ġexpressions": 3667,
      "Ġprobable": 3668,
      "Ġkeeping": 3669,
      "Ġhorr": 3670,
      "Ġplaces": 3671,
      "Ġfaults": 3672,
      "Ġescap": 3673,
      "Ġdelicate": 3674,
      "Ġdefic": 3675,
      "Ġconveyed": 3676,
      "Ġvillage": 3677,
      "Ġgradually": 3678,
      "iven": 3679,
      "oved": 3680,
      "uff": 3681,
      "Ġmile": 3682,
      "Ġcast": 3683,
      "Ġfate": 3684,
      "Ġdull": 3685,
      "isite": 3686,
      "Ġloud": 3687,
      "set": 3688,
      "imp": 3689,
      "Ġsoph": 3690,
      "Ġquitted": 3691,
      "Ġspared": 3692,
      "Ġsomewhat": 3693,
      "Ġhappier": 3694,
      "Ġeliza": 3695,
      "Ġvisitors": 3696,
      "Ġpleasures": 3697,
      "Ġstead": 3698,
      "Ġpains": 3699,
      "Ġengagements": 3700,
      "Ġbeloved": 3701,
      "Ġceremon": 3702,
      "Ġdisgust": 3703,
      "Ġborne": 3704,
      "Ġfalse": 3705,
      "Ġanticip": 3706,
      ";\"": 3707,
      "ey": 3708,
      "ored": 3709,
      "Ġbir": 3710,
      "Ġnove": 3711,
      "Ġmoving": 3712,
      "race": 3713,
      "Ġaltered": 3714,
      "Ġpreference": 3715,
      "mpton": 3716,
      "Ġride": 3717,
      "Ġrising": 3718,
      "Ġacross": 3719,
      "dered": 3720,
      "Ġelo": 3721,
      "Ġlover": 3722,
      "Ġremind": 3723,
      "Ġsupper": 3724,
      "Ġmatrim": 3725,
      "Ġinfor": 3726,
      "Ġsecured": 3727,
      "Ġrefused": 3728,
      "Ġpoints": 3729,
      "Ġoppos": 3730,
      "Ġhurt": 3731,
      "upon": 3732,
      "Ġestim": 3733,
      "Ġforgive": 3734,
      "Ġwatched": 3735,
      "Ġceased": 3736,
      "Ġintentions": 3737,
      "Ġinduced": 3738,
      "ursday": 3739,
      "Ġcontempt": 3740,
      "Ġmeasure": 3741,
      "Ġunexpect": 3742,
      "Ġwhisper": 3743,
      "Ġlater": 3744,
      "Ġearlier": 3745,
      "Ġdignity": 3746,
      "Ġconscience": 3747,
      "Ġendeavoured": 3748,
      "Ġuncomfortable": 3749,
      "did": 3750,
      "Ġsize": 3751,
      "Ġcared": 3752,
      "Ġcool": 3753,
      "Ġdied": 3754,
      "Ġresemb": 3755,
      "Ġforce": 3756,
      "riages": 3757,
      "ote": 3758,
      "Ġunluck": 3759,
      "Ġprec": 3760,
      "Ġgrown": 3761,
      "Ġpreser": 3762,
      "Ġdistant": 3763,
      "Ġdiscover": 3764,
      "Ġputting": 3765,
      "Ġintroduction": 3766,
      "Ġparish": 3767,
      "Ġhastily": 3768,
      "Ġcheerfulness": 3769,
      "Ġforese": 3770,
      "Ġtreated": 3771,
      "natured": 3772,
      "Ġchiefly": 3773,
      "Ġindependence": 3774,
      "Ġvolunt": 3775,
      "Ġtrifling": 3776,
      "Ġsleep": 3777,
      "poor": 3778,
      "Ġembarrassment": 3779,
      "Ġenquir": 3780,
      "Ġchristmas": 3781,
      "Ġrosings": 3782,
      "Ġopposite": 3783,
      "just": 3784,
      "than": 3785,
      "ude": 3786,
      "Ġsought": 3787,
      "Ġchat": 3788,
      "vered": 3789,
      "iding": 3790,
      "road": 3791,
      "oose": 3792,
      "Ġfema": 3793,
      "Ġfaith": 3794,
      "Ġattract": 3795,
      "Ġargu": 3796,
      "Ġgrounds": 3797,
      "Ġaccommod": 3798,
      "Ġpersonal": 3799,
      "Ġpersuasion": 3800,
      "while": 3801,
      "Ġdanced": 3802,
      "Ġorders": 3803,
      "Ġaffairs": 3804,
      "Ġlearnt": 3805,
      "Ġhousekeeper": 3806,
      "kins": 3807,
      "liness": 3808,
      "zing": 3809,
      "here": 3810,
      "Ġbow": 3811,
      "Ġbour": 3812,
      "rible": 3813,
      "roy": 3814,
      "Ġanywhere": 3815,
      "Ġentering": 3816,
      "Ġassert": 3817,
      "Ġstrongly": 3818,
      "when": 3819,
      "Ġremaining": 3820,
      "Ġincreasing": 3821,
      "Ġreflections": 3822,
      "Ġstrugg": 3823,
      "Ġvarious": 3824,
      "Ġblessing": 3825,
      "Ġpressed": 3826,
      "Ġuneasy": 3827,
      "Ġaccomplished": 3828,
      "Ġtranquill": 3829,
      "Ġattentive": 3830,
      "Ġunnecessary": 3831,
      "Ġlaura": 3832,
      "Ġinformed": 3833,
      "back": 3834,
      "bber": 3835,
      "Ġmery": 3836,
      "iture": 3837,
      "Ġinn": 3838,
      "Ġthursday": 3839,
      "urd": 3840,
      "ains": 3841,
      "Ġseason": 3842,
      "Ġdeceived": 3843,
      "Ġdepended": 3844,
      "Ġlonged": 3845,
      "Ġattra": 3846,
      "Ġthrow": 3847,
      "Ġinvite": 3848,
      "Ġrapt": 3849,
      "Ġraise": 3850,
      "Ġcares": 3851,
      "Ġcareless": 3852,
      "Ġinsens": 3853,
      "Ġlaw": 3854,
      "Ġdecidedly": 3855,
      "Ġpaying": 3856,
      "ĠĠĠĠ": 3857,
      "Ġafforded": 3858,
      "Ġhighest": 3859,
      "Ġprevailed": 3860,
      "Ġsacrifice": 3861,
      "Ġnovember": 3862,
      "Ġmeryton": 3863,
      "Ġali": 3864,
      "rep": 3865,
      "Ġbust": 3866,
      "Ġcal": 3867,
      "Ġcoo": 3868,
      "Ġdances": 3869,
      "Ġnine": 3870,
      "llable": 3871,
      "Ġet": 3872,
      "Ġshewn": 3873,
      "Ġones": 3874,
      "ets": 3875,
      "ries": 3876,
      "ribut": 3877,
      "ading": 3878,
      "Ġsaf": 3879,
      "Ġhappiest": 3880,
      "Ġdespa": 3881,
      "Ġapplic": 3882,
      "Ġsetting": 3883,
      "Ġinstance": 3884,
      "Ġprevious": 3885,
      "Ġsteps": 3886,
      "Ġdetermine": 3887,
      "Ġplayed": 3888,
      "Ġbehaved": 3889,
      "Ġhumble": 3890,
      "Ġconcerns": 3891,
      "Ġdressed": 3892,
      "Ġemployed": 3893,
      "Ġutter": 3894,
      "Ġaccordingly": 3895,
      "Ġpretend": 3896,
      "Ġneglect": 3897,
      "Ġfeatures": 3898,
      "Ġbourgh": 3899,
      "don": 3900,
      "ron": 3901,
      "Ġwise": 3902,
      "Ġbas": 3903,
      "Ġcure": 3904,
      "Ġnay": 3905,
      "Ġhate": 3906,
      "Ġbew": 3907,
      "Ġlives": 3908,
      "Ġliken": 3909,
      "Ġlibr": 3910,
      "Ġaloud": 3911,
      "Ġmoreover": 3912,
      "Ġvic": 3913,
      "Ġgoes": 3914,
      "umb": 3915,
      "Ġbroke": 3916,
      "Ġconfined": 3917,
      "Ġsusp": 3918,
      "Ġplaying": 3919,
      "Ġstronger": 3920,
      "Ġenjoyed": 3921,
      "Ġamongst": 3922,
      "Ġexplained": 3923,
      "Ġwater": 3924,
      "formed": 3925,
      "Ġdressing": 3926,
      "Ġproduce": 3927,
      "Ġtrusted": 3928,
      "Ġmoder": 3929,
      "Ġvariety": 3930,
      "Ġimpatience": 3931,
      "char": 3932,
      "Ġvexation": 3933,
      "Ġremembered": 3934,
      "Ġphili": 3935,
      "Ġuneasiness": 3936,
      "Ġignorant": 3937,
      "Ġreserve": 3938,
      "Ġnervous": 3939,
      "Ġtouch": 3940,
      "Ġdaily": 3941,
      "Ġindignation": 3942,
      "thank": 3943,
      "Ġlibrary": 3944,
      "lance": 3945,
      "ung": 3946,
      "ounce": 3947,
      "Ġdwell": 3948,
      "Ġna": 3949,
      "Ġland": 3950,
      "Ġreception": 3951,
      "als": 3952,
      "Ġnearer": 3953,
      "Ġfriday": 3954,
      "Ġshook": 3955,
      "Ġlie": 3956,
      "Ġlips": 3957,
      "Ġmissed": 3958,
      "Ġabroad": 3959,
      "ertin": 3960,
      "Ġgoodness": 3961,
      "Ġimpertin": 3962,
      "Ġgrow": 3963,
      "Ġappears": 3964,
      "Ġendure": 3965,
      "Ġapplied": 3966,
      "Ġpassion": 3967,
      "Ġsurr": 3968,
      "noon": 3969,
      "Ġdirected": 3970,
      "Ġpurcha": 3971,
      "Ġapproaching": 3972,
      "Ġdistressing": 3973,
      "Ġaddressed": 3974,
      "Ġanna": 3975,
      "Ġfallen": 3976,
      "Ġvexed": 3977,
      "Ġsufficiently": 3978,
      "Ġwednesday": 3979,
      "Ġinduce": 3980,
      "Ġindependent": 3981,
      "Ġprovided": 3982,
      "Ġperformance": 3983,
      "Ġfurniture": 3984,
      "Ġsophia": 3985,
      "Ġlikeness": 3986,
      "gar": 3987,
      "lish": 3988,
      "nown": 3989,
      "Ġsilly": 3990,
      "Ġwid": 3991,
      "arrow": 3992,
      "attered": 3993,
      "Ġyield": 3994,
      "Ġassemb": 3995,
      "Ġsother": 3996,
      "Ġdead": 3997,
      "Ġfront": 3998,
      "Ġshy": 3999,
      "oused": 4000,
      "Ġpron": 4001,
      "Ġoffice": 4002,
      "Ġcertainty": 4003,
      "Ġcommend": 4004,
      "Ġfairly": 4005,
      "Ġadvise": 4006,
      "Ġcheek": 4007,
      "Ġdream": 4008,
      "Ġintroduce": 4009,
      "Ġboast": 4010,
      "Ġhigher": 4011,
      "Ġviolent": 4012,
      "Ġauthority": 4013,
      "Ġdistinction": 4014,
      "Ġfatigu": 4015,
      "Ġoffended": 4016,
      "Ġtheatre": 4017,
      "Ġbustle": 4018,
      "Ġsotherton": 4019,
      "bb": 4020,
      "ners": 4021,
      "table": 4022,
      "Ġer": 4023,
      "Ġing": 4024,
      "Ġtaught": 4025,
      "hampton": 4026,
      "only": 4027,
      "arance": 4028,
      "Ġlower": 4029,
      "Ġnotion": 4030,
      "sey": 4031,
      "Ġsex": 4032,
      "ards": 4033,
      "Ġrisk": 4034,
      "Ġmarg": 4035,
      "Ġfailed": 4036,
      "Ġafternoon": 4037,
      "Ġdesp": 4038,
      "Ġvisited": 4039,
      "Ġnorland": 4040,
      "Ġbrothers": 4041,
      "Ġsincere": 4042,
      "Ġdisplay": 4043,
      "Ġextent": 4044,
      "Ġcharacters": 4045,
      "Ġjudged": 4046,
      "Ġdecision": 4047,
      "Ġexcited": 4048,
      "Ġcondition": 4049,
      "Ġoccasionally": 4050,
      "Ġballs": 4051,
      "Ġadvantages": 4052,
      "Ġquickly": 4053,
      "Ġgrieved": 4054,
      "Ġcampbells": 4055,
      "Ġseparation": 4056,
      "Ġignorance": 4057,
      "Ġexistence": 4058,
      "Ġunreason": 4059,
      "Ġdiscussion": 4060,
      "Ġsource": 4061,
      "twenty": 4062,
      "Ġhorror": 4063,
      "view": 4064,
      "Ġsin": 4065,
      "Ġdined": 4066,
      "Ġnarrow": 4067,
      "chief": 4068,
      "Ġforb": 4069,
      "Ġsail": 4070,
      "Ġordered": 4071,
      "Ġquit": 4072,
      "aret": 4073,
      "Ġchaise": 4074,
      "Ġoffence": 4075,
      "Ġcarriages": 4076,
      "Ġtakes": 4077,
      "Ġcontinual": 4078,
      "Ġforming": 4079,
      "Ġconcert": 4080,
      "Ġexplain": 4081,
      "Ġforgiven": 4082,
      "Ġdependence": 4083,
      "Ġsyllable": 4084,
      "mrs": 4085,
      "Ġstriking": 4086,
      "Ġpeculiar": 4087,
      "Ġconfirm": 4088,
      "Ġquarrel": 4089,
      "Ġsoftened": 4090,
      "Ġclergyman": 4091,
      "Ġescaped": 4092,
      "good": 4093,
      "pul": 4094,
      "Ġsw": 4095,
      "Ġmil": 4096,
      "Ġmild": 4097,
      "Ġhay": 4098,
      "asions": 4099,
      "Ġhouses": 4100,
      "Ġnoise": 4101,
      "omin": 4102,
      "Ġtho": 4103,
      "etr": 4104,
      "ooting": 4105,
      "rand": 4106,
      "Ġamend": 4107,
      "usal": 4108,
      "Ġmanage": 4109,
      "Ġharp": 4110,
      "Ġcomposed": 4111,
      "Ġattribut": 4112,
      "Ġsurely": 4113,
      "Ġuncomm": 4114,
      "Ġcontinually": 4115,
      "Ġdiscern": 4116,
      "Ġinterference": 4117,
      "Ġobjects": 4118,
      "Ġdeclined": 4119,
      "Ġapproach": 4120,
      "Ġapproached": 4121,
      "Ġinquired": 4122,
      "who": 4123,
      "Ġcorre": 4124,
      "Ġsuggested": 4125,
      "Ġofficers": 4126,
      "Ġsunk": 4127,
      "Ġvaluable": 4128,
      "Ġcalcul": 4129,
      "Ġetc": 4130,
      "Ġox": 4131,
      "hand": 4132,
      "Ġbri": 4133,
      "aning": 4134,
      "Ġlane": 4135,
      "Ġforty": 4136,
      "Ġwealth": 4137,
      "irty": 4138,
      "Ġung": 4139,
      "Ġprejud": 4140,
      "Ġprote": 4141,
      "Ġspread": 4142,
      "Ġcompared": 4143,
      "aging": 4144,
      "umn": 4145,
      "Ġarise": 4146,
      "Ġmorrow": 4147,
      "Ġmeanwhile": 4148,
      "uding": 4149,
      "Ġapprove": 4150,
      "Ġincons": 4151,
      "Ġcomforts": 4152,
      "Ġdoubtful": 4153,
      "Ġrelation": 4154,
      "Ġexcite": 4155,
      "Ġhonourable": 4156,
      "Ġwindows": 4157,
      "Ġencouraged": 4158,
      "Ġaddressing": 4159,
      "Ġrecommended": 4160,
      "Ġschem": 4161,
      "Ġrecollected": 4162,
      "Ġgrief": 4163,
      "Ġelder": 4164,
      "Ġventured": 4165,
      "Ġrejoice": 4166,
      "Ġpreferred": 4167,
      "Ġdivided": 4168,
      "Ġaffli": 4169,
      "Ġanimation": 4170,
      "Ġpreparing": 4171,
      "underst": 4172,
      "Ġunkind": 4173,
      "borough": 4174,
      "Ġrendered": 4175,
      "Ġtriumph": 4176,
      "Ġsquare": 4177,
      "Ġhitherto": 4178,
      "vant": 4179,
      "Ġsnow": 4180,
      "hab": 4181,
      "oring": 4182,
      "Ġforbe": 4183,
      "Ġexqu": 4184,
      "Ġles": 4185,
      "Ġalas": 4186,
      "Ġunworth": 4187,
      "Ġseek": 4188,
      "Ġperfection": 4189,
      "Ġvul": 4190,
      "Ġshar": 4191,
      "Ġresidence": 4192,
      "fordshire": 4193,
      "Ġoverp": 4194,
      "Ġjustified": 4195,
      "Ġscen": 4196,
      "Ġexpectations": 4197,
      "Ġuncon": 4198,
      "Ġactive": 4199,
      "Ġgracious": 4200,
      "Ġexpressing": 4201,
      "Ġopposition": 4202,
      "Ġsentence": 4203,
      "Ġmidst": 4204,
      "Ġcease": 4205,
      "Ġdescribed": 4206,
      "Ġtremb": 4207,
      "Ġsuspicions": 4208,
      "Ġrunning": 4209,
      "Ġfrederick": 4210,
      "Ġleading": 4211,
      "Ġestablished": 4212,
      "Ġcollected": 4213,
      "Ġdistinguished": 4214,
      "Ġtravelling": 4215,
      "Ġgallantry": 4216,
      "Ġresemblance": 4217,
      "Ġdespair": 4218,
      "Ġmargaret": 4219,
      "pers": 4220,
      "uit": 4221,
      "Ġaut": 4222,
      "rence": 4223,
      "Ġow": 4224,
      "Ġmur": 4225,
      "Ġmaint": 4226,
      "Ġbore": 4227,
      "Ġidle": 4228,
      "lled": 4229,
      "Ġparce": 4230,
      "Ġleg": 4231,
      "Ġmisunderst": 4232,
      "Ġshop": 4233,
      "Ġquitting": 4234,
      "Ġmarked": 4235,
      "erton": 4236,
      "ift": 4237,
      "Ġspending": 4238,
      "Ġbelieving": 4239,
      "cili": 4240,
      "Ġgloom": 4241,
      "isted": 4242,
      "Ġgenerous": 4243,
      "Ġseeming": 4244,
      "Ġopenly": 4245,
      "Ġexchan": 4246,
      "ission": 4247,
      "Ġthankful": 4248,
      "Ġaccepting": 4249,
      "Ġunequ": 4250,
      "Ġexcepting": 4251,
      "Ġencouraging": 4252,
      "Ġdriving": 4253,
      "Ġfalling": 4254,
      "Ġshocked": 4255,
      "Ġshocking": 4256,
      "Ġdeny": 4257,
      "Ġalteration": 4258,
      "Ġsuspense": 4259,
      "Ġexquisite": 4260,
      "Ġparcel": 4261,
      "ale": 4262,
      "ec": 4263,
      "ich": 4264,
      "ivers": 4265,
      "mam": 4266,
      "uous": 4267,
      "Ġwar": 4268,
      "erous": 4269,
      "Ġfaint": 4270,
      "Ġhat": 4271,
      "Ġinno": 4272,
      "Ġeast": 4273,
      "Ġascertain": 4274,
      "Ġsho": 4275,
      "Ġliking": 4276,
      "Ġparts": 4277,
      "oline": 4278,
      "ustom": 4279,
      "Ġfeels": 4280,
      "Ġyoungest": 4281,
      "Ġsubst": 4282,
      "Ġclot": 4283,
      "Ġcomfortably": 4284,
      "Ġcourcy": 4285,
      "Ġoblig": 4286,
      "Ġdoubts": 4287,
      "Ġdoubted": 4288,
      "Ġdiscovery": 4289,
      "Ġaccounts": 4290,
      "Ġfancying": 4291,
      "Ġdescribe": 4292,
      "Ġcorner": 4293,
      "Ġattempted": 4294,
      "Ġhints": 4295,
      "Ġmotives": 4296,
      "Ġmortification": 4297,
      "Ġendeavouring": 4298,
      "Ġcalmness": 4299,
      "Ġdisgrace": 4300,
      "Ġbaron": 4301,
      "Ġparents": 4302,
      "Ġmainw": 4303,
      "Ġshrubber": 4304,
      "Ġsympathy": 4305,
      "Ġceremony": 4306,
      "Ġbirth": 4307,
      "Ġunexpected": 4308,
      "Ġsafety": 4309,
      "Ġlesley": 4310,
      "Ġaro": 4311,
      "Ġaust": 4312,
      "ital": 4313,
      "itary": 4314,
      "Ġbell": 4315,
      "att": 4316,
      "Ġsoft": 4317,
      "roves": 4318,
      "Ġconvenience": 4319,
      "Ġneck": 4320,
      "Ġsave": 4321,
      "Ġunjust": 4322,
      "Ġprecious": 4323,
      "Ġmark": 4324,
      "Ġsport": 4325,
      "Ġhost": 4326,
      "Ġworn": 4327,
      "Ġbelief": 4328,
      "Ġcharade": 4329,
      "Ġdiscourse": 4330,
      "Ġprompt": 4331,
      "Ġconsequently": 4332,
      "Ġlarger": 4333,
      "Ġsatisfactory": 4334,
      "Ġfearful": 4335,
      "Ġformerly": 4336,
      "Ġsuperiority": 4337,
      "appe": 4338,
      "Ġevils": 4339,
      "Ġmerits": 4340,
      "Ġcontrad": 4341,
      "month": 4342,
      "ableness": 4343,
      "Ġinjured": 4344,
      "Ġcivilities": 4345,
      "Ġcards": 4346,
      "Ġtempted": 4347,
      "Ġfatigue": 4348,
      "Ġpartiality": 4349,
      "certainly": 4350,
      "Ġapartment": 4351,
      "Ġfetch": 4352,
      "Ġtranquillity": 4353,
      "Ġhayter": 4354,
      "Ġautumn": 4355,
      "Ġarose": 4356,
      "ned": 4357,
      "Ġalike": 4358,
      "Ġire": 4359,
      "Ġcens": 4360,
      "oned": 4361,
      "ancing": 4362,
      "Ġnotions": 4363,
      "Ġthin": 4364,
      "Ġsuck": 4365,
      "ades": 4366,
      "Ġdece": 4367,
      "Ġstage": 4368,
      "Ġamusing": 4369,
      "Ġlikes": 4370,
      "ilar": 4371,
      "Ġchoose": 4372,
      "Ġelig": 4373,
      "plex": 4374,
      "Ġcox": 4375,
      "Ġdesert": 4376,
      "Ġrecall": 4377,
      "Ġeltons": 4378,
      "lessness": 4379,
      "Ġcaroline": 4380,
      "Ġstranger": 4381,
      "Ġappearing": 4382,
      "Ġdiscovered": 4383,
      "Ġresolve": 4384,
      "Ġrelate": 4385,
      "Ġthanked": 4386,
      "Ġpleasantly": 4387,
      "Ġacceptable": 4388,
      "Ġtrick": 4389,
      "Ġremains": 4390,
      "Ġreflect": 4391,
      "Ġremarks": 4392,
      "Ġdangerous": 4393,
      "Ġhaste": 4394,
      "Ġwelcom": 4395,
      "Ġcongratulations": 4396,
      "Ġapology": 4397,
      "Ġscruple": 4398,
      "Ġinev": 4399,
      "Ġpeculiarly": 4400,
      "ridge": 4401,
      "Ġapprehension": 4402,
      "Ġmatrimony": 4403,
      "Ġunworthy": 4404,
      "oc": 4405,
      "part": 4406,
      "sha": 4407,
      "ture": 4408,
      "umpt": 4409,
      "Ġah": 4410,
      "Ġaction": 4411,
      "Ġsong": 4412,
      "Ġbid": 4413,
      "Ġlim": 4414,
      "Ġlace": 4415,
      "Ġgain": 4416,
      "Ġthreat": 4417,
      "Ġconvenient": 4418,
      "Ġstation": 4419,
      "Ġjan": 4420,
      "icing": 4421,
      "Ġamount": 4422,
      "Ġperceiving": 4423,
      "Ġperplex": 4424,
      "Ġpreced": 4425,
      "Ġartic": 4426,
      "Ġcost": 4427,
      "Ġengaging": 4428,
      "Ġtells": 4429,
      "Ġwherever": 4430,
      "Ġconfident": 4431,
      "Ġadvanced": 4432,
      "igned": 4433,
      "vile": 4434,
      "Ġwondered": 4435,
      "mptom": 4436,
      "Ġflirt": 4437,
      "Ġwondering": 4438,
      "Ġinquire": 4439,
      "Ġpuzz": 4440,
      "Ġsymptom": 4441,
      "Ġprinciple": 4442,
      "Ġdevoted": 4443,
      "Ġseparate": 4444,
      "Ġcurt": 4445,
      "Ġgaiety": 4446,
      "humoured": 4447,
      "Ġsubmit": 4448,
      "Ġerror": 4449,
      "Ġrestraint": 4450,
      "interest": 4451,
      "Ġfemale": 4452,
      "Ġerrand": 4453,
      "Ġschemes": 4454,
      "Ġscenes": 4455,
      "Ġmainwaring": 4456,
      "Ġausten": 4457,
      "_;": 4458,
      "cence": 4459,
      "emed": 4460,
      "pet": 4461,
      "Ġterr": 4462,
      "rer": 4463,
      "Ġmag": 4464,
      "Ġdie": 4465,
      "iter": 4466,
      "Ġemp": 4467,
      "atis": 4468,
      "Ġlam": 4469,
      "Ġthither": 4470,
      "Ġreward": 4471,
      "Ġwithd": 4472,
      "ctor": 4473,
      "Ġstir": 4474,
      "Ġneat": 4475,
      "Ġfever": 4476,
      "Ġsaved": 4477,
      "Ġabrupt": 4478,
      "Ġabilities": 4479,
      "Ġvast": 4480,
      "Ġroused": 4481,
      "Ġshake": 4482,
      "Ġobst": 4483,
      "Ġcontented": 4484,
      "Ġbroad": 4485,
      "Ġcaut": 4486,
      "retion": 4487,
      "Ġrestored": 4488,
      "Ġacted": 4489,
      "Ġpromising": 4490,
      "Ġpreviously": 4491,
      "Ġjohnson": 4492,
      "Ġabsurd": 4493,
      "Ġpaused": 4494,
      "Ġdecide": 4495,
      "Ġfinish": 4496,
      "Ġsweetness": 4497,
      "Ġslightest": 4498,
      "Ġprosper": 4499,
      "Ġgreen": 4500,
      "Ġmusgroves": 4501,
      "Ġalarming": 4502,
      "Ġcontrast": 4503,
      "Ġplainly": 4504,
      "Ġrelieved": 4505,
      "Ġridicul": 4506,
      "Ġstaid": 4507,
      "Ġsupported": 4508,
      "Ġborn": 4509,
      "Ġscruples": 4510,
      "Ġassurances": 4511,
      "Ġtwelvemonth": 4512,
      "Ġdestroy": 4513,
      "Ġpenetr": 4514,
      "Ġamaze": 4515,
      "Ġreserved": 4516,
      "after": 4517,
      "Ġfifty": 4518,
      "Ġpositively": 4519,
      "Ġjealousy": 4520,
      "Ġguests": 4521,
      "Ġrejoiced": 4522,
      "cerity": 4523,
      "said": 4524,
      "Ġbenefit": 4525,
      "Ġcheeks": 4526,
      "Ġoxford": 4527,
      "Ġireland": 4528,
      "iance": 4529,
      "mond": 4530,
      "pit": 4531,
      "wr": 4532,
      "xions": 4533,
      "ys": 4534,
      "Ġtire": 4535,
      "Ġfare": 4536,
      "Ġnames": 4537,
      "Ġhaw": 4538,
      "Ġple": 4539,
      "Ġlab": 4540,
      "lying": 4541,
      "vert": 4542,
      "Ġrehe": 4543,
      "aye": 4544,
      "Ġsofa": 4545,
      "Ġallowing": 4546,
      "Ġstarted": 4547,
      "Ġunwel": 4548,
      "Ġdiseng": 4549,
      "Ġvirt": 4550,
      "Ġspecul": 4551,
      "Ġscot": 4552,
      "Ġcommission": 4553,
      "Ġcontinuing": 4554,
      "Ġolder": 4555,
      "Ġhoping": 4556,
      "Ġpair": 4557,
      "Ġrespects": 4558,
      "Ġproport": 4559,
      "Ġcleve": 4560,
      "Ġconnexions": 4561,
      "Ġrepeat": 4562,
      "Ġconstantly": 4563,
      "Ġhasty": 4564,
      "Ġprepare": 4565,
      "Ġtreatment": 4566,
      "Ġblushed": 4567,
      "Ġanimated": 4568,
      "Ġtrifle": 4569,
      "Ġsolitude": 4570,
      "Ġexperience": 4571,
      "Ġwrites": 4572,
      "Ġliberal": 4573,
      "Ġvicar": 4574,
      "Ġunwelcome": 4575,
      "pray": 4576,
      "zen": 4577,
      "inations": 4578,
      "Ġsn": 4579,
      "Ġsangu": 4580,
      "Ġwet": 4581,
      "Ġwine": 4582,
      "Ġbought": 4583,
      "Ġbrie": 4584,
      "ouche": 4585,
      "Ġhaz": 4586,
      "Ġpal": 4587,
      "Ġpul": 4588,
      "Ġess": 4589,
      "Ġgame": 4590,
      "urity": 4591,
      "Ġstock": 4592,
      "Ġknock": 4593,
      "Ġunfa": 4594,
      "Ġabomin": 4595,
      "Ġadie": 4596,
      "Ġupstairs": 4597,
      "Ġgover": 4598,
      "Ġloves": 4599,
      "Ġexpens": 4600,
      "Ġbride": 4601,
      "Ġspeaks": 4602,
      "Ġappoint": 4603,
      "Ġprivile": 4604,
      "Ġhonoured": 4605,
      "byshire": 4606,
      "Ġdeclar": 4607,
      "Ġboard": 4608,
      "Ġremarkable": 4609,
      "Ġsixteen": 4610,
      "Ġprinciples": 4611,
      "Ġbuy": 4612,
      "Ġimproper": 4613,
      "Ġmotion": 4614,
      "Ġguessed": 4615,
      "maid": 4616,
      "olding": 4617,
      "Ġthirty": 4618,
      "Ġpolite": 4619,
      "Ġsufferings": 4620,
      "Ġwretchedness": 4621,
      "Ġnerves": 4622,
      "Ġcarrying": 4623,
      "Ġestablishment": 4624,
      "Ġpositive": 4625,
      "Ġdispleasure": 4626,
      "Ġderbyshire": 4627,
      "Ġlodg": 4628,
      "Ġmama": 4629,
      "Ġdisturb": 4630,
      "place": 4631,
      "Ġmisfortune": 4632,
      "Ġwallis": 4633,
      "Ġapplication": 4634,
      "chard": 4635,
      "Ġunreasonable": 4636,
      "Ġsanguine": 4637,
      "Ġbrief": 4638,
      "cent": 4639,
      "his": 4640,
      "may": 4641,
      "Ġwound": 4642,
      "Ġmeth": 4643,
      "has": 4644,
      "Ġbon": 4645,
      "Ġdim": 4646,
      "Ġdirty": 4647,
      "itions": 4648,
      "Ġhunt": 4649,
      "armed": 4650,
      "verted": 4651,
      "Ġwey": 4652,
      "Ġproject": 4653,
      "Ġenvy": 4654,
      "inement": 4655,
      "aces": 4656,
      "acity": 4657,
      "Ġwalks": 4658,
      "Ġminds": 4659,
      "Ġoccasions": 4660,
      "Ġturns": 4661,
      "Ġfortitude": 4662,
      "Ġreasons": 4663,
      "Ġinterp": 4664,
      "Ġpointed": 4665,
      "Ġreluct": 4666,
      "Ġcollection": 4667,
      "Ġgratifying": 4668,
      "Ġregretted": 4669,
      "Ġdriven": 4670,
      "Ġmusical": 4671,
      "Ġobjections": 4672,
      "Ġdesirous": 4673,
      "Ġpressing": 4674,
      "Ġunfortunately": 4675,
      "Ġcontempl": 4676,
      "Ġinvolved": 4677,
      "Ġreconc": 4678,
      "Ġrenewed": 4679,
      "Ġprecise": 4680,
      "Ġsincerity": 4681,
      "Ġamazement": 4682,
      "Ġlodgings": 4683,
      "bo": 4684,
      "dom": 4685,
      "go": 4686,
      "hib": 4687,
      "oci": 4688,
      "pher": 4689,
      "vity": 4690,
      "inct": 4691,
      "resh": 4692,
      "har": 4693,
      "Ġhy": 4694,
      "Ġhert": 4695,
      "uted": 4696,
      "Ġweight": 4697,
      "Ġsuited": 4698,
      "Ġsoot": 4699,
      "Ġsees": 4700,
      "Ġdefe": 4701,
      "akes": 4702,
      "Ġalarmed": 4703,
      "Ġunfe": 4704,
      "Ġdismiss": 4705,
      "ush": 4706,
      "aches": 4707,
      "Ġarch": 4708,
      "unes": 4709,
      "Ġdesborough": 4710,
      "Ġassoci": 4711,
      "Ġbrid": 4712,
      "Ġenglish": 4713,
      "Ġhence": 4714,
      "Ġdiscretion": 4715,
      "Ġprett": 4716,
      "Ġpropose": 4717,
      "Ġbertrams": 4718,
      "Ġinsuff": 4719,
      "Ġregrets": 4720,
      "which": 4721,
      "Ġconstit": 4722,
      "Ġrecommendation": 4723,
      "Ġshewing": 4724,
      "Ġmodern": 4725,
      "Ġspeeches": 4726,
      "Ġintelligible": 4727,
      "Ġentertained": 4728,
      "Ġprospects": 4729,
      "Ġbelonging": 4730,
      "humour": 4731,
      "Ġweakness": 4732,
      "Ġpossessed": 4733,
      "Ġbuildings": 4734,
      "Ġcounter": 4735,
      "Ġexperi": 4736,
      "Ġdispleased": 4737,
      "Ġtalent": 4738,
      "Ġpersever": 4739,
      "Ġunlucky": 4740,
      "Ġwidow": 4741,
      "Ġforbearance": 4742,
      "Ġcensure": 4743,
      "Ġhawkins": 4744,
      "Ġmethod": 4745,
      "Ġweymouth": 4746,
      "mpered": 4747,
      "opt": 4748,
      "sitation": 4749,
      "Ġapt": 4750,
      "Ġsal": 4751,
      "Ġwand": 4752,
      "erning": 4753,
      "Ġtong": 4754,
      "Ġcam": 4755,
      "Ġcry": 4756,
      "Ġhesitation": 4757,
      "lling": 4758,
      "Ġpet": 4759,
      "ooth": 4760,
      "Ġlest": 4761,
      "Ġalthough": 4762,
      "Ġadopt": 4763,
      "Ġlonging": 4764,
      "ieces": 4765,
      "Ġsmart": 4766,
      "Ġsmooth": 4767,
      "claim": 4768,
      "Ġrepa": 4769,
      "Ġscre": 4770,
      "Ġexpedi": 4771,
      "Ġregiment": 4772,
      "Ġsurm": 4773,
      "Ġbloom": 4774,
      "Ġrefr": 4775,
      "Ġlux": 4776,
      "Ġguided": 4777,
      "Ġpale": 4778,
      "Ġcleared": 4779,
      "Ġsensation": 4780,
      "Ġinsol": 4781,
      "Ġconnections": 4782,
      "Ġdreadfully": 4783,
      "Ġannounced": 4784,
      "Ġannounce": 4785,
      "Ġearnestness": 4786,
      "Ġduties": 4787,
      "Ġrule": 4788,
      "Ġmortified": 4789,
      "Ġgrandmam": 4790,
      "nothing": 4791,
      "Ġcomprehens": 4792,
      "Ġbarouche": 4793,
      "Ġupper": 4794,
      "Ġaccording": 4795,
      "Ġinex": 4796,
      "Ġvalued": 4797,
      "Ġaccompany": 4798,
      "Ġprofessions": 4799,
      "Ġconjecture": 4800,
      "Ġunknown": 4801,
      "Ġpunct": 4802,
      "Ġrenew": 4803,
      "Ġimprudent": 4804,
      "Ġimprudence": 4805,
      "Ġqualities": 4806,
      "Ġnurse": 4807,
      "Ġsimplicity": 4808,
      "Ġvoluntarily": 4809,
      "Ġforbid": 4810,
      "Ġcorrect": 4811,
      "Ġobligation": 4812,
      "Ġridiculous": 4813,
      "Ġdeclaration": 4814,
      "ffe": 4815,
      "nay": 4816,
      "rust": 4817,
      "ub": 4818,
      "vag": 4819,
      "wton": 4820,
      "Ġmill": 4821,
      "Ġtomorrow": 4822,
      "Ġnorth": 4823,
      "Ġnamed": 4824,
      "Ġhun": 4825,
      "ans": 4826,
      "Ġsuitable": 4827,
      "roat": 4828,
      "Ġmode": 4829,
      "arth": 4830,
      "hanger": 4831,
      "Ġunivers": 4832,
      "Ġrom": 4833,
      "Ġchawton": 4834,
      "Ġlock": 4835,
      "Ġevenings": 4836,
      "Ġremove": 4837,
      "Ġoffering": 4838,
      "Ġpresume": 4839,
      "Ġsubdu": 4840,
      "Ġappeal": 4841,
      "Ġclass": 4842,
      "Ġglow": 4843,
      "istol": 4844,
      "Ġvisiting": 4845,
      "Ġoblige": 4846,
      "angers": 4847,
      "Ġinterview": 4848,
      "Ġflow": 4849,
      "Ġstevent": 4850,
      "Ġinsp": 4851,
      "Ġregarded": 4852,
      "utely": 4853,
      "Ġdashwoods": 4854,
      "Ġanxiously": 4855,
      "Ġgardens": 4856,
      "Ġeffects": 4857,
      "Ġcommunicated": 4858,
      "Ġcrit": 4859,
      "Ġextravag": 4860,
      "Ġentertaining": 4861,
      "Ġentertainment": 4862,
      "Ġconcealed": 4863,
      "Ġbelonged": 4864,
      "Ġcontribut": 4865,
      "Ġcongratulate": 4866,
      "Ġpreparation": 4867,
      "Ġapologies": 4868,
      "Ġconfirmed": 4869,
      "Ġobtained": 4870,
      "Ġattraction": 4871,
      "Ġinsensible": 4872,
      "Ġphilips": 4873,
      "Ġvulgar": 4874,
      "Ġwelcomed": 4875,
      "Ġgoverness": 4876,
      "Ġreconciled": 4877,
      "Ġhertfordshire": 4878,
      "Ġsteventon": 4879,
      "ald": 4880,
      "cher": 4881,
      "count": 4882,
      "gate": 4883,
      "min": 4884,
      "som": 4885,
      "Ġtopic": 4886,
      "Ġcre": 4887,
      "Ġcas": 4888,
      "Ġdi": 4889,
      "Ġhang": 4890,
      "Ġhung": 4891,
      "Ġeff": 4892,
      "Ġeating": 4893,
      "Ġearth": 4894,
      "Ġlist": 4895,
      "str": 4896,
      "Ġnoticed": 4897,
      "utter": 4898,
      "Ġreck": 4899,
      "Ġrevi": 4900,
      "pel": 4901,
      "Ġconqu": 4902,
      "Ġstra": 4903,
      "Ġstorm": 4904,
      "Ġmischief": 4905,
      "arded": 4906,
      "Ġgovern": 4907,
      "Ġcompare": 4908,
      "Ġjustify": 4909,
      "Ġengross": 4910,
      "Ġrefusal": 4911,
      "Ġkeen": 4912,
      "Ġjudging": 4913,
      "onscious": 4914,
      "Ġoccasioned": 4915,
      "Ġexact": 4916,
      "Ġfinest": 4917,
      "Ġdreaded": 4918,
      "Ġsimilar": 4919,
      "Ġdepri": 4920,
      "Ġhurrying": 4921,
      "olded": 4922,
      "Ġdenied": 4923,
      "Ġgallery": 4924,
      "Ġexample": 4925,
      "Ġurged": 4926,
      "Ġbrighton": 4927,
      "Ġrapidly": 4928,
      "Ġtalents": 4929,
      "Ġspeedily": 4930,
      "Ġfilled": 4931,
      "Ġnorthanger": 4932,
      "Ġpurchase": 4933,
      "Ġunequal": 4934,
      "Ġclothes": 4935,
      "Ġshrubbery": 4936,
      "act": 4937,
      "hip": 4938,
      "lin": 4939,
      "oat": 4940,
      "rom": 4941,
      "held": 4942,
      "Ġwon": 4943,
      "Ġmouth": 4944,
      "Ġbill": 4945,
      "Ġfitted": 4946,
      "Ġdry": 4947,
      "ism": 4948,
      "Ġford": 4949,
      "Ġaside": 4950,
      "owered": 4951,
      "Ġsold": 4952,
      "rop": 4953,
      "Ġconceive": 4954,
      "Ġsel": 4955,
      "Ġseized": 4956,
      "Ġdela": 4957,
      "Ġextens": 4958,
      "Ġunaf": 4959,
      "Ġdisinterest": 4960,
      "Ġplenty": 4961,
      "urning": 4962,
      "Ġoverlook": 4963,
      "Ġjustly": 4964,
      "Ġcoles": 4965,
      "Ġdesper": 4966,
      "Ġhereafter": 4967,
      "Ġmomentary": 4968,
      "Ġrecent": 4969,
      "Ġcaused": 4970,
      "Ġbestowed": 4971,
      "Ġflattered": 4972,
      "Ġsituations": 4973,
      "Ġmentioning": 4974,
      "Ġtrial": 4975,
      "Ġworked": 4976,
      "Ġfinally": 4977,
      "Ġcheerfully": 4978,
      "Ġassisted": 4979,
      "Ġobservations": 4980,
      "Ġconcealment": 4981,
      "Ġrichmond": 4982,
      "Ġadmirer": 4983,
      "Ġurge": 4984,
      "Ġcatching": 4985,
      "Ġbenevol": 4986,
      "Ġlearned": 4987,
      "Ġprincipally": 4988,
      "Ġsignify": 4989,
      "thened": 4990,
      "Ġbuilding": 4991,
      "Ġsubmitted": 4992,
      "Ġdefici": 4993,
      "Ġforeseen": 4994,
      "Ġalive": 4995,
      "Ġvicarage": 4996,
      "Ġtongue": 4997,
      "Ġunaffect": 4998,
      "comm": 4999,
      "fied": 5000,
      "nk": 5001,
      "pte": 5002,
      "ses": 5003,
      "inet": 5004,
      "Ġsli": 5005,
      "Ġsouth": 5006,
      "recy": 5007,
      "Ġoct": 5008,
      "Ġowe": 5009,
      "Ġmour": 5010,
      "Ġbound": 5011,
      "eding": 5012,
      "Ġheat": 5013,
      "Ġpred": 5014,
      "Ġpace": 5015,
      "arse": 5016,
      "arch": 5017,
      "Ġshepher": 5018,
      "Ġforster": 5019,
      "alry": 5020,
      "ural": 5021,
      "Ġsepte": 5022,
      "Ġbye": 5023,
      "Ġexte": 5024,
      "Ġjump": 5025,
      "Ġshowed": 5026,
      "Ġperm": 5027,
      "Ġrise": 5028,
      "acher": 5029,
      "Ġusually": 5030,
      "Ġlovers": 5031,
      "Ġexposed": 5032,
      "Ġcharades": 5033,
      "Ġendured": 5034,
      "Ġapples": 5035,
      "Ġhearts": 5036,
      "Ġconfused": 5037,
      "Ġblow": 5038,
      "Ġbetsey": 5039,
      "racted": 5040,
      "Ġdelightfully": 5041,
      "Ġconsiderably": 5042,
      "Ġsecrecy": 5043,
      "Ġaffectionately": 5044,
      "Ġrefresh": 5045,
      "Ġunconscious": 5046,
      "Ġinviting": 5047,
      "ieties": 5048,
      "Ġpretence": 5049,
      "Ġdisappro": 5050,
      "Ġapproved": 5051,
      "Ġhorrible": 5052,
      "Ġcreatures": 5053,
      "Ġtroublesome": 5054,
      "paper": 5055,
      "Ġcommunicate": 5056,
      "Ġrecollecting": 5057,
      "Ġirres": 5058,
      "Ġportion": 5059,
      "Ġblessed": 5060,
      "Ġattendance": 5061,
      "Ġentreaties": 5062,
      "Ġcontrived": 5063,
      "Ġgravely": 5064,
      "Ġsolitary": 5065,
      "Ġaccomplish": 5066,
      "Ġflattering": 5067,
      "Ġaccompanied": 5068,
      "Ġselfishness": 5069,
      "Ġcounsel": 5070,
      "Ġheroine": 5071,
      "Ġrecovering": 5072,
      "Ġimpertinent": 5073,
      "Ġeligible": 5074,
      "Ġterror": 5075,
      "Ġmagn": 5076,
      "Ġtiresome": 5077,
      "Ġdisengaged": 5078,
      "Ġproportion": 5079,
      "Ġprecisely": 5080,
      "Ġdelaford": 5081,
      "Ġdisinterested": 5082,
      "Ġshepherd": 5083,
      "Ġseptember": 5084,
      ".)": 5085,
      "bs": 5086,
      "hor": 5087,
      "hill": 5088,
      "hered": 5089,
      "Ġaud": 5090,
      "Ġsounds": 5091,
      "Ġdalry": 5092,
      "Ġhos": 5093,
      "atory": 5094,
      "ential": 5095,
      "illed": 5096,
      "que": 5097,
      "Ġfruit": 5098,
      "Ġjune": 5099,
      "orted": 5100,
      "ulting": 5101,
      "Ġorn": 5102,
      "Ġenv": 5103,
      "Ġspace": 5104,
      "Ġconsist": 5105,
      "Ġentit": 5106,
      "Ġtalks": 5107,
      "Ġsubs": 5108,
      "Ġacquies": 5109,
      "Ġincess": 5110,
      "Ġincap": 5111,
      "Ġgentleness": 5112,
      "ernal": 5113,
      "Ġencoun": 5114,
      "Ġworking": 5115,
      "Ġstopt": 5116,
      "Ġexclam": 5117,
      "Ġordinary": 5118,
      "Ġhastened": 5119,
      "Ġtravel": 5120,
      "Ġstrict": 5121,
      "Ġdesires": 5122,
      "Ġpictures": 5123,
      "Ġriding": 5124,
      "Ġinterruption": 5125,
      "Ġphil": 5126,
      "Ġarrangements": 5127,
      "Ġarms": 5128,
      "Ġvolume": 5129,
      "Ġmaterially": 5130,
      "Ġtemptation": 5131,
      "Ġunexception": 5132,
      "Ġtouched": 5133,
      "Ġhesitated": 5134,
      "Ġcorrespondence": 5135,
      "Ġapparently": 5136,
      "Ġmamma": 5137,
      "Ġmixture": 5138,
      "Ġdisturbed": 5139,
      "Ġslowly": 5140,
      "Ġtorment": 5141,
      "Ġenquiries": 5142,
      "Ġargument": 5143,
      "Ġraptures": 5144,
      "Ġingen": 5145,
      "umption": 5146,
      "Ġcleveland": 5147,
      "Ġdalrymp": 5148,
      "ais": 5149,
      "bing": 5150,
      "eur": 5151,
      "fton": 5152,
      "net": 5153,
      "Ġx": 5154,
      "Ġze": 5155,
      "Ġspect": 5156,
      "rell": 5157,
      "Ġbare": 5158,
      "Ġbott": 5159,
      "Ġfield": 5160,
      "Ġdouble": 5161,
      "itche": 5162,
      "Ġinhab": 5163,
      "esley": 5164,
      "Ġshel": 5165,
      "Ġthrew": 5166,
      "cended": 5167,
      "utation": 5168,
      "ete": 5169,
      "advant": 5170,
      "Ġkent": 5171,
      "Ġalliance": 5172,
      "about": 5173,
      "Ġdebt": 5174,
      "Ġdefer": 5175,
      "Ġstro": 5176,
      "Ġdozen": 5177,
      "Ġfeb": 5178,
      "Ġship": 5179,
      "Ġunac": 5180,
      "Ġseeking": 5181,
      "Ġdisadvant": 5182,
      "tempered": 5183,
      "Ġvac": 5184,
      "Ġard": 5185,
      "Ġsupplied": 5186,
      "Ġretire": 5187,
      "Ġretired": 5188,
      "Ġjoke": 5189,
      "Ġintending": 5190,
      "Ġbristol": 5191,
      "Ġrecovery": 5192,
      "ilda": 5193,
      "Ġadvance": 5194,
      "Ġsecurity": 5195,
      "Ġfortunately": 5196,
      "Ġbestow": 5197,
      "Ġinval": 5198,
      "Ġdetest": 5199,
      "Ġdetail": 5200,
      "Ġgladly": 5201,
      "Ġguilt": 5202,
      "Ġthroughout": 5203,
      "Ġanswering": 5204,
      "Ġcomplac": 5205,
      "Ġnecessarily": 5206,
      "Ġexcuses": 5207,
      "Ġcondes": 5208,
      "Ġelev": 5209,
      "Ġneeded": 5210,
      "Ġgratification": 5211,
      "Ġhorrid": 5212,
      "Ġnewspaper": 5213,
      "Ġpump": 5214,
      "Ġdeserving": 5215,
      "Ġdeserves": 5216,
      "Ġannesley": 5217,
      "Ġleaves": 5218,
      "Ġproceeding": 5219,
      "Ġconclude": 5220,
      "Ġrepeatedly": 5221,
      "Ġindulged": 5222,
      "Ġmortifying": 5223,
      "chester": 5224,
      "Ġtotal": 5225,
      "Ġsteeles": 5226,
      "Ġunreser": 5227,
      "Ġprofessed": 5228,
      "Ġawkwardness": 5229,
      "Ġpunishment": 5230,
      "Ġunsus": 5231,
      "Ġnorthampton": 5232,
      "Ġintervals": 5233,
      "Ġprudent": 5234,
      "Ġprudence": 5235,
      "Ġcastle": 5236,
      "Ġstruggle": 5237,
      "Ġbask": 5238,
      "Ġpronounced": 5239,
      "Ġaffliction": 5240,
      "Ġbaronet": 5241,
      "Ġrehears": 5242,
      "Ġexperienced": 5243,
      "Ġstraight": 5244,
      "Ġunaffected": 5245,
      "command": 5246,
      "apt": 5247,
      "bled": 5248,
      "four": 5249,
      "lace": 5250,
      "oke": 5251,
      "ode": 5252,
      "was": 5253,
      "Ġade": 5254,
      "Ġwore": 5255,
      "Ġwide": 5256,
      "Ġwalls": 5257,
      "reet": 5258,
      "reci": 5259,
      "Ġmac": 5260,
      "Ġbru": 5261,
      "Ġbowed": 5262,
      "Ġcent": 5263,
      "Ġcli": 5264,
      "Ġcook": 5265,
      "Ġheir": 5266,
      "Ġpath": 5267,
      "atively": 5268,
      "Ġyork": 5269,
      "Ġgate": 5270,
      "Ġthroat": 5271,
      "uten": 5272,
      "idable": 5273,
      "Ġkiss": 5274,
      "Ġdeb": 5275,
      "Ġstout": 5276,
      "ĠâĢľ_": 5277,
      "Ġmisc": 5278,
      "Ġample": 5279,
      "Ġunion": 5280,
      "Ġpermission": 5281,
      "Ġvig": 5282,
      "Ġpretens": 5283,
      "Ġeveryone": 5284,
      "Ġpond": 5285,
      "Ġsomewhere": 5286,
      "acles": 5287,
      "Ġshade": 5288,
      "Ġimpud": 5289,
      "Ġrob": 5290,
      "Ġresour": 5291,
      "Ġrepent": 5292,
      "uming": 5293,
      "pless": 5294,
      "Ġcloud": 5295,
      "Ġrichard": 5296,
      "Ġdistrust": 5297,
      "Ġmatilda": 5298,
      "mother": 5299,
      "Ġincred": 5300,
      "Ġblue": 5301,
      "Ġlessen": 5302,
      "Ġinvitations": 5303,
      "Ġrights": 5304,
      "Ġdirections": 5305,
      "Ġchurchills": 5306,
      "Ġoppose": 5307,
      "Ġflutter": 5308,
      "Ġarrive": 5309,
      "Ġrelative": 5310,
      "rench": 5311,
      "Ġwarmest": 5312,
      "Ġbehave": 5313,
      "Ġcharms": 5314,
      "Ġbreaking": 5315,
      "Ġexcellence": 5316,
      "Ġavoided": 5317,
      "Ġindulge": 5318,
      "Ġgrandeur": 5319,
      "Ġtrees": 5320,
      "Ġoccupy": 5321,
      "Ġsucceeding": 5322,
      "Ġsolicit": 5323,
      "nature": 5324,
      "Ġofficer": 5325,
      "Ġearliest": 5326,
      "Ġfifteen": 5327,
      "Ġchecked": 5328,
      "Ġdeliber": 5329,
      "Ġcordiality": 5330,
      "Ġreminded": 5331,
      "Ġsurrounded": 5332,
      "pulous": 5333,
      "Ġowing": 5334,
      "Ġhostess": 5335,
      "Ġarticle": 5336,
      "Ġsymptoms": 5337,
      "Ġcautious": 5338,
      "Ġfarewell": 5339,
      "Ġadieu": 5340,
      "Ġcamden": 5341,
      "Ġcomprehension": 5342,
      "Ġunexceptionable": 5343,
      "col": 5344,
      "emma": 5345,
      "hus": 5346,
      "ius": 5347,
      "ips": 5348,
      "oe": 5349,
      "work": 5350,
      "Ġactions": 5351,
      "inter": 5352,
      "Ġowed": 5353,
      "Ġbent": 5354,
      "Ġfun": 5355,
      "ingham": 5356,
      "Ġdwel": 5357,
      "Ġbeau": 5358,
      "Ġpack": 5359,
      "Ġange": 5360,
      "Ġexec": 5361,
      "Ġunm": 5362,
      "Ġunus": 5363,
      "Ġunwell": 5364,
      "Ġunsu": 5365,
      "Ġabund": 5366,
      "Ġenab": 5367,
      "Ġpartly": 5368,
      "Ġpartners": 5369,
      "Ġupright": 5370,
      "olk": 5371,
      "never": 5372,
      "Ġsomehow": 5373,
      "ruary": 5374,
      "jected": 5375,
      "Ġcoffe": 5376,
      "ighed": 5377,
      "Ġours": 5378,
      "Ġcontents": 5379,
      "Ġgenius": 5380,
      "Ġteach": 5381,
      "Ġadding": 5382,
      "Ġkey": 5383,
      "ircase": 5384,
      "Ġformal": 5385,
      "Ġfullerton": 5386,
      "Ġmuslin": 5387,
      "Ġcomplais": 5388,
      "Ġsenses": 5389,
      "Ġplays": 5390,
      "Ġstrongest": 5391,
      "Ġcondem": 5392,
      "Ġenjoying": 5393,
      "Ġstopping": 5394,
      "Ġbelow": 5395,
      "such": 5396,
      "Ġcurious": 5397,
      "Ġpatient": 5398,
      "Ġtrem": 5399,
      "Ġstaircase": 5400,
      "Ġcrossed": 5401,
      "Ġdistinguish": 5402,
      "Ġcoachman": 5403,
      "Ġtravelled": 5404,
      "Ġproposals": 5405,
      "Ġdissip": 5406,
      "Ġmodesty": 5407,
      "Ġaugusta": 5408,
      "Ġbreath": 5409,
      "Ġdeficient": 5410,
      "Ġmoderate": 5411,
      "Ġcommendation": 5412,
      "Ġsharp": 5413,
      "Ġtrembling": 5414,
      "Ġsuckling": 5415,
      "shall": 5416,
      "Ġessential": 5417,
      "Ġconstitution": 5418,
      "Ġextensive": 5419,
      "Ġincapable": 5420,
      "Ġfebruary": 5421,
      "husi": 5422,
      "Ġdwelt": 5423,
      "Ġcoffee": 5424,
      "?'": 5425,
      "can": 5426,
      "rat": 5427,
      "ule": 5428,
      "ues": 5429,
      "head": 5430,
      "Ġswell": 5431,
      "rees": 5432,
      "Ġoper": 5433,
      "Ġban": 5434,
      "Ġbank": 5435,
      "Ġfo": 5436,
      "Ġfid": 5437,
      "Ġfro": 5438,
      "Ġdict": 5439,
      "Ġlosing": 5440,
      "Ġyards": 5441,
      "Ġgift": 5442,
      "vet": 5443,
      "vering": 5444,
      "verty": 5445,
      "Ġthick": 5446,
      "Ġ\"_": 5447,
      "lies": 5448,
      "aming": 5449,
      "Ġstable": 5450,
      "Ġstraw": 5451,
      "Ġexhib": 5452,
      "hant": 5453,
      "Ġamb": 5454,
      "Ġunnat": 5455,
      "Ġperpet": 5456,
      "ilty": 5457,
      "Ġqueen": 5458,
      "Ġeverywhere": 5459,
      "nton": 5460,
      "Ġpoverty": 5461,
      "Ġplann": 5462,
      "Ġplag": 5463,
      "Ġenthusi": 5464,
      "Ġcontained": 5465,
      "Ġlasting": 5466,
      "Ġglimp": 5467,
      "Ġpresented": 5468,
      "Ġstrangers": 5469,
      "Ġdetained": 5470,
      "Ġcounty": 5471,
      "Ġdecis": 5472,
      "Ġclearly": 5473,
      "Ġsettling": 5474,
      "Ġinsult": 5475,
      "Ġincluded": 5476,
      "Ġpatron": 5477,
      "Ġimprop": 5478,
      "Ġstrike": 5479,
      "Ġdelayed": 5480,
      "Ġinjury": 5481,
      "Ġcalmly": 5482,
      "Ġnegli": 5483,
      "Ġeighteen": 5484,
      "Ġfamiliar": 5485,
      "Ġdistinct": 5486,
      "Ġwhispered": 5487,
      "Ġtranquil": 5488,
      "Ġneglected": 5489,
      "Ġrepresentation": 5490,
      "Ġbetrayed": 5491,
      "conom": 5492,
      "Ġstudy": 5493,
      "Ġanticipated": 5494,
      "Ġlieuten": 5495,
      "Ġamends": 5496,
      "Ġmisunderstand": 5497,
      "Ġscotland": 5498,
      "Ġornament": 5499,
      "Ġencounter": 5500,
      "Ġdalrymple": 5501,
      "Ġglimpse": 5502,
      "bred": 5503,
      "der": 5504,
      "eel": 5505,
      "eps": 5506,
      "ived": 5507,
      "rity": 5508,
      "sc": 5509,
      "Ġver": 5510,
      "incl": 5511,
      "reg": 5512,
      "Ġmount": 5513,
      "Ġbond": 5514,
      "onshire": 5515,
      "Ġdor": 5516,
      "Ġred": 5517,
      "Ġreli": 5518,
      "Ġreleas": 5519,
      "chie": 5520,
      "Ġaspect": 5521,
      "imed": 5522,
      "Ġwelf": 5523,
      "Ġweary": 5524,
      "iring": 5525,
      "Ġsum": 5526,
      "Ġsore": 5527,
      "Ġmead": 5528,
      "Ġdeeper": 5529,
      "Ġwillingly": 5530,
      "Ġshooting": 5531,
      "othe": 5532,
      "Ġdisd": 5533,
      "Ġdisord": 5534,
      "Ġpert": 5535,
      "Ġperformed": 5536,
      "Ġsple": 5537,
      "Ġshape": 5538,
      "ustice": 5539,
      "Ġimpart": 5540,
      "Ġimpul": 5541,
      "Ġresp": 5542,
      "Ġrepet": 5543,
      "Ġovert": 5544,
      "Ġoverhe": 5545,
      "Ġhopeless": 5546,
      "lesome": 5547,
      "Ġconfession": 5548,
      "Ġblood": 5549,
      "Ġgets": 5550,
      "Ġcoloured": 5551,
      "Ġadvent": 5552,
      "Ġactual": 5553,
      "Ġcareful": 5554,
      "Ġdiscont": 5555,
      "Ġstayed": 5556,
      "Ġpromote": 5557,
      "Ġguilty": 5558,
      "Ġelsewhere": 5559,
      "Ġuseless": 5560,
      "Ġhelped": 5561,
      "Ġoccasional": 5562,
      "Ġcoldness": 5563,
      "Ġstreets": 5564,
      "Ġlawn": 5565,
      "Ġintroducing": 5566,
      "Ġtendency": 5567,
      "Ġslighted": 5568,
      "Ġforgetting": 5569,
      "Ġunpardon": 5570,
      "Ġattempts": 5571,
      "Ġuttered": 5572,
      "Ġreproof": 5573,
      "Ġinjustice": 5574,
      "Ġexertions": 5575,
      "Ġseparated": 5576,
      "Ġimprovements": 5577,
      "Ġflattery": 5578,
      "Ġembarrassed": 5579,
      "Ġpursuit": 5580,
      "Ġlearning": 5581,
      "Ġprotested": 5582,
      "Ġprocure": 5583,
      "Ġterri": 5584,
      "Ġnovelty": 5585,
      "Ġmisfortunes": 5586,
      "Ġuncertainty": 5587,
      "Ġnurser": 5588,
      "Ġfatigued": 5589,
      "Ġsubstance": 5590,
      "Ġinevitable": 5591,
      "Ġperplexity": 5592,
      "Ġlabour": 5593,
      "Ġvirtue": 5594,
      "Ġabominable": 5595,
      "Ġrevived": 5596,
      "Ġentitled": 5597,
      "Ġangel": 5598,
      "Ġwelfare": 5599,
      "ailed": 5600,
      "dig": 5601,
      "eli": 5602,
      "hold": 5603,
      "ober": 5604,
      "past": 5605,
      "uine": 5606,
      "uary": 5607,
      "Ġtid": 5608,
      "Ġtest": 5609,
      "Ġsons": 5610,
      "Ġmir": 5611,
      "Ġbab": 5612,
      "Ġfing": 5613,
      "Ġnash": 5614,
      "isen": 5615,
      "Ġinher": 5616,
      "Ġeconom": 5617,
      "Ġnois": 5618,
      "omer": 5619,
      "Ġlark": 5620,
      "Ġgout": 5621,
      "ters": 5622,
      "Ġkitche": 5623,
      "Ġsevent": 5624,
      "Ġdeed": 5625,
      "Ġdefect": 5626,
      "Ġdeceive": 5627,
      "Ġnearest": 5628,
      "Ġshown": 5629,
      "Ġdisli": 5630,
      "Ġabhor": 5631,
      "Ġprodig": 5632,
      "ushed": 5633,
      "ifull": 5634,
      "ache": 5635,
      "Ġthoughtful": 5636,
      "Ġoutward": 5637,
      "Ġresumed": 5638,
      "Ġgrou": 5639,
      "Ġgrate": 5640,
      "Ġcop": 5641,
      "Ġindebt": 5642,
      "Ġlasted": 5643,
      "Ġexpose": 5644,
      "Ġfamous": 5645,
      "Ġglancing": 5646,
      "Ġgenuine": 5647,
      "Ġgenerosity": 5648,
      "Ġacquit": 5649,
      "Ġthrowing": 5650,
      "Ġadvis": 5651,
      "Ġcontinuance": 5652,
      "Ġchurchhill": 5653,
      "Ġgravity": 5654,
      "Ġconcerning": 5655,
      "lliant": 5656,
      "Ġeleven": 5657,
      "Ġinsist": 5658,
      "Ġdrawback": 5659,
      "Ġadmiring": 5660,
      "Ġdegr": 5661,
      "Ġexploring": 5662,
      "Ġmartins": 5663,
      "Ġbold": 5664,
      "Ġquickness": 5665,
      "Ġplacing": 5666,
      "Ġmerc": 5667,
      "Ġremoving": 5668,
      "Ġcapital": 5669,
      "Ġruin": 5670,
      "Ġrude": 5671,
      "Ġwinchester": 5672,
      "Ġavoiding": 5673,
      "Ġdevonshire": 5674,
      "Ġnumerous": 5675,
      "Ġcontrive": 5676,
      "Ġoffices": 5677,
      "Ġexcessive": 5678,
      "Ġrecollections": 5679,
      "Ġkingdom": 5680,
      "Ġconjectures": 5681,
      "Ġconsulted": 5682,
      "Ġirritation": 5683,
      "Ġsinking": 5684,
      "Ġestimation": 5685,
      "Ġassembled": 5686,
      "Ġuncommon": 5687,
      "Ġbrilliant": 5688,
      "Ġoverpowered": 5689,
      "Ġjanuary": 5690,
      "writing": 5691,
      "Ġperseverance": 5692,
      "Ġgrandmama": 5693,
      "Ġoctober": 5694,
      "Ġbasket": 5695,
      "Ġresources": 5696,
      "Ġenabled": 5697,
      "Ġlieutenant": 5698,
      "Ġnursery": 5699,
      "Ġbaby": 5700,
      "Ġlarkins": 5701,
      "Ġkitchen": 5702,
      "Ġindebted": 5703,
      "!'": 5704,
      ").": 5705,
      "cern": 5706,
      "low": 5707,
      "ole": 5708,
      "piece": 5709,
      "sford": 5710,
      "wom": 5711,
      "Ġ&": 5712,
      "Ġsly": 5713,
      "Ġsighed": 5714,
      "Ġbord": 5715,
      "Ġfaces": 5716,
      "Ġnarr": 5717,
      "Ġnurs": 5718,
      "Ġpork": 5719,
      "Ġhol": 5720,
      "Ġreaching": 5721,
      "Ġreverse": 5722,
      "Ġwhist": 5723,
      "ros": 5724,
      "tern": 5725,
      "oop": 5726,
      "Ġdearer": 5727,
      "Ġstret": 5728,
      "Ġleaning": 5729,
      "Ġshill": 5730,
      "Ġshowing": 5731,
      "Ġalac": 5732,
      "Ġungr": 5733,
      "Ġabode": 5734,
      "Ġtheirs": 5735,
      "Ġagony": 5736,
      "usions": 5737,
      "Ġadj": 5738,
      "Ġspr": 5739,
      "Ġgoodwill": 5740,
      "Ġowned": 5741,
      "Ġshad": 5742,
      "Ġchamber": 5743,
      "Ġimper": 5744,
      "Ġcontent": 5745,
      "Ġpresumption": 5746,
      "Ġclo": 5747,
      "Ġappreci": 5748,
      "Ġincomp": 5749,
      "Ġdownstairs": 5750,
      "Ġrefer": 5751,
      "Ġrestless": 5752,
      "Ġreasonably": 5753,
      "ivity": 5754,
      "Ġmeetings": 5755,
      "Ġagreeing": 5756,
      "Ġletting": 5757,
      "Ġopposed": 5758,
      "Ġresolving": 5759,
      "Ġcomplain": 5760,
      "Ġbeauties": 5761,
      "Ġfixing": 5762,
      "Ġopportunities": 5763,
      "Ġaddresses": 5764,
      "Ġconstancy": 5765,
      "Ġreflected": 5766,
      "Ġastonishing": 5767,
      "Ġparade": 5768,
      "Ġpraised": 5769,
      "Ġsuspecting": 5770,
      "Ġsinging": 5771,
      "Ġluckily": 5772,
      "Ġjoining": 5773,
      "Ġgrandmother": 5774,
      "Ġtreas": 5775,
      "Ġacknowledgment": 5776,
      "Ġinconst": 5777,
      "Ġentreaty": 5778,
      "Ġhorseback": 5779,
      "Ġsuggestion": 5780,
      "Ġamaz": 5781,
      "Ġmeasures": 5782,
      "Ġadditional": 5783,
      "Ġprevail": 5784,
      "Ġoriginal": 5785,
      "ricle": 5786,
      "Ġterrible": 5787,
      "Ġprovoking": 5788,
      "Ġwitnessed": 5789,
      "Ġbitterly": 5790,
      "Ġdelivered": 5791,
      "Ġwriter": 5792,
      "Ġcomplaints": 5793,
      "Ġrequires": 5794,
      "Ġavail": 5795,
      "Ġforesee": 5796,
      "Ġaccommodation": 5797,
      "Ġbewild": 5798,
      "Ġcalculated": 5799,
      "Ġprejudice": 5800,
      "Ġmurm": 5801,
      "Ġnecklace": 5802,
      "appeared": 5803,
      "Ġcontradi": 5804,
      "Ġbonnet": 5805,
      "Ġhunting": 5806,
      "claimed": 5807,
      "Ġirresist": 5808,
      "Ġunaccount": 5809,
      "Ġunusual": 5810,
      "Ġunnatural": 5811,
      "Ġimpropriety": 5812,
      "Ġnoisy": 5813,
      "Ġalacrity": 5814,
      "bable": 5815,
      "bers": 5816,
      "hour": 5817,
      "off": 5818,
      "sp": 5819,
      "sir": 5820,
      "sue": 5821,
      "wd": 5822,
      "yard": 5823,
      "hetic": 5824,
      "Ġwra": 5825,
      "Ġcart": 5826,
      "Ġfrench": 5827,
      "Ġdate": 5828,
      "Ġnieces": 5829,
      "Ġbef": 5830,
      "Ġbeheld": 5831,
      "Ġpage": 5832,
      "Ġpatter": 5833,
      "Ġere": 5834,
      "Ġrever": 5835,
      "Ġrecei": 5836,
      "Ġreference": 5837,
      "ril": 5838,
      "Ġsober": 5839,
      "alled": 5840,
      "icious": 5841,
      "Ġamid": 5842,
      "otions": 5843,
      "Ġdisincl": 5844,
      "Ġring": 5845,
      "ushing": 5846,
      "eling": 5847,
      "rue": 5848,
      "Ġimplied": 5849,
      "Ġundes": 5850,
      "teney": 5851,
      "Ġapril": 5852,
      "Ġbegins": 5853,
      "Ġaccustom": 5854,
      "Ġmoral": 5855,
      "Ġscud": 5856,
      "Ġkindest": 5857,
      "Ġwoods": 5858,
      "Ġinstinct": 5859,
      "Ġrefusing": 5860,
      "Ġreadiness": 5861,
      "Ġimaginary": 5862,
      "Ġpromotion": 5863,
      "Ġguine": 5864,
      "Ġflo": 5865,
      "Ġresolutely": 5866,
      "Ġdecor": 5867,
      "Ġopenness": 5868,
      "cript": 5869,
      "Ġbread": 5870,
      "Ġacceptance": 5871,
      "Ġcreated": 5872,
      "year": 5873,
      "Ġsocial": 5874,
      "picious": 5875,
      "Ġpatty": 5876,
      "Ġcapri": 5877,
      "Ġwicked": 5878,
      "Ġacknowledging": 5879,
      "Ġcurricle": 5880,
      "Ġsuccessful": 5881,
      "Ġurgent": 5882,
      "Ġpreparations": 5883,
      "Ġcomparatively": 5884,
      "Ġ18": 5885,
      "Ġdropped": 5886,
      "Ġstartled": 5887,
      "Ġcrofts": 5888,
      "Ġunfit": 5889,
      "Ġerrors": 5890,
      "Ġefforts": 5891,
      "Ġcruelty": 5892,
      "Ġprocured": 5893,
      "Ġaugustus": 5894,
      "Ġdrinking": 5895,
      "Ġsteadily": 5896,
      "Ġpreserved": 5897,
      "Ġcoolly": 5898,
      "Ġsurround": 5899,
      "Ġuncommonly": 5900,
      "Ġprotection": 5901,
      "ciliation": 5902,
      "Ġexchange": 5903,
      "Ġdestroyed": 5904,
      "Ġspeculation": 5905,
      "Ġprivilege": 5906,
      "Ġhunsford": 5907,
      "Ġdeficiency": 5908,
      "Ġacquiescence": 5909,
      "Ġzeal": 5910,
      "Ġbottom": 5911,
      "Ġcomplacency": 5912,
      "Ġclifton": 5913,
      "Ġungrateful": 5914,
      "Ġamazingly": 5915,
      "'ll": 5916,
      "bre": 5917,
      "folk": 5918,
      "lady": 5919,
      "oining": 5920,
      "ts": 5921,
      "Ġ3": 5922,
      "Ġ4": 5923,
      "iny": 5924,
      "Ġsout": 5925,
      "Ġwarr": 5926,
      "Ġost": 5927,
      "Ġmal": 5928,
      "haust": 5929,
      "Ġdig": 5930,
      "Ġdamp": 5931,
      "Ġdirt": 5932,
      "Ġpure": 5933,
      "Ġpaint": 5934,
      "Ġhug": 5935,
      "anter": 5936,
      "Ġlot": 5937,
      "sex": 5938,
      "Ġrev": 5939,
      "Ġreign": 5940,
      "Ġrebe": 5941,
      "Ġrectory": 5942,
      "idity": 5943,
      "urrence": 5944,
      "Ġallusion": 5945,
      "Ġmemor": 5946,
      "Ġmyst": 5947,
      "Ġstone": 5948,
      "racious": 5949,
      "Ġsaving": 5950,
      "ically": 5951,
      "anted": 5952,
      "Ġunb": 5953,
      "Ġvo": 5954,
      "Ġpoet": 5955,
      "Ġharris": 5956,
      "Ġgold": 5957,
      "Ġsomeone": 5958,
      "Ġpleasanter": 5959,
      "ression": 5960,
      "cket": 5961,
      "Ġjoint": 5962,
      "Ġbrain": 5963,
      "cca": 5964,
      "Ġapply": 5965,
      "Ġapprehe": 5966,
      "Ġnorfolk": 5967,
      "Ġworldly": 5968,
      "Ġpromises": 5969,
      "Ġdetermination": 5970,
      "Ġhusbands": 5971,
      "Ġinclinations": 5972,
      "Ġsweetest": 5973,
      "Ġrepeating": 5974,
      "Ġdepends": 5975,
      "Ġslightly": 5976,
      "Ġmerry": 5977,
      "nswick": 5978,
      "Ġconceit": 5979,
      "Ġgrey": 5980,
      "Ġtrusting": 5981,
      "Ġforest": 5982,
      "Ġbuilt": 5983,
      "Ġfacts": 5984,
      "Ġexclaiming": 5985,
      "Ġclosely": 5986,
      "Ġjoyful": 5987,
      "Ġrelieve": 5988,
      "Ġunhappiness": 5989,
      "Ġexamine": 5990,
      "Ġexamining": 5991,
      "Ġrepresented": 5992,
      "Ġfurnish": 5993,
      "Ġdesigns": 5994,
      "Ġunwillingness": 5995,
      "Ġpursued": 5996,
      "Ġheavens": 5997,
      "Ġdissatis": 5998,
      "Ġpractice": 5999,
      "Ġaccidentally": 6000,
      "Ġhonestly": 6001,
      "Ġguarded": 6002,
      "Ġheightened": 6003,
      "Ġunlikely": 6004,
      "Ġfarmer": 6005,
      "Ġundertake": 6006,
      "Ġfalsehood": 6007,
      "Ġvoluntary": 6008,
      "Ġunconcern": 6009,
      "Ġshoes": 6010,
      "Ġthreatened": 6011,
      "Ġpenetration": 6012,
      "Ġpulteney": 6013,
      "Ġinterposed": 6014,
      "Ġreluctance": 6015,
      "Ġrefrain": 6016,
      "Ġengrossed": 6017,
      "Ġaccomplishments": 6018,
      "Ġretirement": 6019,
      "Ġbrunswick": 6020,
      "Ġcomplaisance": 6021,
      "Ġadjoining": 6022,
      "Ġcloak": 6023,
      "Ġirresistible": 6024,
      "Ġrebecca": 6025,
      "cil": 6026,
      "cast": 6027,
      "iz": 6028,
      "lord": 6029,
      "sight": 6030,
      "side": 6031,
      "time": 6032,
      "wers": 6033,
      "Ġast": 6034,
      "informed": 6035,
      "Ġsides": 6036,
      "Ġwing": 6037,
      "Ġod": 6038,
      "Ġber": 6039,
      "Ġid": 6040,
      "Ġtop": 6041,
      "Ġcustom": 6042,
      "Ġbele": 6043,
      "asm": 6044,
      "Ġgather": 6045,
      "Ġgross": 6046,
      "Ġgaining": 6047,
      "Ġasp": 6048,
      "Ġsecl": 6049,
      "Ġmeal": 6050,
      "Ġstore": 6051,
      "Ġcomb": 6052,
      "raced": 6053,
      "ular": 6054,
      "ics": 6055,
      "Ġamiss": 6056,
      "oting": 6057,
      "Ġuna": 6058,
      "Ġvou": 6059,
      "mpting": 6060,
      "Ġram": 6061,
      "onduct": 6062,
      "Ġspru": 6063,
      "Ġcompose": 6064,
      "Ġshaken": 6065,
      "oses": 6066,
      "Ġhappens": 6067,
      "Ġchapel": 6068,
      "Ġspeci": 6069,
      "Ġremon": 6070,
      "Ġhousemaid": 6071,
      "Ġpresumed": 6072,
      "Ġexped": 6073,
      "Ġintend": 6074,
      "Ġassuring": 6075,
      "Ġtrim": 6076,
      "Ġhanded": 6077,
      "Ġindies": 6078,
      "Ġincumb": 6079,
      "Ġcalls": 6080,
      "Ġconfinement": 6081,
      "Ġblunder": 6082,
      "meaning": 6083,
      "Ġadvised": 6084,
      "Ġchances": 6085,
      "Ġdetain": 6086,
      "Ġattempting": 6087,
      "Ġcarefully": 6088,
      "Ġpapers": 6089,
      "Ġrespected": 6090,
      "Ġrespecting": 6091,
      "Ġdecent": 6092,
      "Ġclearer": 6093,
      "Ġeaster": 6094,
      "Ġwisest": 6095,
      "Ġexcused": 6096,
      "Ġpersuading": 6097,
      "bye": 6098,
      "Ġthornton": 6099,
      "Ġnights": 6100,
      "Ġimpossibility": 6101,
      "Ġhumili": 6102,
      "Ġdegrees": 6103,
      "Ġfourth": 6104,
      "Ġhandsomely": 6105,
      "Ġdescribing": 6106,
      "Ġinfluenced": 6107,
      "ificant": 6108,
      "Ġgriev": 6109,
      "coming": 6110,
      "Ġoccupation": 6111,
      "Ġsadly": 6112,
      "Ġconcealing": 6113,
      "Ġinconvenient": 6114,
      "Ġnumbers": 6115,
      "Ġexamination": 6116,
      "Ġconfessed": 6117,
      "Ġprovide": 6118,
      "Ġdestiny": 6119,
      "Ġskill": 6120,
      "Ġfeature": 6121,
      "Ġreconciliation": 6122,
      "Ġnovels": 6123,
      "Ġpitied": 6124,
      "Ġeloqu": 6125,
      "ĠĠĠĠĠĠĠĠ": 6126,
      "replied": 6127,
      "Ġbewit": 6128,
      "Ġdwelling": 6129,
      "Ġnavy": 6130,
      "Ġconfirmation": 6131,
      "Ġungracious": 6132,
      "Ġmaintained": 6133,
      "Ġobstin": 6134,
      "Ġexpenses": 6135,
      "Ġinsolent": 6136,
      "Ġdeprived": 6137,
      "Ġdisapprobation": 6138,
      "Ġinhabit": 6139,
      "Ġdisadvantage": 6140,
      "Ġinvalid": 6141,
      "Ġunsuspicious": 6142,
      "Ġmisconduct": 6143,
      "Ġstrawber": 6144,
      "Ġdecisive": 6145,
      "Ġsplend": 6146,
      "Ġrepetition": 6147,
      "Ġunpardonable": 6148,
      "Ġseventeen": 6149,
      "Ġgroup": 6150,
      "Ġgratefully": 6151,
      "woman": 6152,
      "'d": 6153,
      "bby": 6154,
      "cause": 6155,
      "gged": 6156,
      "ii": 6157,
      "iation": 6158,
      "iving": 6159,
      "jane": 6160,
      "making": 6161,
      "pes": 6162,
      "sm": 6163,
      "uity": 6164,
      "Ġtit": 6165,
      "Ġsed": 6166,
      "Ġsam": 6167,
      "Ġom": 6168,
      "Ġmant": 6169,
      "Ġbak": 6170,
      "Ġcow": 6171,
      "Ġcher": 6172,
      "Ġfle": 6173,
      "Ġfooting": 6174,
      "Ġdou": 6175,
      "Ġdur": 6176,
      "Ġdru": 6177,
      "ites": 6178,
      "itate": 6179,
      "itating": 6180,
      "Ġpi": 6181,
      "Ġinatt": 6182,
      "ature": 6183,
      "atives": 6184,
      "Ġliter": 6185,
      "Ġgig": 6186,
      "vere": 6187,
      "Ġredu": 6188,
      "Ġrevol": 6189,
      "irm": 6190,
      "Ġant": 6191,
      "tering": 6192,
      "Ġsearch": 6193,
      "Ġmyster": 6194,
      "Ġexult": 6195,
      "Ġexhaust": 6196,
      "icient": 6197,
      "antic": 6198,
      "Ġliable": 6199,
      "Ġunif": 6200,
      "Ġven": 6201,
      "Ġvary": 6202,
      "Ġwhence": 6203,
      "Ġrough": 6204,
      "Ġenergy": 6205,
      "Ġmanaged": 6206,
      "key": 6207,
      "Ġadapt": 6208,
      "Ġconsole": 6209,
      "Ġattitude": 6210,
      "assed": 6211,
      "Ġoffers": 6212,
      "Ġretreat": 6213,
      "Ġcontaining": 6214,
      "Ġtalker": 6215,
      "cile": 6216,
      "Ġassent": 6217,
      "Ġbrown": 6218,
      "Ġrecog": 6219,
      "Ġcharity": 6220,
      "Ġknightleys": 6221,
      "Ġclock": 6222,
      "Ġfounded": 6223,
      "Ġwoodston": 6224,
      "Ġblund": 6225,
      "Ġinstances": 6226,
      "Ġchanges": 6227,
      "Ġdetect": 6228,
      "these": 6229,
      "Ġoftener": 6230,
      "Ġactivity": 6231,
      "Ġspoilt": 6232,
      "ivid": 6233,
      "Ġformidable": 6234,
      "Ġhandsomest": 6235,
      "Ġexpressive": 6236,
      "Ġarriving": 6237,
      "erring": 6238,
      "Ġheads": 6239,
      "Ġdecline": 6240,
      "Ġreality": 6241,
      "Ġneedless": 6242,
      "Ġcompleted": 6243,
      "Ġpowerful": 6244,
      "Ġconsequences": 6245,
      "Ġgentlemanlike": 6246,
      "Ġregretting": 6247,
      "Ġtenant": 6248,
      "Ġtilneys": 6249,
      "urious": 6250,
      "ouncing": 6251,
      "Ġmansion": 6252,
      "Ġunpre": 6253,
      "Ġintelligent": 6254,
      "Ġblessings": 6255,
      "Ġdevotion": 6256,
      "Ġentreated": 6257,
      "Ġbeneath": 6258,
      "Ġemotions": 6259,
      "Ġseverely": 6260,
      "Ġregularly": 6261,
      "Ġscrupulous": 6262,
      "Ġamazed": 6263,
      "Ġviolence": 6264,
      "Ġskin": 6265,
      "Ġinferiority": 6266,
      "Ġlatest": 6267,
      "Ġpursuing": 6268,
      "Ġpursuits": 6269,
      "Ġkingston": 6270,
      "Ġoffend": 6271,
      "Ġesteemed": 6272,
      "Ġtransp": 6273,
      "Ġfashionable": 6274,
      "Ġlodge": 6275,
      "Ġcorrespondent": 6276,
      "Ġprocuring": 6277,
      "Ġprovoked": 6278,
      "Ġgraceful": 6279,
      "Ġbitterness": 6280,
      "Ġcandle": 6281,
      "Ġqualified": 6282,
      "Ġdemands": 6283,
      "Ġeloisa": 6284,
      "Ġunluckily": 6285,
      "Ġattracted": 6286,
      "Ġattractions": 6287,
      "Ġyielded": 6288,
      "Ġsailors": 6289,
      "Ġinconsider": 6290,
      "Ġdeserted": 6291,
      "Ġpuzzled": 6292,
      "Ġabruptly": 6293,
      "Ġsnug": 6294,
      "Ġdefend": 6295,
      "Ġbridges": 6296,
      "Ġexpedient": 6297,
      "Ġluxury": 6298,
      "Ġpunctual": 6299,
      "Ġconquest": 6300,
      "Ġhospit": 6301,
      "Ġbarely": 6302,
      "Ġvacant": 6303,
      "Ġvigor": 6304,
      "Ġpretensions": 6305,
      "Ġholiday": 6306,
      "Ġunaccountable": 6307,
      "Ġpattern": 6308,
      "Ġsouthampton": 6309,
      "Ġwarrant": 6310,
      "Ġuniform": 6311,
      "Ġrecogn": 6312,
      "_.\"": 6313,
      "ax": 6314,
      "cont": 6315,
      "fanny": 6316,
      "ming": 6317,
      "ost": 6318,
      "rate": 6319,
      "sed": 6320,
      "tis": 6321,
      "Ġsan": 6322,
      "Ġwounded": 6323,
      "had": 6324,
      "Ġtoday": 6325,
      "encies": 6326,
      "Ġninet": 6327,
      "orn": 6328,
      "orable": 6329,
      "ories": 6330,
      "Ġham": 6331,
      "Ġpang": 6332,
      "Ġpenance": 6333,
      "ari": 6334,
      "Ġec": 6335,
      "veying": 6336,
      "Ġrejected": 6337,
      "eter": 6338,
      "Ġate": 6339,
      "aled": 6340,
      "pelled": 6341,
      "Ġconference": 6342,
      "abilities": 6343,
      "Ġdel": 6344,
      "Ġdeference": 6345,
      "amore": 6346,
      "Ġdoctor": 6347,
      "akened": 6348,
      "Ġju": 6349,
      "âĢĿ;": 6350,
      "alley": 6351,
      "Ġfeet": 6352,
      "geon": 6353,
      "ulation": 6354,
      "Ġshr": 6355,
      "Ġunst": 6356,
      "Ġunqu": 6357,
      "Ġvalley": 6358,
      "Ġproving": 6359,
      "Ġrum": 6360,
      "Ġmarch": 6361,
      "Ġspark": 6362,
      "aced": 6363,
      "Ġfav": 6364,
      "Ġshared": 6365,
      "ellow": 6366,
      "agon": 6367,
      "ruel": 6368,
      "Ġlikeli": 6369,
      "Ġresign": 6370,
      "Ġrepul": 6371,
      "Ġprint": 6372,
      "Ġaccent": 6373,
      "civ": 6374,
      "Ġcrawfords": 6375,
      "Ġglass": 6376,
      "Ġribb": 6377,
      "Ġapple": 6378,
      "Ġcauses": 6379,
      "Ġmaternal": 6380,
      "enny": 6381,
      "fted": 6382,
      "Ġfoundation": 6383,
      "Ġconfid": 6384,
      "Ġanswers": 6385,
      "Ġgenteel": 6386,
      "Ġchanging": 6387,
      "Ġrestore": 6388,
      "version": 6389,
      "insc": 6390,
      "Ġoppressed": 6391,
      "Ġcaptiv": 6392,
      "Ġsilenced": 6393,
      "because": 6394,
      "Ġrelating": 6395,
      "Ġtrunk": 6396,
      "Ġstepped": 6397,
      "Ġsmaller": 6398,
      "Ġsituated": 6399,
      "Ġfreed": 6400,
      "Ġinsip": 6401,
      "Ġawake": 6402,
      "Ġawakened": 6403,
      "Ġdeclining": 6404,
      "Ġadmirable": 6405,
      "Ġbehalf": 6406,
      "Ġgranted": 6407,
      "Ġallowance": 6408,
      "Ġworks": 6409,
      "Ġtilson": 6410,
      "Ġcivilly": 6411,
      "Ġexception": 6412,
      "Ġremembering": 6413,
      "Ġrecommending": 6414,
      "Ġintellect": 6415,
      "Ġpurposely": 6416,
      "Ġthousands": 6417,
      "Ġportra": 6418,
      "Ġportinsc": 6419,
      "Ġinquiring": 6420,
      "Ġreproached": 6421,
      "Ġimpatiently": 6422,
      "Ġendeavours": 6423,
      "Ġdefence": 6424,
      "Ġdenial": 6425,
      "Ġstrengthened": 6426,
      "Ġhills": 6427,
      "Ġhappening": 6428,
      "Ġrelationship": 6429,
      "Ġslee": 6430,
      "Ġcutting": 6431,
      "Ġsket": 6432,
      "Ġbecomes": 6433,
      "Ġblinded": 6434,
      "Ġblindness": 6435,
      "Ġartless": 6436,
      "Ġpretended": 6437,
      "Ġcordially": 6438,
      "Ġapartments": 6439,
      "Ġrapidity": 6440,
      "Ġliberality": 6441,
      "Ġindispens": 6442,
      "Ġindisposition": 6443,
      "setshire": 6444,
      "Ġsteadiness": 6445,
      "Ġwhispering": 6446,
      "Ġinducement": 6447,
      "Ġshyness": 6448,
      "Ġdespat": 6449,
      "Ġsailor": 6450,
      "Ġamendment": 6451,
      "Ġdiscerned": 6452,
      "Ġoverpower": 6453,
      "Ġcontradict": 6454,
      "Ġpreceding": 6455,
      "Ġlamented": 6456,
      "Ġappointment": 6457,
      "Ġselina": 6458,
      "Ġdesperate": 6459,
      "Ġbenevolence": 6460,
      "Ġexclamation": 6461,
      "Ġspectacles": 6462,
      "Ġabundance": 6463,
      "Ġfidget": 6464,
      "Ġambition": 6465,
      "Ġdisdain": 6466,
      "Ġscudamore": 6467,
      "Ġfloor": 6468,
      "Ġdecorum": 6469,
      "Ġhughes": 6470,
      "Ġwingfield": 6471,
      "Ġodious": 6472,
      "Ġspecial": 6473,
      "Ġnineteen": 6474,
      ";âĢĿ": 6475,
      "ailing": 6476,
      "down": 6477,
      "dges": 6478,
      "iu": 6479,
      "izing": 6480,
      "ls": 6481,
      "mind": 6482,
      "mers": 6483,
      "say": 6484,
      "true": 6485,
      "uation": 6486,
      "would": 6487,
      "zes": 6488,
      "Ġtour": 6489,
      "Ġfret": 6490,
      "eded": 6491,
      "Ġdying": 6492,
      "Ġbeat": 6493,
      "Ġpained": 6494,
      "Ġpages": 6495,
      "Ġears": 6496,
      "atingly": 6497,
      "Ġlang": 6498,
      "cend": 6499,
      "cending": 6500,
      "Ġash": 6501,
      "ims": 6502,
      "Ġanci": 6503,
      "Ġkilled": 6504,
      "Ġfras": 6505,
      "ician": 6506,
      "Ġdish": 6507,
      "Ġdissu": 6508,
      "Ġvan": 6509,
      "Ġvict": 6510,
      "Ġvows": 6511,
      "Ġpref": 6512,
      "Ġagat": 6513,
      "Ġenable": 6514,
      "Ġencl": 6515,
      "Ġacute": 6516,
      "Ġharmon": 6517,
      "els": 6518,
      "acing": 6519,
      "Ġintreat": 6520,
      "Ġshaw": 6521,
      "osop": 6522,
      "Ġchuses": 6523,
      "Ġbeforehand": 6524,
      "Ġchairs": 6525,
      "ruction": 6526,
      "Ġeveringham": 6527,
      "unction": 6528,
      "cks": 6529,
      "Ġsomer": 6530,
      "Ġscand": 6531,
      "Ġscore": 6532,
      "Ġsubmission": 6533,
      "Ġwestons": 6534,
      "Ġriver": 6535,
      "ension": 6536,
      "ensive": 6537,
      "Ġseries": 6538,
      "eping": 6539,
      "Ġfinds": 6540,
      "Ġcaring": 6541,
      "Ġthrush": 6542,
      "Ġblank": 6543,
      "Ġblamed": 6544,
      "Ġgently": 6545,
      "Ġprize": 6546,
      "Ġinterests": 6547,
      "Ġdisposal": 6548,
      "Ġinvent": 6549,
      "Ġagreeably": 6550,
      "Ġgravel": 6551,
      "Ġsentences": 6552,
      "Ġwiser": 6553,
      "Ġwarmer": 6554,
      "Ġlistener": 6555,
      "Ġservices": 6556,
      "parlour": 6557,
      "Ġfourteen": 6558,
      "Ġbearing": 6559,
      "Ġfinery": 6560,
      "Ġhonours": 6561,
      "Ġfearing": 6562,
      "Ġremainder": 6563,
      "Ġrecommendations": 6564,
      "Ġdepressed": 6565,
      "Ġconcluding": 6566,
      "Ġclaimed": 6567,
      "Ġconceited": 6568,
      "Ġgreet": 6569,
      "Ġamusements": 6570,
      "Ġemployments": 6571,
      "Ġimproving": 6572,
      "Ġcommunications": 6573,
      "Ġbarg": 6574,
      "Ġexamined": 6575,
      "Ġholds": 6576,
      "Ġdivide": 6577,
      "Ġseats": 6578,
      "Ġmiddletons": 6579,
      "Ġcongratulated": 6580,
      "rehensible": 6581,
      "Ġamazing": 6582,
      "Ġcompassionate": 6583,
      "Ġmutton": 6584,
      "Ġdistinguishing": 6585,
      "Ġnephews": 6586,
      "Ġcolouring": 6587,
      "Ġdignified": 6588,
      "Ġreconcile": 6589,
      "Ġobtain": 6590,
      "Ġattentively": 6591,
      "Ġrender": 6592,
      "Ġcandour": 6593,
      "Ġtriumphant": 6594,
      "Ġstudied": 6595,
      "Ġsolemnity": 6596,
      "Ġsimply": 6597,
      "Ġdemanded": 6598,
      "sett": 6599,
      "Ġfaithful": 6600,
      "Ġarguments": 6601,
      "Ġassertion": 6602,
      "Ġinsensibility": 6603,
      "Ġnaval": 6604,
      "Ġfatigues": 6605,
      "Ġattributed": 6606,
      "Ġungen": 6607,
      "Ġmisunderstood": 6608,
      "Ġinnocent": 6609,
      "Ġascertained": 6610,
      "Ġprompted": 6611,
      "Ġlacey": 6612,
      "Ġprosperous": 6613,
      "Ġplea": 6614,
      "Ġdimin": 6615,
      "Ġcontemplation": 6616,
      "board": 6617,
      "Ġsoothing": 6618,
      "Ġunfeeling": 6619,
      "Ġdismissed": 6620,
      "Ġwandering": 6621,
      "Ġrenewal": 6622,
      "Ġsubdued": 6623,
      "Ġcases": 6624,
      "Ġhanging": 6625,
      "Ġmourning": 6626,
      "Ġextended": 6627,
      "Ġincessant": 6628,
      "Ġphilosop": 6629,
      "Ġunreserve": 6630,
      "Ġyorkshire": 6631,
      "Ġcondemn": 6632,
      "Ġnegligent": 6633,
      "Ġimpulse": 6634,
      "Ġdisliked": 6635,
      "Ġadvisable": 6636,
      "Ġbewildered": 6637,
      "Ġmystery": 6638,
      "Ġvouch": 6639,
      "Ġincumbent": 6640,
      "Ġexultation": 6641,
      "Ġhospitality": 6642,
      "Ġsanction": 6643,
      "Ġancient": 6644,
      "cal": 6645,
      "coat": 6646,
      "father": 6647,
      "lings": 6648,
      "nes": 6649,
      "ob": 6650,
      "ope": 6651,
      "pla": 6652,
      "sition": 6653,
      "turning": 6654,
      "vable": 6655,
      "Ġted": 6656,
      "Ġtro": 6657,
      "Ġaye": 6658,
      "Ġba": 6659,
      "Ġbi": 6660,
      "erably": 6661,
      "Ġcra": 6662,
      "Ġhamp": 6663,
      "itably": 6664,
      "Ġphe": 6665,
      "Ġhide": 6666,
      "leep": 6667,
      "atte": 6668,
      "Ġgle": 6669,
      "Ġgates": 6670,
      "Ġgruel": 6671,
      "Ġwaste": 6672,
      "stand": 6673,
      "stem": 6674,
      "Ġforlor": 6675,
      "idious": 6676,
      "cting": 6677,
      "Ġwhither": 6678,
      "riot": 6679,
      "Ġalluded": 6680,
      "Ġdeemed": 6681,
      "Ġexeter": 6682,
      "Ġfee": 6683,
      "Ġmisled": 6684,
      "Ġalert": 6685,
      "Ġunse": 6686,
      "Ġdismay": 6687,
      "Ġperman": 6688,
      "Ġrout": 6689,
      "usable": 6690,
      "Ġpocket": 6691,
      "Ġposition": 6692,
      "Ġharbour": 6693,
      "Ġharvill": 6694,
      "Ġgoss": 6695,
      "olph": 6696,
      "acle": 6697,
      "acious": 6698,
      "Ġowner": 6699,
      "Ġcompet": 6700,
      "Ġintently": 6701,
      "ositions": 6702,
      "Ġdearly": 6703,
      "weed": 6704,
      "Ġarisen": 6705,
      "Ġcovered": 6706,
      "Ġdespond": 6707,
      "aneous": 6708,
      "Ġscra": 6709,
      "Ġscattered": 6710,
      "Ġintegr": 6711,
      "Ġpersist": 6712,
      "Ġassume": 6713,
      "Ġtrain": 6714,
      "udes": 6715,
      "Ġclos": 6716,
      "Ġhearty": 6717,
      "Ġacquired": 6718,
      "aughter": 6719,
      "Ġdarcys": 6720,
      "Ġsurry": 6721,
      "Ġlesson": 6722,
      "Ġaunts": 6723,
      "Ġagreement": 6724,
      "Ġchest": 6725,
      "Ġinterfere": 6726,
      "Ġwilf": 6727,
      "Ġsilver": 6728,
      "ibilities": 6729,
      "Ġsmallridge": 6730,
      "Ġexciting": 6731,
      "Ġfancies": 6732,
      "Ġinsign": 6733,
      "Ġawful": 6734,
      "Ġrealized": 6735,
      "Ġattachments": 6736,
      "Ġincluding": 6737,
      "Ġallowable": 6738,
      "Ġliveliness": 6739,
      "respect": 6740,
      "Ġquestioned": 6741,
      "Ġdependent": 6742,
      "Ġdrank": 6743,
      "Ġproducing": 6744,
      "Ġdeepest": 6745,
      "Ġirish": 6746,
      "Ġsummons": 6747,
      "Ġindulging": 6748,
      "Ġallenham": 6749,
      "Ġmadness": 6750,
      "Ġproofs": 6751,
      "Ġphr": 6752,
      "Ġdivision": 6753,
      "Ġprovision": 6754,
      "Ġdestined": 6755,
      "Ġdistinctly": 6756,
      "Ġsickly": 6757,
      "Ġcollecting": 6758,
      "Ġcassy": 6759,
      "Ġconjectured": 6760,
      "judged": 6761,
      "Ġchristian": 6762,
      "Ġfreely": 6763,
      "Ġinvolunt": 6764,
      "Ġhesitate": 6765,
      "Ġfootst": 6766,
      "Ġrejoicing": 6767,
      "Ġstupidity": 6768,
      "Ġspeedy": 6769,
      "Ġbetraying": 6770,
      "Ġresisted": 6771,
      "Ġbreathe": 6772,
      "Ġindisposed": 6773,
      "Ġsleeping": 6774,
      "Ġattractive": 6775,
      "Ġingrat": 6776,
      "Ġexchanged": 6777,
      "Ġempty": 6778,
      "Ġprosperity": 6779,
      "Ġunfavour": 6780,
      "harriet": 6781,
      "Ġinsufferable": 6782,
      "Ġsurmise": 6783,
      "Ġmodel": 6784,
      "Ġuniversally": 6785,
      "Ġcritic": 6786,
      "Ġextravagant": 6787,
      "Ġextravagance": 6788,
      "Ġreckoned": 6789,
      "Ġconsistent": 6790,
      "Ġnorthamptonshire": 6791,
      "Ġadeiu": 6792,
      "Ġrelig": 6793,
      "Ġtidings": 6794,
      "Ġeconomy": 6795,
      "office": 6796,
      "Ġreverie": 6797,
      "Ġdigweed": 6798,
      "Ġvoices": 6799,
      "Ġbewitching": 6800,
      "Ġstrawberries": 6801,
      "Ġecst": 6802,
      "minded": 6803,
      "Ġagatha": 6804,
      "plaister": 6805,
      "Ġforlorn": 6806,
      "Ġharvilles": 6807,
      "olpho": 6808,
      "Ġintegrity": 6809,
      ".[": 6810,
      "_.âĢĿ": 6811,
      "cim": 6812,
      "five": 6813,
      "gs": 6814,
      "gments": 6815,
      "ife": 6816,
      "ker": 6817,
      "more": 6818,
      "nings": 6819,
      "oves": 6820,
      "pap": 6821,
      "sized": 6822,
      "ued": 6823,
      "Ġtur": 6824,
      "Ġtree": 6825,
      "inc": 6826,
      "Ġsar": 6827,
      "Ġwarn": 6828,
      "Ġmare": 6829,
      "Ġcult": 6830,
      "Ġfer": 6831,
      "Ġfow": 6832,
      "Ġflight": 6833,
      "onial": 6834,
      "Ġdarted": 6835,
      "oration": 6836,
      "llen": 6837,
      "Ġpel": 6838,
      "lebr": 6839,
      "ancies": 6840,
      "Ġecc": 6841,
      "ator": 6842,
      "Ġling": 6843,
      "Ġsheet": 6844,
      "Ġrent": 6845,
      "Ġasleep": 6846,
      "imate": 6847,
      "cture": 6848,
      "rill": 6849,
      "Ġatone": 6850,
      "Ġbutler": 6851,
      "Ġconj": 6852,
      "Ġconven": 6853,
      "Ġconverse": 6854,
      "quite": 6855,
      "Ġstar": 6856,
      "Ġcombe": 6857,
      "Ġsafer": 6858,
      "icule": 6859,
      "Ġameli": 6860,
      "Ġyourselves": 6861,
      "Ġunite": 6862,
      "keley": 6863,
      "Ġpopul": 6864,
      "Ġusing": 6865,
      "Ġthoughtless": 6866,
      "Ġimputed": 6867,
      "Ġroof": 6868,
      "Ġresigned": 6869,
      "Ġrepose": 6870,
      "Ġcoat": 6871,
      "igning": 6872,
      "Ġbegging": 6873,
      "mbers": 6874,
      "Ġsatin": 6875,
      "Ġassented": 6876,
      "Ġbrings": 6877,
      "Ġbrisk": 6878,
      "Ġglory": 6879,
      "Ġgloves": 6880,
      "Ġacquire": 6881,
      "Ġindic": 6882,
      "Ġindol": 6883,
      "Ġindivid": 6884,
      "Ġincident": 6885,
      "Ġserved": 6886,
      "Ġlessened": 6887,
      "Ġhardened": 6888,
      "Ġconsiderate": 6889,
      "Ġsuspended": 6890,
      "Ġrefinement": 6891,
      "Ġdisparity": 6892,
      "Ġreader": 6893,
      "Ġraising": 6894,
      "Ġappearances": 6895,
      "Ġdiscomp": 6896,
      "Ġhandsomer": 6897,
      "Ġcheap": 6898,
      "Ġwilliams": 6899,
      "Ġflower": 6900,
      "Ġclean": 6901,
      "Ġstepping": 6902,
      "Ġconversing": 6903,
      "Ġdiffident": 6904,
      "Ġbeautifull": 6905,
      "Ġeasier": 6906,
      "istency": 6907,
      "Ġinsinu": 6908,
      "Ġheadache": 6909,
      "Ġenjoyments": 6910,
      "Ġdeclaring": 6911,
      "Ġgratify": 6912,
      "Ġexplaining": 6913,
      "Ġboiled": 6914,
      "forward": 6915,
      "Ġadvantageous": 6916,
      "Ġcelebr": 6917,
      "Ġsystem": 6918,
      "door": 6919,
      "Ġbeside": 6920,
      "Ġgrieve": 6921,
      "Ġvaried": 6922,
      "Ġpreposs": 6923,
      "Ġdelays": 6924,
      "Ġmorton": 6925,
      "Ġcomprehended": 6926,
      "Ġcomprehending": 6927,
      "Ġexerted": 6928,
      "Ġcuracy": 6929,
      "Ġthirteen": 6930,
      "Ġphys": 6931,
      "Ġurging": 6932,
      "Ġfrightful": 6933,
      "Ġlanguid": 6934,
      "Ġslept": 6935,
      "Ġviolently": 6936,
      "Ġsighing": 6937,
      "Ġprevailing": 6938,
      "Ġgodmers": 6939,
      "Ġblameless": 6940,
      "Ġdrop": 6941,
      "Ġdropt": 6942,
      "Ġstarting": 6943,
      "Ġsorrowful": 6944,
      "Ġquarrelling": 6945,
      "Ġderived": 6946,
      "Ġoriginally": 6947,
      "Ġapprehensive": 6948,
      "Ġcrowded": 6949,
      "Ġlamentations": 6950,
      "Ġmatrimonial": 6951,
      "Ġestimate": 6952,
      "Ġpreserve": 6953,
      "Ġdiscovering": 6954,
      "Ġenquiry": 6955,
      "donald": 6956,
      "Ġboasted": 6957,
      "Ġgloomy": 6958,
      "Ġinevitably": 6959,
      "Ġlimited": 6960,
      "Ġabsurdity": 6961,
      "Ġknocked": 6962,
      "Ġunfair": 6963,
      "Ġappointed": 6964,
      "Ġinexp": 6965,
      "Ġbilli": 6966,
      "Ġpermitted": 6967,
      "Ġunconsciously": 6968,
      "abouts": 6969,
      "Ġrehearsal": 6970,
      "Ġcentre": 6971,
      "Ġexecution": 6972,
      "Ġperpetual": 6973,
      "Ġenthusiasm": 6974,
      "Ġmeadows": 6975,
      "Ġdisorder": 6976,
      "Ġimpartial": 6977,
      "Ġterribly": 6978,
      "Ġreceipt": 6979,
      "Ġberkeley": 6980,
      "Ġbeleive": 6981,
      "Ġflew": 6982,
      "Ġexhausted": 6983,
      "Ġlangford": 6984,
      "Ġshawl": 6985,
      "Ġtedious": 6986,
      "Ġphrase": 6987,
      "Ġamelia": 6988,
      "Ġgodmersham": 6989,
      "00": 6990,
      ";'": 6991,
      "aps": 6992,
      "bl": 6993,
      "cary": 6994,
      "dolpho": 6995,
      "froy": 6996,
      "from": 6997,
      "long": 6998,
      "nonsense": 6999,
      "pro": 7000,
      "spe": 7001,
      "tle": 7002,
      "Ġ5": 7003,
      "health": 7004,
      "Ġay": 7005,
      "Ġaid": 7006,
      "Ġachie": 7007,
      "halt": 7008,
      "erness": 7009,
      "Ġtones": 7010,
      "Ġcab": 7011,
      "Ġfly": 7012,
      "isc": 7013,
      "isse": 7014,
      "ishes": 7015,
      "Ġhated": 7016,
      "Ġpou": 7017,
      "ashed": 7018,
      "any": 7019,
      "Ġeg": 7020,
      "atible": 7021,
      "Ġlin": 7022,
      "Ġyellow": 7023,
      "Ġnoticing": 7024,
      "Ġreven": 7025,
      "ays": 7026,
      "ctive": 7027,
      "Ġudolpho": 7028,
      "Ġkings": 7029,
      "liance": 7030,
      "Ġmoon": 7031,
      "Ġconveying": 7032,
      "Ġalle": 7033,
      "Ġalloy": 7034,
      "Ġmeat": 7035,
      "quet": 7036,
      "quate": 7037,
      "Ġstu": 7038,
      "Ġstoop": 7039,
      "Ġframe": 7040,
      "Ġlefroy": 7041,
      "ulous": 7042,
      "Ġwholesome": 7043,
      "Ġdiscl": 7044,
      "Ġdisrespect": 7045,
      "Ġprem": 7046,
      "Ġquant": 7047,
      "asted": 7048,
      "Ġharley": 7049,
      "Ġbeings": 7050,
      "Ġplants": 7051,
      "Ġimpl": 7052,
      "Ġimposed": 7053,
      "Ġconsented": 7054,
      "Ġcoarse": 7055,
      "Ġapothe": 7056,
      "Ġaccused": 7057,
      "Ġcontro": 7058,
      "Ġrecur": 7059,
      "Ġtrade": 7060,
      "Ġgips": 7061,
      "Ġglowing": 7062,
      "Ġrival": 7063,
      "Ġapplying": 7064,
      "icken": 7065,
      "Ġinfli": 7066,
      "Ġinfam": 7067,
      "Ġserve": 7068,
      "Ġhardship": 7069,
      "Ġcourte": 7070,
      "Ġconsiderations": 7071,
      "Ġadvoc": 7072,
      "Ġdoubtless": 7073,
      "Ġdispat": 7074,
      "Ġdispers": 7075,
      "anging": 7076,
      "Ġfollows": 7077,
      "Ġdischar": 7078,
      "Ġaccounted": 7079,
      "Ġwonders": 7080,
      "Ġwives": 7081,
      "Ġrespectability": 7082,
      "Ġopposing": 7083,
      "Ġsilently": 7084,
      "Ġconcurrence": 7085,
      "Ġsuffice": 7086,
      "Ġhelpless": 7087,
      "Ġinsisted": 7088,
      "Ġawa": 7089,
      "Ġdrawings": 7090,
      "Ġballroom": 7091,
      "Ġpleasantest": 7092,
      "Ġairs": 7093,
      "Ġsweep": 7094,
      "Ġcreating": 7095,
      "Ġconvincing": 7096,
      "uries": 7097,
      "ggs": 7098,
      "Ġintimately": 7099,
      "Ġassisting": 7100,
      "Ġmercy": 7101,
      "Ġsends": 7102,
      "Ġbrag": 7103,
      "ogue": 7104,
      "Ġtenderly": 7105,
      "Ġimprobable": 7106,
      "Ġcloset": 7107,
      "Ġirre": 7108,
      "Ġruined": 7109,
      ".'\"": 7110,
      "Ġaffectation": 7111,
      "Ġdevil": 7112,
      "Ġblushing": 7113,
      "Ġcontriv": 7114,
      "Ġroads": 7115,
      "Ġexplanations": 7116,
      "Ġdraught": 7117,
      "Ġconsoling": 7118,
      "Ġsolely": 7119,
      "Ġdeclares": 7120,
      "Ġexisted": 7121,
      "Ġrationally": 7122,
      "Ġenquired": 7123,
      "Ġdiscussed": 7124,
      "isposed": 7125,
      "Ġpractise": 7126,
      "Ġrejoined": 7127,
      "Ġaccidental": 7128,
      "Ġmixed": 7129,
      "Ġcandid": 7130,
      "Ġfirmly": 7131,
      "Ġelope": 7132,
      "Ġfemales": 7133,
      "Ġmoderation": 7134,
      "Ġimpertinence": 7135,
      "Ġdisplayed": 7136,
      "Ġmilsom": 7137,
      "Ġattribute": 7138,
      "Ġdeceit": 7139,
      "Ġrecalled": 7140,
      "party": 7141,
      "parties": 7142,
      "Ġflirtation": 7143,
      "Ġcurtain": 7144,
      "Ġwithdraw": 7145,
      "Ġstockings": 7146,
      "Ġexpensive": 7147,
      "box": 7148,
      "Ġcrying": 7149,
      "Ġromantic": 7150,
      "somet": 7151,
      "Ġdiverted": 7152,
      "Ġjumped": 7153,
      "Ġrefreshment": 7154,
      "Ġmacdonald": 7155,
      "Ġimpudent": 7156,
      "Ġsolicitous": 7157,
      "colonel": 7158,
      "Ġfrost": 7159,
      "Ġplanned": 7160,
      "Ġplague": 7161,
      "Ġpertur": 7162,
      "Ġrespons": 7163,
      "Ġshillings": 7164,
      "Ġinconstancy": 7165,
      "Ġaccustomed": 7166,
      "Ġdissatisfied": 7167,
      "Ġtitle": 7168,
      "Ġbaked": 7169,
      "Ġblunders": 7170,
      "Ġconfidant": 7171,
      "Ġsketch": 7172,
      "Ġharmony": 7173,
      "settled": 7174,
      "Ġungenerous": 7175,
      "Ġphilosoph": 7176,
      "Ġpheas": 7177,
      "Ġgossip": 7178,
      "Ġunfavourable": 7179,
      "Ġapothecary": 7180,
      "bur": 7181,
      "boy": 7182,
      "cation": 7183,
      "erest": 7184,
      "iences": 7185,
      "lau": 7186,
      "ms": 7187,
      "mill": 7188,
      "nest": 7189,
      "ok": 7190,
      "ront": 7191,
      "tar": 7192,
      "tete": 7193,
      "timed": 7194,
      "ulf": 7195,
      "Ġ7": 7196,
      "Ġtete": 7197,
      "Ġaven": 7198,
      "inbur": 7199,
      "Ġwm": 7200,
      "Ġment": 7201,
      "Ġbos": 7202,
      "Ġbig": 7203,
      "eration": 7204,
      "nder": 7205,
      "Ġfish": 7206,
      "Ġfolding": 7207,
      "oning": 7208,
      "Ġded": 7209,
      "isions": 7210,
      "isition": 7211,
      "orned": 7212,
      "itute": 7213,
      "Ġbee": 7214,
      "Ġpin": 7215,
      "Ġpull": 7216,
      "Ġpushed": 7217,
      "asc": 7218,
      "Ġhind": 7219,
      "leg": 7220,
      "athered": 7221,
      "Ġgil": 7222,
      "Ġnotes": 7223,
      "utions": 7224,
      "Ġreview": 7225,
      "Ġreappeared": 7226,
      "entive": 7227,
      "Ġwearing": 7228,
      "iders": 7229,
      "Ġanhalt": 7230,
      "Ġsuits": 7231,
      "Ġumb": 7232,
      "Ġbutcher": 7233,
      "add": 7234,
      "Ġsele": 7235,
      "Ġdeane": 7236,
      "Ġdevel": 7237,
      "arts": 7238,
      "Ġsau": 7239,
      "Ġunans": 7240,
      "tending": 7241,
      "Ġabst": 7242,
      "Ġvind": 7243,
      "Ġagg": 7244,
      "Ġrow": 7245,
      "Ġrouse": 7246,
      "Ġensu": 7247,
      "mmer": 7248,
      "mmond": 7249,
      "Ġshoulders": 7250,
      "nected": 7251,
      "Ġcompr": 7252,
      "Ġcompliance": 7253,
      "Ġplant": 7254,
      "Ġsharing": 7255,
      "Ġshakes": 7256,
      "Ġcanv": 7257,
      "Ġpleases": 7258,
      "Ġconsiders": 7259,
      "Ġrode": 7260,
      "Ġspecim": 7261,
      "Ġremiss": 7262,
      "Ġreputation": 7263,
      "umber": 7264,
      "Ġarising": 7265,
      "Ġindef": 7266,
      "Ġaccus": 7267,
      "Ġaccuse": 7268,
      "Ġcontracted": 7269,
      "Ġhousehold": 7270,
      "Ġedinbur": 7271,
      "Ġscar": 7272,
      "Ġkinder": 7273,
      "Ġassuming": 7274,
      "ferer": 7275,
      "Ġsubsequ": 7276,
      "Ġrecently": 7277,
      "Ġhandwriting": 7278,
      "Ġdaring": 7279,
      "Ġglor": 7280,
      "Ġglanced": 7281,
      "Ġrivet": 7282,
      "Ġvisible": 7283,
      "Ġmatches": 7284,
      "Ġpresents": 7285,
      "Ġfewer": 7286,
      "Ġtear": 7287,
      "Ġincur": 7288,
      "Ġcomforted": 7289,
      "Ġgentility": 7290,
      "Ġsecuring": 7291,
      "Ġprior": 7292,
      "Ġrefined": 7293,
      "Ġrightly": 7294,
      "Ġspoil": 7295,
      "Ġdiscreet": 7296,
      "Ġdinners": 7297,
      "Ġsilk": 7298,
      "Ġstream": 7299,
      "Ġdiffidence": 7300,
      "Ġplayfulness": 7301,
      "Ġhelping": 7302,
      "rooms": 7303,
      "Ġthanking": 7304,
      "Ġrequisite": 7305,
      "Ġrequiring": 7306,
      "Ġairing": 7307,
      "Ġcharmingly": 7308,
      "Ġfinal": 7309,
      "Ġwinds": 7310,
      "Ġfondness": 7311,
      "Ġannouncing": 7312,
      "ĠĠĠ": 7313,
      "Ġforever": 7314,
      "Ġlaughingly": 7315,
      "Ġbehold": 7316,
      "Ġalarms": 7317,
      "Ġreplying": 7318,
      "ifications": 7319,
      "Ġgrievous": 7320,
      "Ġindulgent": 7321,
      "Ġreproaches": 7322,
      ".'âĢĿ": 7323,
      "Ġaffecting": 7324,
      "Ġpreventing": 7325,
      "Ġridicule": 7326,
      "Ġdesiring": 7327,
      "Ġtreating": 7328,
      "Ġcalmer": 7329,
      "Ġagreable": 7330,
      "Ġsecretly": 7331,
      "Ġdenying": 7332,
      "Ġnegative": 7333,
      "Ġdisgu": 7334,
      "Ġcommanded": 7335,
      "Ġsufferer": 7336,
      "arers": 7337,
      "Ġaffront": 7338,
      "Ġlanguor": 7339,
      "Ġcomparative": 7340,
      "Ġsolid": 7341,
      "Ġaccomplishment": 7342,
      "Ġpencil": 7343,
      "Ġmovements": 7344,
      "Ġimpressed": 7345,
      "Ġimpressions": 7346,
      "Ġgaze": 7347,
      "Ġsickness": 7348,
      "Ġrequested": 7349,
      "Ġdesigned": 7350,
      "Ġenquire": 7351,
      "Ġcourtes": 7352,
      "Ġhesitatingly": 7353,
      "Ġfailure": 7354,
      "Ġrestrain": 7355,
      "Ġprovoke": 7356,
      "Ġdirecting": 7357,
      "Ġguardian": 7358,
      "Ġpersevered": 7359,
      "Ġtheatric": 7360,
      "Ġirritated": 7361,
      "Ġfreindship": 7362,
      "saw": 7363,
      "Ġunexpectedly": 7364,
      "Ġasserted": 7365,
      "Ġraptur": 7366,
      "repro": 7367,
      "Ġwisely": 7368,
      "Ġassembly": 7369,
      "Ġswall": 7370,
      "Ġprejudiced": 7371,
      "Ġunkindness": 7372,
      "Ġgraciously": 7373,
      "Ġtrembled": 7374,
      "Ġmaintain": 7375,
      "Ġinnocence": 7376,
      "Ġsports": 7377,
      "Ġjanet": 7378,
      "Ġhazard": 7379,
      "Ġinsufficient": 7380,
      "Ġrepair": 7381,
      "Ġinspired": 7382,
      "Ġcritical": 7383,
      "Ġgoverned": 7384,
      "Ġslipped": 7385,
      "Ġaudience": 7386,
      "Ġenvir": 7387,
      "Ġingenuity": 7388,
      "Ġardent": 7389,
      "Ġincredible": 7390,
      "Ġstables": 7391,
      "Ġexhibition": 7392,
      "Ġrelease": 7393,
      "Ġoverheard": 7394,
      "Ġsprang": 7395,
      "Ġtreasure": 7396,
      "Ġbefall": 7397,
      "Ġamidst": 7398,
      "Ġdisinclination": 7399,
      "Ġcaprice": 7400,
      "Ġsurrounding": 7401,
      "Ġhumiliation": 7402,
      "Ġreduced": 7403,
      "Ġdetected": 7404,
      "Ġunpretending": 7405,
      "Ġholidays": 7406,
      "Ġribbon": 7407,
      "Ġfreedom": 7408,
      "Ġportinscale": 7409,
      "Ġbargain": 7410,
      "Ġingratitude": 7411,
      "kerchief": 7412,
      "Ġrevenge": 7413,
      "Ġadvocate": 7414,
      "Ġperturbation": 7415,
      "Ġmental": 7416,
      "Ġumbrell": 7417,
      "Ġedinburgh": 7418,
      "Ġsubsequent": 7419,
      "bling": 7420,
      "cert": 7421,
      "dge": 7422,
      "disposed": 7423,
      "lock": 7424,
      "ped": 7425,
      "pri": 7426,
      "pled": 7427,
      "rated": 7428,
      "rained": 7429,
      "rances": 7430,
      "ym": 7431,
      "yal": 7432,
      "Ġawe": 7433,
      "inent": 7434,
      "inable": 7435,
      "inity": 7436,
      "rent": 7437,
      "Ġot": 7438,
      "Ġmic": 7439,
      "hael": 7440,
      "eral": 7441,
      "Ġcot": 7442,
      "Ġcough": 7443,
      "Ġfra": 7444,
      "Ġfood": 7445,
      "Ġfame": 7446,
      "Ġfulf": 7447,
      "orter": 7448,
      "Ġhack": 7449,
      "llian": 7450,
      "itious": 7451,
      "Ġbend": 7452,
      "Ġbears": 7453,
      "Ġlamp": 7454,
      "Ġyard": 7455,
      "Ġwasted": 7456,
      "Ġital": 7457,
      "Ġren": 7458,
      "Ġreve": 7459,
      "Ġforwards": 7460,
      "Ġwhit": 7461,
      "tershire": 7462,
      "liven": 7463,
      "Ġmult": 7464,
      "Ġdeaf": 7465,
      "Ġstake": 7466,
      "Ġstuff": 7467,
      "Ġcomment": 7468,
      "Ġcomments": 7469,
      "rawn": 7470,
      "raph": 7471,
      "Ġjew": 7472,
      "Ġsand": 7473,
      "Ġamp": 7474,
      "Ġalton": 7475,
      "Ġmissing": 7476,
      "Ġperfor": 7477,
      "Ġperception": 7478,
      "Ġperusal": 7479,
      "Ġpreci": 7480,
      "Ġrained": 7481,
      "Ġenliven": 7482,
      "Ġquad": 7483,
      "Ġquality": 7484,
      "inking": 7485,
      "Ġmarlow": 7486,
      "Ġgoodnest": 7487,
      "Ġneverthe": 7488,
      "Ġintent": 7489,
      "Ġpla": 7490,
      "Ġshaking": 7491,
      "Ġchusing": 7492,
      "Ġfriendliness": 7493,
      "Ġchain": 7494,
      "Ġsupposition": 7495,
      "Ġcobb": 7496,
      "Ġcoinc": 7497,
      "Ġprince": 7498,
      "Ġedwd": 7499,
      "Ġscolded": 7500,
      "Ġassumed": 7501,
      "Ġrecital": 7502,
      "Ġreturns": 7503,
      "Ġtrou": 7504,
      "Ġcharitable": 7505,
      "Ġteeth": 7506,
      "Ġtease": 7507,
      "shine": 7508,
      "Ġsermon": 7509,
      "Ġdownright": 7510,
      "licit": 7511,
      "Ġnative": 7512,
      "Ġsussex": 7513,
      "Ġspirited": 7514,
      "Ġdoubting": 7515,
      "servant": 7516,
      "Ġdispositions": 7517,
      "landau": 7518,
      "Ġunderstands": 7519,
      "nold": 7520,
      "Ġbingleys": 7521,
      "Ġpromoted": 7522,
      "Ġguide": 7523,
      "Ġpointing": 7524,
      "Ġflowers": 7525,
      "Ġjudicious": 7526,
      "Ġfavourably": 7527,
      "Ġnamely": 7528,
      "Ġrushed": 7529,
      "Ġpurse": 7530,
      "Ġplayful": 7531,
      "Ġregards": 7532,
      "Ġelliots": 7533,
      "Ġthorpes": 7534,
      "Ġbreach": 7535,
      "Ġbreeding": 7536,
      "Ġbehaving": 7537,
      "Ġneedle": 7538,
      "Ġdisappointments": 7539,
      "Ġapproving": 7540,
      "Ġconnect": 7541,
      "Ġhumility": 7542,
      "Ġhumoured": 7543,
      "Ġhumanity": 7544,
      "Ġtribut": 7545,
      "Ġconsequent": 7546,
      "Ġdistresses": 7547,
      "Ġlyford": 7548,
      "Ġcommonplace": 7549,
      "Ġconducted": 7550,
      "Ġtruths": 7551,
      "Ġfondly": 7552,
      "Ġpupp": 7553,
      "Ġremarked": 7554,
      "Ġprofit": 7555,
      "Ġannoy": 7556,
      "Ġbeds": 7557,
      "Ġguessing": 7558,
      "Ġinjure": 7559,
      "Ġaffording": 7560,
      "Ġcreditable": 7561,
      "Ġlengthened": 7562,
      "Ġcurate": 7563,
      "Ġseverity": 7564,
      "Ġdisagreement": 7565,
      "Ġindub": 7566,
      "Ġholding": 7567,
      "Ġnicely": 7568,
      "Ġunwillingly": 7569,
      "Ġ17": 7570,
      "Ġfurnished": 7571,
      "Ġaccompanying": 7572,
      "Ġsorrows": 7573,
      "Ġsoup": 7574,
      "Ġinvolve": 7575,
      "Ġobtaining": 7576,
      "Ġapprehensions": 7577,
      "Ġsources": 7578,
      "Ġcandles": 7579,
      "Ġduly": 7580,
      "Ġbenefited": 7581,
      "import": 7582,
      "Ġdisgusted": 7583,
      "Ġanticipation": 7584,
      "Ġcontemptible": 7585,
      "Ġphilipp": 7586,
      "Ġpronounce": 7587,
      "Ġbrillian": 7588,
      "Ġunconnected": 7589,
      "appearance": 7590,
      "Ġdecember": 7591,
      "Ġpuzzle": 7592,
      "Ġbriefly": 7593,
      "Ġhyster": 7594,
      "Ġcounteract": 7595,
      "Ġblooming": 7596,
      "Ġrefrained": 7597,
      "Ġinsolence": 7598,
      "Ġuniversal": 7599,
      "Ġtopics": 7600,
      "Ġcreate": 7601,
      "Ġmagnific": 7602,
      "Ġshelter": 7603,
      "Ġdebts": 7604,
      "Ġcondesc": 7605,
      "Ġclouds": 7606,
      "Ġfinger": 7607,
      "Ġprodigious": 7608,
      "Ġshadow": 7609,
      "Ġcarte": 7610,
      "Ġguineas": 7611,
      "breeding": 7612,
      "Ġseclusion": 7613,
      "Ġjuly": 7614,
      "Ġrumour": 7615,
      "Ġsparkling": 7616,
      "Ġlikelihood": 7617,
      "Ġinsipid": 7618,
      "Ġindispensable": 7619,
      "Ġdissuade": 7620,
      "Ġecstas": 7621,
      "Ġbragge": 7622,
      "Ġelopement": 7623,
      "Ġpheasants": 7624,
      "Ġbosom": 7625,
      "Ġshakespe": 7626,
      "Ġmichael": 7627,
      "Ġitalian": 7628,
      "Ġgoodnestone": 7629,
      "Ġnevertheless": 7630,
      "Ġbrilliancy": 7631,
      "av": 7632,
      "bet": 7633,
      "book": 7634,
      "cot": 7635,
      "cried": 7636,
      "des": 7637,
      "emy": 7638,
      "gency": 7639,
      "houses": 7640,
      "iate": 7641,
      "jest": 7642,
      "mons": 7643,
      "nal": 7644,
      "nel": 7645,
      "pent": 7646,
      "since": 7647,
      "ua": 7648,
      "uv": 7649,
      "vation": 7650,
      "Ġ6": 7651,
      "Ġty": 7652,
      "headed": 7653,
      "enial": 7654,
      "encing": 7655,
      "enkins": 7656,
      "edy": 7657,
      "oncert": 7658,
      "Ġhears": 7659,
      "Ġhedge": 7660,
      "Ġdust": 7661,
      "Ġdial": 7662,
      "Ġnin": 7663,
      "Ġply": 7664,
      "Ġpour": 7665,
      "Ġpoured": 7666,
      "anim": 7667,
      "atious": 7668,
      "athetic": 7669,
      "Ġlut": 7670,
      "Ġgar": 7671,
      "Ġgathered": 7672,
      "verting": 7673,
      "strance": 7674,
      "Ġthread": 7675,
      "Ġremed": 7676,
      "Ġrector": 7677,
      "enth": 7678,
      "Ġascended": 7679,
      "Ġwhims": 7680,
      "riend": 7681,
      "Ġug": 7682,
      "adable": 7683,
      "peak": 7684,
      "Ġsell": 7685,
      "Ġmend": 7686,
      "Ġdevi": 7687,
      "Ġdejection": 7688,
      "quar": 7689,
      "Ġfrance": 7690,
      "aks": 7691,
      "Ġjenkins": 7692,
      "Ġlee": 7693,
      "ication": 7694,
      "icable": 7695,
      "Ġmiscon": 7696,
      "anty": 7697,
      "Ġshir": 7698,
      "Ġshore": 7699,
      "establ": 7700,
      "Ġunce": 7701,
      "Ġwhoever": 7702,
      "Ġdisreg": 7703,
      "Ġpervers": 7704,
      "terell": 7705,
      "Ġviv": 7706,
      "Ġrange": 7707,
      "Ġenlight": 7708,
      "Ġenemy": 7709,
      "Ġmanoe": 7710,
      "depend": 7711,
      "Ġharriot": 7712,
      "Ġintol": 7713,
      "aunt": 7714,
      "agger": 7715,
      "Ġushered": 7716,
      "Ġloving": 7717,
      "Ġimped": 7718,
      "Ġworry": 7719,
      "Ġoverc": 7720,
      "cked": 7721,
      "Ġthence": 7722,
      "Ġindec": 7723,
      "Ġindelic": 7724,
      "Ġcontain": 7725,
      "Ġmothers": 7726,
      "Ġhandkerchief": 7727,
      "Ġloveliness": 7728,
      "Ġdarling": 7729,
      "Ġending": 7730,
      "Ġendless": 7731,
      "Ġappet": 7732,
      "istic": 7733,
      "ships": 7734,
      "Ġinfat": 7735,
      "Ġsermons": 7736,
      "Ġcommitted": 7737,
      "Ġsurgeon": 7738,
      "Ġconfine": 7739,
      "Ġdowns": 7740,
      "Ġlessons": 7741,
      "Ġadvances": 7742,
      "Ġadvancing": 7743,
      "Ġrefres": 7744,
      "Ġacts": 7745,
      "Ġspoiled": 7746,
      "nobody": 7747,
      "Ġdisconcert": 7748,
      "mans": 7749,
      "vial": 7750,
      "Ġpromoting": 7751,
      "Ġpropriet": 7752,
      "Ġclearing": 7753,
      "Ġprobabilities": 7754,
      "Ġconversations": 7755,
      "Ġsurprising": 7756,
      "Ġexcurs": 7757,
      "Ġinsu": 7758,
      "Ġmonstr": 7759,
      "told": 7760,
      "Ġstatement": 7761,
      "Ġdisappointing": 7762,
      "Ġappropri": 7763,
      "Ġtrivial": 7764,
      "Ġgrants": 7765,
      "Ġallowances": 7766,
      "Ġexplore": 7767,
      "Ġlying": 7768,
      "Ġsecondly": 7769,
      "Ġtempers": 7770,
      "Ġtask": 7771,
      "enger": 7772,
      "Ġarranging": 7773,
      "Ġshews": 7774,
      "Ġtables": 7775,
      "Ġbookham": 7776,
      "Ġforesaw": 7777,
      "Ġvel": 7778,
      "Ġcommunicating": 7779,
      "Ġescorted": 7780,
      "Ġvariation": 7781,
      "Ġsuspicious": 7782,
      "Ġobjectionable": 7783,
      "ugal": 7784,
      "Ġfireside": 7785,
      "Ġventuring": 7786,
      "Ġremembrances": 7787,
      "Ġbelongs": 7788,
      "Ġsuggestions": 7789,
      "Ġaffron": 7790,
      "Ġeducated": 7791,
      "Ġsimpleton": 7792,
      "Ġ10": 7793,
      "Ġcruelly": 7794,
      "Ġauthorised": 7795,
      "Ġmasters": 7796,
      "Ġsunshine": 7797,
      "Ġbench": 7798,
      "Ġsky": 7799,
      "Ġartific": 7800,
      "Ġshameful": 7801,
      "Ġsacrificed": 7802,
      "Ġharmless": 7803,
      "Ġlucases": 7804,
      "Ġquarrelled": 7805,
      "Ġunfolded": 7806,
      "Ġsupplying": 7807,
      "Ġhonesty": 7808,
      "Ġpitiable": 7809,
      "Ġpitiful": 7810,
      "Ġduke": 7811,
      "Ġfirmness": 7812,
      "Ġundertaking": 7813,
      "Ġtorn": 7814,
      "Ġaccommodate": 7815,
      "Ġlawy": 7816,
      "Ġyielding": 7817,
      "Ġdespise": 7818,
      "Ġmanagement": 7819,
      "Ġcomposedly": 7820,
      "Ġattributing": 7821,
      "Ġshops": 7822,
      "Ġcoxcom": 7823,
      "Ġstationed": 7824,
      "Ġarticles": 7825,
      "Ġconfidential": 7826,
      "Ġlamb": 7827,
      "Ġwithdrew": 7828,
      "Ġwithdrawn": 7829,
      "Ġvastly": 7830,
      "Ġpolitely": 7831,
      "Ġprettily": 7832,
      "Ġprettiest": 7833,
      "Ġexpediency": 7834,
      "Ġromance": 7835,
      "Ġinspire": 7836,
      "Ġselves": 7837,
      "Ġoverlooked": 7838,
      "Ġbenevolent": 7839,
      "Ġincessantly": 7840,
      "Ġkissed": 7841,
      "Ġimpudence": 7842,
      "interrupt": 7843,
      "Ġtremble": 7844,
      "Ġpatroness": 7845,
      "Ġornaments": 7846,
      "Ġadventures": 7847,
      "Ġincomprehensible": 7848,
      "Ġcontradicted": 7849,
      "sighted": 7850,
      "Ġremonstrance": 7851,
      "Ġobstinate": 7852,
      "Ġmantel": 7853,
      "Ġvarying": 7854,
      "Ġadapted": 7855,
      "Ġoverpowering": 7856,
      "Ġfraser": 7857,
      "Ġconjugal": 7858,
      "Ġconveniently": 7859,
      "Ġcelebrated": 7860,
      "Ġphysician": 7861,
      "Ġbilliard": 7862,
      "Ġpoult": 7863,
      "Ġquantity": 7864,
      "Ġdispersed": 7865,
      "something": 7866,
      "Ġgilbert": 7867,
      "Ġjanetta": 7868,
      "Ġamply": 7869,
      "Ġtribute": 7870,
      "Ġindubitable": 7871,
      "Ġmagnificent": 7872,
      "Ġcondescension": 7873,
      "Ġmichaelmas": 7874,
      "Ġplymouth": 7875,
      "Ġlutterell": 7876,
      "Ġmanoeuv": 7877,
      "Ġmonstrous": 7878,
      "air": 7879,
      "ales": 7880,
      "bar": 7881,
      "co": 7882,
      "ds": 7883,
      "ee": 7884,
      "gl": 7885,
      "known": 7886,
      "lo": 7887,
      "lar": 7888,
      "lst": 7889,
      "lanted": 7890,
      "nn": 7891,
      "nut": 7892,
      "phab": 7893,
      "rd": 7894,
      "rit": 7895,
      "sing": 7896,
      "uch": 7897,
      "ware": 7898,
      "ynold": 7899,
      "Ã©": 7900,
      "Ġ,": 7901,
      "hen": 7902,
      "Ġau": 7903,
      "Ġaimed": 7904,
      "inqu": 7905,
      "Ġster": 7906,
      "Ġsang": 7907,
      "Ġwitty": 7908,
      "Ġming": 7909,
      "Ġmedi": 7910,
      "haet": 7911,
      "Ġbred": 7912,
      "Ġband": 7913,
      "Ġbod": 7914,
      "Ġcris": 7915,
      "Ġhearers": 7916,
      "Ġdick": 7917,
      "Ġdup": 7918,
      "Ġnaming": 7919,
      "Ġhaunt": 7920,
      "Ġphaet": 7921,
      "Ġlaughter": 7922,
      "Ġgros": 7923,
      "Ġsheets": 7924,
      "utable": 7925,
      "Ġreynold": 7926,
      "church": 7927,
      "ioned": 7928,
      "Ġforfe": 7929,
      "Ġforcing": 7930,
      "Ġweigh": 7931,
      "idance": 7932,
      "Ġissue": 7933,
      "Ġkint": 7934,
      "liest": 7935,
      "Ġcong": 7936,
      "quality": 7937,
      "Ġstared": 7938,
      "Ġdoom": 7939,
      "aker": 7940,
      "Ġexe": 7941,
      "Ġleices": 7942,
      "Ġlecture": 7943,
      "ulity": 7944,
      "Ġshire": 7945,
      "Ġlies": 7946,
      "Ġalphab": 7947,
      "Ġunnot": 7948,
      "Ġunsettled": 7949,
      "Ġperverse": 7950,
      "ousing": 7951,
      "Ġvag": 7952,
      "ils": 7953,
      "ilarity": 7954,
      "Ġages": 7955,
      "Ġprolong": 7956,
      "Ġenlar": 7957,
      "Ġque": 7958,
      "venor": 7959,
      "Ġacutely": 7960,
      "Ġadvert": 7961,
      "Ġharry": 7962,
      "Ġharwood": 7963,
      "Ġtimid": 7964,
      "Ġspacious": 7965,
      "acon": 7966,
      "Ġintense": 7967,
      "Ġfaire": 7968,
      "Ġcanter": 7969,
      "Ġchoo": 7970,
      "Ġchicken": 7971,
      "Ġobey": 7972,
      "Ġhodges": 7973,
      "urned": 7974,
      "Ġfeelingly": 7975,
      "Ġlongest": 7976,
      "Ġgrows": 7977,
      "Ġsupplanted": 7978,
      "Ġdescended": 7979,
      "Ġunderval": 7980,
      "Ġmornings": 7981,
      "Ġfathers": 7982,
      "cia": 7983,
      "Ġbranch": 7984,
      "Ġclub": 7985,
      "lesford": 7986,
      "Ġindust": 7987,
      "Ġsurvey": 7988,
      "Ġdelights": 7989,
      "Ġimmense": 7990,
      "Ġdispose": 7991,
      "Ġdispute": 7992,
      "Ġreads": 7993,
      "Ġinvest": 7994,
      "Ġinvention": 7995,
      "Ġinvari": 7996,
      "Ġcareer": 7997,
      "Ġimaginable": 7998,
      "Ġfrankness": 7999,
      "Ġstays": 8000,
      "Ġguidance": 8001,
      "Ġchees": 8002,
      "Ġrespective": 8003,
      "Ġpropens": 8004,
      "Ġmusing": 8005,
      "Ġpursue": 8006,
      "Ġwisdom": 8007,
      "bourne": 8008,
      "cribed": 8009,
      "Ġcomplet": 8010,
      "Ġattaching": 8011,
      "Ġthankfully": 8012,
      "Ġmajest": 8013,
      "Ġencumb": 8014,
      "Ġparticularity": 8015,
      "Ġsuperinte": 8016,
      "Ġlap": 8017,
      "Ġeventually": 8018,
      "Ġtenderest": 8019,
      "Ġtempor": 8020,
      "summer": 8021,
      "Ġastonish": 8022,
      "Ġhealthy": 8023,
      "Ġoccurrence": 8024,
      "Ġdeparted": 8025,
      "Ġdeplor": 8026,
      "grown": 8027,
      "Ġproceedings": 8028,
      "Ġtolerate": 8029,
      "Ġgreville": 8030,
      "Ġforetold": 8031,
      "Ġbeholding": 8032,
      "Ġutility": 8033,
      "Ġcommunicative": 8034,
      "Ġsingular": 8035,
      "Ġiron": 8036,
      "Ġjoyfully": 8037,
      "Ġescort": 8038,
      "Ġstriving": 8039,
      "Ġstrictly": 8040,
      "Ġrules": 8041,
      "Ġsummers": 8042,
      "Ġsummoned": 8043,
      "Ġgrandfather": 8044,
      "Ġtreacher": 8045,
      "Ġcrime": 8046,
      "Ġprivately": 8047,
      "Ġpostp": 8048,
      "Ġposts": 8049,
      "Ġembra": 8050,
      "Ġsolicited": 8051,
      "Ġquarters": 8052,
      "Ġinconven": 8053,
      "Ġpolished": 8054,
      "Ġsuggesting": 8055,
      "Ġsuccessfully": 8056,
      "Ġcontriving": 8057,
      "Ġurgency": 8058,
      "Ġaffirm": 8059,
      "Ġusefulness": 8060,
      "Ġinstructions": 8061,
      "Ġofficious": 8062,
      "Ġclearness": 8063,
      "Ġapologize": 8064,
      "Ġmessages": 8065,
      "Ġmessenger": 8066,
      "Ġsignificant": 8067,
      "Ġfreshness": 8068,
      "Ġalternat": 8069,
      "Ġpalmers": 8070,
      "Ġperformers": 8071,
      "Ġensure": 8072,
      "Ġdaw": 8073,
      "Ġgowns": 8074,
      "judging": 8075,
      "Ġoffending": 8076,
      "Ġheroism": 8077,
      "Ġwillingness": 8078,
      "Ġwilderness": 8079,
      "Ġmeditations": 8080,
      "Ġrestrained": 8081,
      "...": 8082,
      "Ġfreinds": 8083,
      "Ġlamenting": 8084,
      "Ġprecaut": 8085,
      "Ġaccommodations": 8086,
      "Ġstruggled": 8087,
      "Ġcarelessly": 8088,
      "Ġalicia": 8089,
      "Ġapplications": 8090,
      "Ġdespised": 8091,
      "Ġforgiveness": 8092,
      "Ġmilitary": 8093,
      "Ġdiscernment": 8094,
      "Ġinconsistency": 8095,
      "Ġafflicted": 8096,
      "Ġceaseless": 8097,
      "Ġparcels": 8098,
      "Ġsucklings": 8099,
      "Ġreflecting": 8100,
      "iterate": 8101,
      "Ġemphas": 8102,
      "Ġhazarded": 8103,
      "Ġdisturbance": 8104,
      "Ġreluctant": 8105,
      "Ġscreen": 8106,
      "Ġcontribute": 8107,
      "Ġcontributed": 8108,
      "Ġeffusion": 8109,
      "Ġeffusions": 8110,
      "Ġexclamations": 8111,
      "Ġpicturesque": 8112,
      "Ġsheltered": 8113,
      "Ġunreserved": 8114,
      "Ġoperation": 8115,
      "Ġbanished": 8116,
      "Ġdictate": 8117,
      "Ġplanning": 8118,
      "Ġreleased": 8119,
      "Ġmirth": 8120,
      "Ġnursed": 8121,
      "Ġimperfect": 8122,
      "Ġ181": 8123,
      "Ġpoetry": 8124,
      "Ġharrison": 8125,
      "Ġunconcerned": 8126,
      "Ġidleness": 8127,
      "Ġeloquence": 8128,
      "civil": 8129,
      "Ġsomersetshire": 8130,
      "Ġglee": 8131,
      "Ġfootsteps": 8132,
      "Ġreligion": 8133,
      "Ġsarah": 8134,
      "Ġpelisse": 8135,
      "Ġindividual": 8136,
      "Ġegerton": 8137,
      "Ġlinen": 8138,
      "Ġgipsies": 8139,
      "Ġcourteous": 8140,
      "Ġcontrivance": 8141,
      "Ġavenue": 8142,
      "Ġdevelop": 8143,
      "Ġsaucy": 8144,
      "Ġcomprised": 8145,
      "Ġwindsor": 8146,
      "Ġenvirons": 8147,
      "Ġmarlowe": 8148,
      "Ġcarteret": 8149,
      "Ġshakespeare": 8150,
      "Ġvivacity": 8151,
      "Ġappetite": 8152,
      "Ġinfatuation": 8153,
      "Ġartificial": 8154,
      "Ġlawyer": 8155,
      "Ġcoxcomb": 8156,
      "Ġpoultry": 8157,
      "Ġgrosvenor": 8158,
      "Ġreynolds": 8159,
      "Ġkintbury": 8160,
      "Ġunnoticed": 8161,
      "Ġinvariably": 8162,
      "actly": 8163,
      "beth": 8164,
      "bleness": 8165,
      "every": 8166,
      "even": 8167,
      "ipped": 8168,
      "ivering": 8169,
      "mble": 8170,
      "master": 8171,
      "none": 8172,
      "pret": 8173,
      "ronage": 8174,
      "uated": 8175,
      "vis": 8176,
      "Ãª": 8177,
      "Ġtick": 8178,
      "Ġtax": 8179,
      "hel": 8180,
      "Ġale": 8181,
      "Ġaverted": 8182,
      "Ġsne": 8183,
      "Ġwil": 8184,
      "reen": 8185,
      "Ġmood": 8186,
      "Ġmerr": 8187,
      "hall": 8188,
      "Ġcured": 8189,
      "Ġfalls": 8190,
      "Ġfaster": 8191,
      "onies": 8192,
      "Ġheath": 8193,
      "ington": 8194,
      "Ġdated": 8195,
      "Ġdenny": 8196,
      "Ġnon": 8197,
      "Ġnanny": 8198,
      "Ġpant": 8199,
      "Ġpick": 8200,
      "Ġpieces": 8201,
      "ases": 8202,
      "ashing": 8203,
      "aste": 8204,
      "Ġinim": 8205,
      "Ġinade": 8206,
      "Ġhid": 8207,
      "Ġetern": 8208,
      "Ġnomin": 8209,
      "omes": 8210,
      "Ġgoose": 8211,
      "street": 8212,
      "enting": 8213,
      "entious": 8214,
      "Ġforci": 8215,
      "Ġasunder": 8216,
      "imul": 8217,
      "imney": 8218,
      "Ġbutter": 8219,
      "rog": 8220,
      "adation": 8221,
      "illery": 8222,
      "Ġkill": 8223,
      "lived": 8224,
      "liament": 8225,
      "lizzy": 8226,
      "Ġconceived": 8227,
      "Ġseize": 8228,
      "Ġmember": 8229,
      "Ġstimul": 8230,
      "Ġwhilst": 8231,
      "Ġdoct": 8232,
      "Ġfrances": 8233,
      "Ġlevel": 8234,
      "Ġknoll": 8235,
      "felt": 8236,
      "Ġsag": 8237,
      "Ġsack": 8238,
      "Ġsailed": 8239,
      "Ġmisapp": 8240,
      "Ġmiserably": 8241,
      "Ġshift": 8242,
      "Ġungu": 8243,
      "Ġunwho": 8244,
      "Ġuninterrupt": 8245,
      "Ġuncivil": 8246,
      "Ġdism": 8247,
      "Ġabused": 8248,
      "Ġprope": 8249,
      "Ġrousing": 8250,
      "Ġenum": 8251,
      "Ġenfor": 8252,
      "astic": 8253,
      "Ġpartridge": 8254,
      "Ġharsh": 8255,
      "Ġnowhere": 8256,
      "Ġcomposition": 8257,
      "Ġcomplying": 8258,
      "Ġintr": 8259,
      "Ġintrud": 8260,
      "Ġchil": 8261,
      "Ġchina": 8262,
      "Ġchimney": 8263,
      "Ġchaper": 8264,
      "ressing": 8265,
      "throp": 8266,
      "Ġthoughtlessness": 8267,
      "Ġimpose": 8268,
      "Ġconsulting": 8269,
      "Ġsisterly": 8270,
      "ums": 8271,
      "were": 8272,
      "Ġoverth": 8273,
      "Ġsupplic": 8274,
      "Ġprime": 8275,
      "Ġretract": 8276,
      "Ġretained": 8277,
      "Ġtalkative": 8278,
      "faction": 8279,
      "Ġscott": 8280,
      "Ġassid": 8281,
      "Ġbrook": 8282,
      "Ġappeased": 8283,
      "Ġcler": 8284,
      "Ġdistract": 8285,
      "Ġpossibilities": 8286,
      "Ġacquitted": 8287,
      "Ġacquisition": 8288,
      "ians": 8289,
      "Ġindist": 8290,
      "Ġadmitting": 8291,
      "Ġcarpet": 8292,
      "Ġbathing": 8293,
      "Ġblock": 8294,
      "Ġpoorly": 8295,
      "Ġchannel": 8296,
      "serv": 8297,
      "Ġpersonally": 8298,
      "Ġcontinues": 8299,
      "Ġraillery": 8300,
      "ffin": 8301,
      "Ġgentlewoman": 8302,
      "ival": 8303,
      "ivoc": 8304,
      "Ġdiscredit": 8305,
      "Ġdiscerning": 8306,
      "ignant": 8307,
      "Ġforms": 8308,
      "manage": 8309,
      "mances": 8310,
      "Ġgraces": 8311,
      "ernation": 8312,
      "Ġpap": 8313,
      "Ġpausing": 8314,
      "Ġproposing": 8315,
      "Ġfullest": 8316,
      "Ġflour": 8317,
      "Ġanxieties": 8318,
      "Ġresolute": 8319,
      "Ġrelatives": 8320,
      "Ġrelinqu": 8321,
      "Ġconcise": 8322,
      "Ġsteward": 8323,
      "Ġwales": 8324,
      "Ġpurple": 8325,
      "Ġsurprises": 8326,
      "onsens": 8327,
      "Ġregarding": 8328,
      "Ġmistakes": 8329,
      "Ġrealize": 8330,
      "Ġneeds": 8331,
      "Ġinclude": 8332,
      "Ġapproval": 8333,
      "Ġwentworths": 8334,
      "Ġequality": 8335,
      "Ġsuperf": 8336,
      "Ġswept": 8337,
      "Ġforwarded": 8338,
      "Ġmidsummer": 8339,
      "Ġfiner": 8340,
      "Ġfinishing": 8341,
      "Ġfearless": 8342,
      "Ġneighbor": 8343,
      "Ġboat": 8344,
      "Ġexcluded": 8345,
      "Ġconstruction": 8346,
      "Ġconsternation": 8347,
      "ilious": 8348,
      "Ġmeantime": 8349,
      "Ġeffectually": 8350,
      "Ġparliament": 8351,
      "Ġcecili": 8352,
      "Ġinforming": 8353,
      "Ġproductive": 8354,
      "Ġvehe": 8355,
      "Ġlightly": 8356,
      "Ġteazing": 8357,
      "Ġirk": 8358,
      "Ġexceeding": 8359,
      "Ġjoyous": 8360,
      "Ġhabitu": 8361,
      "Ġfaultless": 8362,
      "Ġstrikes": 8363,
      "Ġgrieving": 8364,
      "Ġvarieties": 8365,
      "Ġreprob": 8366,
      "Ġwinthrop": 8367,
      "Ġinjurious": 8368,
      "Ġprivy": 8369,
      "Ġprivations": 8370,
      "ticoat": 8371,
      "Ġattendant": 8372,
      "Ġcottager": 8373,
      "chamber": 8374,
      "Ġdisgraced": 8375,
      "Ġadmires": 8376,
      "Ġserviceable": 8377,
      "Ġleads": 8378,
      "Ġpreferable": 8379,
      "Ġpreferment": 8380,
      "Ġdivisions": 8381,
      "Ġafflu": 8382,
      "Ġslo": 8383,
      "Ġfrighten": 8384,
      "Ġanimating": 8385,
      "Ġinferred": 8386,
      "Ġbrightened": 8387,
      "Ġconsoled": 8388,
      "Ġdestination": 8389,
      "Ġinequality": 8390,
      "poc": 8391,
      "Ġgaily": 8392,
      "Ġgaieties": 8393,
      "Ġrequesting": 8394,
      "Ġdescriptions": 8395,
      "Ġlaying": 8396,
      "Ġpossesses": 8397,
      "Ġpretending": 8398,
      "Ġdroll": 8399,
      "Ġdrops": 8400,
      "Ġsacrifices": 8401,
      "Ġschol": 8402,
      "Ġdissol": 8403,
      "Ġhotel": 8404,
      "Ġindignant": 8405,
      "Ġpracticable": 8406,
      "Ġchecking": 8407,
      "Ġfoolishly": 8408,
      "Ġconsultation": 8409,
      "Ġfetched": 8410,
      "Ġfetching": 8411,
      "Ġmeditated": 8412,
      "Ġmeditating": 8413,
      "Ġfilling": 8414,
      "Ġrepresenting": 8415,
      "Ġwitnessing": 8416,
      "Ġdeliver": 8417,
      "Ġpersevere": 8418,
      "Ġweariness": 8419,
      "exactly": 8420,
      "Ġhorrors": 8421,
      "iveness": 8422,
      "Ġlouder": 8423,
      "Ġceremonious": 8424,
      "Ġdisgusting": 8425,
      "Ġcoolness": 8426,
      "Ġenquiring": 8427,
      "Ġchatty": 8428,
      "Ġfaithfully": 8429,
      "Ġcooke": 8430,
      "Ġutterly": 8431,
      "Ġunreasonably": 8432,
      "Ġmildness": 8433,
      "Ġexcitement": 8434,
      "Ġvulg": 8435,
      "Ġshrubberies": 8436,
      "Ġcoxes": 8437,
      "Ġpreceded": 8438,
      "Ġcurtsey": 8439,
      "Ġrewarded": 8440,
      "Ġvirtues": 8441,
      "Ġscotch": 8442,
      "Ġpalp": 8443,
      "Ġpulse": 8444,
      "Ġprivileged": 8445,
      "going": 8446,
      "Ġsoothe": 8447,
      "Ġassociations": 8448,
      "Ġwander": 8449,
      "Ġpetticoat": 8450,
      "Ġgrandmamma": 8451,
      "Ġpunctually": 8452,
      "Ġforbidden": 8453,
      "Ġsubdue": 8454,
      "Ġappealed": 8455,
      "Ġpermit": 8456,
      "Ġmagna": 8457,
      "Ġhosp": 8458,
      "Ġardour": 8459,
      "Ġdetails": 8460,
      "Ġelevated": 8461,
      "Ġwidely": 8462,
      "Ġpondered": 8463,
      "Ġpondering": 8464,
      "Ġrobbed": 8465,
      "Ġdeliberation": 8466,
      "Ġdeliberately": 8467,
      "Ġunsuccess": 8468,
      "Ġunsuitable": 8469,
      "Ġdissipation": 8470,
      "Ġdictated": 8471,
      "Ġdorothe": 8472,
      "Ġdiscontent": 8473,
      "Ġfingers": 8474,
      "Ġdeedes": 8475,
      "Ġabhorrence": 8476,
      "Ġdegradation": 8477,
      "Ġmercen": 8478,
      "Ġnarration": 8479,
      "Ġnursing": 8480,
      "Ġstretch": 8481,
      "Ġrevive": 8482,
      "Ġapprehended": 8483,
      "Ġastray": 8484,
      "Ġspruce": 8485,
      "Ġsprung": 8486,
      "Ġinhabitants": 8487,
      "Ġsplendid": 8488,
      "Ġcowper": 8489,
      "Ġdoubly": 8490,
      "Ġinattention": 8491,
      "Ġliterary": 8492,
      "Ġmysterious": 8493,
      "Ġportrait": 8494,
      "Ġsleepless": 8495,
      "Ġdespatch": 8496,
      "Ġroute": 8497,
      "Ġdesponding": 8498,
      "Ġwilful": 8499,
      "Ġfowle": 8500,
      "Ġecclesford": 8501,
      "Ġpopularity": 8502,
      "Ġindolent": 8503,
      "Ġinexpress": 8504,
      "Ġcabinet": 8505,
      "Ġmoonlight": 8506,
      "Ġallevi": 8507,
      "Ġdispatched": 8508,
      "Ġscarlet": 8509,
      "Ġcourtesy": 8510,
      "Ġperformances": 8511,
      "Ġtroubled": 8512,
      "Ġphilippa": 8513,
      "Ġdialogue": 8514,
      "Ġjenkinson": 8515,
      "Ġshirley": 8516,
      "Ġperverseness": 8517,
      "Ġovercame": 8518,
      "Ġvelvet": 8519,
      "Ġsterling": 8520,
      "Ġcanterbury": 8521,
      "Ġdeplorable": 8522,
      "Ġalternative": 8523,
      "Ġmerriment": 8524,
      "Ġforcibly": 8525,
      "Ġunwholesome": 8526,
      "Ġcecilia": 8527,
      "Ġdorothea": 8528,
      "'m": 8529,
      ");": 8530,
      "aid": 8531,
      "bod": 8532,
      "bridge": 8533,
      "cake": 8534,
      "cers": 8535,
      "ciful": 8536,
      "ees": 8537,
      "elf": 8538,
      "eady": 8539,
      "fashion": 8540,
      "gam": 8541,
      "gard": 8542,
      "ks": 8543,
      "kind": 8544,
      "mar": 8545,
      "might": 8546,
      "much": 8547,
      "nces": 8548,
      "oon": 8549,
      "rs": 8550,
      "ral": 8551,
      "sons": 8552,
      "take": 8553,
      "uce": 8554,
      "uish": 8555,
      "uously": 8556,
      "Ġll": 8557,
      "Ġtum": 8558,
      "Ġaim": 8559,
      "inished": 8560,
      "Ġwim": 8561,
      "Ġward": 8562,
      "Ġwig": 8563,
      "rel": 8564,
      "Ġmoo": 8565,
      "Ġminor": 8566,
      "Ġble": 8567,
      "Ġbal": 8568,
      "Ġbows": 8569,
      "Ġboot": 8570,
      "Ġbilious": 8571,
      "Ġtooth": 8572,
      "Ġcun": 8573,
      "Ġfart": 8574,
      "Ġfick": 8575,
      "Ġheed": 8576,
      "Ġheal": 8577,
      "Ġheire": 8578,
      "Ġdow": 8579,
      "Ġdil": 8580,
      "Ġnic": 8581,
      "isons": 8582,
      "Ġhaught": 8583,
      "itia": 8584,
      "ask": 8585,
      "ashes": 8586,
      "Ġinse": 8587,
      "leigh": 8588,
      "another": 8589,
      "Ġecl": 8590,
      "Ġlan": 8591,
      "Ġlent": 8592,
      "Ġgust": 8593,
      "Ġgun": 8594,
      "Ġgames": 8595,
      "Ġrese": 8596,
      "oward": 8597,
      "Ġweaken": 8598,
      "Ġwithheld": 8599,
      "idd": 8600,
      "Ġanec": 8601,
      "Ġsucc": 8602,
      "Ġsupers": 8603,
      "alter": 8604,
      "alted": 8605,
      "root": 8606,
      "Ġconn": 8607,
      "Ġconund": 8608,
      "Ġseren": 8609,
      "Ġseym": 8610,
      "ams": 8611,
      "amar": 8612,
      "Ġstom": 8613,
      "Ġstain": 8614,
      "Ġstif": 8615,
      "Ġstated": 8616,
      "Ġcomedy": 8617,
      "Ġdock": 8618,
      "Ġexulting": 8619,
      "Ġexagger": 8620,
      "Ġjack": 8621,
      "Ġknife": 8622,
      "Ġfelic": 8623,
      "icial": 8624,
      "hance": 8625,
      "Ġshot": 8626,
      "Ġshower": 8627,
      "Ġshoot": 8628,
      "Ġshorter": 8629,
      "estib": 8630,
      "Ġlift": 8631,
      "Ġunob": 8632,
      "Ġdisappeared": 8633,
      "ittance": 8634,
      "Ġabuse": 8635,
      "Ġva": 8636,
      "Ġvice": 8637,
      "Ġvestib": 8638,
      "Ġagitations": 8639,
      "Ġprose": 8640,
      "Ġproves": 8641,
      "uscript": 8642,
      "Ġmanager": 8643,
      "Ġmanuscript": 8644,
      "Ġmarking": 8645,
      "Ġmarries": 8646,
      "ifies": 8647,
      "ifiable": 8648,
      "Ġtimidity": 8649,
      "Ġspont": 8650,
      "acies": 8651,
      "Ġgreatcoat": 8652,
      "Ġcomparing": 8653,
      "Ġfailing": 8654,
      "pected": 8655,
      "those": 8656,
      "three": 8657,
      "Ġthoughtfulness": 8658,
      "Ġimparted": 8659,
      "Ġroll": 8660,
      "Ġresented": 8661,
      "Ġresident": 8662,
      "Ġrespond": 8663,
      "Ġunde": 8664,
      "Ġundist": 8665,
      "Ġreplies": 8666,
      "umes": 8667,
      "assing": 8668,
      "Ġoverwhe": 8669,
      "tenance": 8670,
      "Ġsuppressed": 8671,
      "ckles": 8672,
      "Ġprison": 8673,
      "Ġpratt": 8674,
      "forty": 8675,
      "aneously": 8676,
      "Ġoffensive": 8677,
      "Ġretain": 8678,
      "Ġretros": 8679,
      "Ġedge": 8680,
      "Ġscold": 8681,
      "Ġscolding": 8682,
      "Ġexposing": 8683,
      "Ġjokes": 8684,
      "Ġhereto": 8685,
      "Ġhereabouts": 8686,
      "Ġbrow": 8687,
      "Ġmanydown": 8688,
      "ainted": 8689,
      "Ġcharged": 8690,
      "Ġclosing": 8691,
      "Ġviscount": 8692,
      "Ġdistaste": 8693,
      "Ġcaps": 8694,
      "acked": 8695,
      "things": 8696,
      "Ġpasses": 8697,
      "Ġpassages": 8698,
      "ensions": 8699,
      "Ġgenerations": 8700,
      "Ġindisc": 8701,
      "Ġteaching": 8702,
      "Ġadmin": 8703,
      "Ġinfancy": 8704,
      "Ġincommod": 8705,
      "ceptible": 8706,
      "Ġwhereas": 8707,
      "Ġconfide": 8708,
      "Ġbla": 8709,
      "Ġevidence": 8710,
      "ixed": 8711,
      "Ġchanced": 8712,
      "Ġfortunes": 8713,
      "Ġreform": 8714,
      "Ġbestowing": 8715,
      "Ġrestri": 8716,
      "Ġreaders": 8717,
      "Ġunche": 8718,
      "Ġcontinuation": 8719,
      "Ġextract": 8720,
      "verses": 8721,
      "Ġkeeps": 8722,
      "Ġreasoned": 8723,
      "Ġfollies": 8724,
      "Ġimage": 8725,
      "Ġimpelled": 8726,
      "Ġmini": 8727,
      "Ġobserver": 8728,
      "Ġagreeableness": 8729,
      "Ġformality": 8730,
      "Ġseemingly": 8731,
      "Ġimagining": 8732,
      "Ġchel": 8733,
      "Ġbennets": 8734,
      "belie": 8735,
      "Ġresolutions": 8736,
      "Ġdeciding": 8737,
      "Ġsteep": 8738,
      "Ġcharacteristic": 8739,
      "Ġfanciful": 8740,
      "Ġdisapprove": 8741,
      "Ġhush": 8742,
      "Ġmonk": 8743,
      "Ġdrawer": 8744,
      "Ġdrawers": 8745,
      "Ġadmirably": 8746,
      "Ġcolds": 8747,
      "Ġextrem": 8748,
      "Ġhumbled": 8749,
      "Ġenchan": 8750,
      "Ġworthless": 8751,
      "Ġbateses": 8752,
      "Ġviewed": 8753,
      "Ġtenants": 8754,
      "Ġstands": 8755,
      "Ġcomplimentary": 8756,
      "Ġwinding": 8757,
      "supp": 8758,
      "Ġconstrained": 8759,
      "Ġquicker": 8760,
      "Ġanguish": 8761,
      "Ġpraises": 8762,
      "Ġearned": 8763,
      "Ġplacid": 8764,
      "Ġsuddenness": 8765,
      "Ġfellows": 8766,
      "Ġpatronage": 8767,
      "Ġhasten": 8768,
      "Ġforebod": 8769,
      "Ġburied": 8770,
      "Ġtraged": 8771,
      "Ġhinted": 8772,
      "Ġdelicious": 8773,
      "Ġsummon": 8774,
      "Ġaffectedly": 8775,
      "Ġriddle": 8776,
      "Ġruns": 8777,
      "Ġinjunction": 8778,
      "Ġprayers": 8779,
      "Ġblushes": 8780,
      "Ġjudgement": 8781,
      "Ġsecrets": 8782,
      "Ġbarbar": 8783,
      "Ġuntoward": 8784,
      "Ġslave": 8785,
      "Ġinstruction": 8786,
      "Ġresentful": 8787,
      "Ġanimal": 8788,
      "Ġproviding": 8789,
      "Ġtrifles": 8790,
      "Ġtermination": 8791,
      "Ġsignific": 8792,
      "rehension": 8793,
      "pole": 8794,
      "Ġmutually": 8795,
      "Ġestablish": 8796,
      "Ġdawd": 8797,
      "Ġartful": 8798,
      "denial": 8799,
      "Ġyouthful": 8800,
      "Ġtravellers": 8801,
      "Ġfasten": 8802,
      "Ġfigures": 8803,
      "Ġdemure": 8804,
      "Ġreports": 8805,
      "Ġprotesting": 8806,
      "Ġdissim": 8807,
      "Ġcourtship": 8808,
      "born": 8809,
      "Ġderive": 8810,
      "Ġpractised": 8811,
      "Ġoriginated": 8812,
      "Ġmaids": 8813,
      "Ġhousekeeping": 8814,
      "....": 8815,
      "Ġmaintenance": 8816,
      "Ġunnecessarily": 8817,
      "Ġwearied": 8818,
      "Ġbreathed": 8819,
      "Ġattacked": 8820,
      "Ġundertaken": 8821,
      "Ġdemanding": 8822,
      "Ġavowed": 8823,
      "Ġescaping": 8824,
      "Ġloudly": 8825,
      "Ġcarelessness": 8826,
      "repared": 8827,
      "Ġcooper": 8828,
      "Ġsafest": 8829,
      "Ġbasin": 8830,
      "Ġpurchased": 8831,
      "Ġcommended": 8832,
      "Ġmilitia": 8833,
      "Ġcalculate": 8834,
      "Ġelderly": 8835,
      "Ġperfections": 8836,
      "Ġgraciousness": 8837,
      "Ġmaintaining": 8838,
      "Ġsubstant": 8839,
      "Ġsoftness": 8840,
      "Ġdecease": 8841,
      "Ġthreatening": 8842,
      "rers": 8843,
      "Ġfeverish": 8844,
      "Ġobstacles": 8845,
      "Ġplead": 8846,
      "Ġrehearse": 8847,
      "Ġadieus": 8848,
      "Ġimproperly": 8849,
      "Ġmotionless": 8850,
      "Ġhypoc": 8851,
      "Ġassociate": 8852,
      "Ġrepaired": 8853,
      "Ġinexc": 8854,
      "Ġrenewing": 8855,
      "Ġreckon": 8856,
      "Ġkeenly": 8857,
      "Ġdeficiencies": 8858,
      "Ġextend": 8859,
      "Ġaudible": 8860,
      "Ġfruitless": 8861,
      "Ġfields": 8862,
      "Ġstroll": 8863,
      "Ġelevation": 8864,
      "Ġmacbeth": 8865,
      "Ġbeaux": 8866,
      "Ġdissipated": 8867,
[...]
